the 370668
of 342538
, 284690
and 263934
. 191817
in 128041
@-@ 119980
to 79973
) 74273
( 73794
The 68787
is 63030
on 60566
with 51386
a 49681
for 44184
by 39443
was 37712
% 33362
were 33217
that 31332
/ 28688
as 25511
are 24755
2 20732
from 20397
system 19037
: 19015
1 18684
which 17325
at 15580
method 15157
be 14687
&quot; 14672
paper 14615
A 14546
this 14400
&apos;s 14213
3 14001
- 13340
can 12921
In 12240
has 12077
it 11998
_ 11803
an 11615
group 11364
between 10836
control 10541
its 10372
P 10016
or 9997
results 9607
analysis 9593
4 9275
model 9226
+ 9160
high 9136
time 9113
This 8905
rate 8692
than 8676
development 8517
; 8428
based 8286
re@@ 8182
5 7986
using 7766
study 7730
after 7654
water 7646
different 7642
two 7560
s 7522
Study 7463
= 7442
used 7437
into 7428
have 7397
new 7349
patients 7240
L 7213
design 6999
It 6965
been 6943
structure 6923
10 6887
6 6849
single 6828
effect 6799
also 6768
~ 6742
respectively 6740
one 6727
process 6682
cases 6231
C 6095
not 6087
0 6051
&lt; 6050
technology 5838
China 5763
but 5752
Based 5604
data 5590
± 5548
out 5512
temperature 5511
&apos; 5432
Results 5428
theory 5423
under 5422
S@@ 5407
more 5297
some 5279
research 5156
showed 5137
about 5132
we 5106
such 5102
up 5091
Analysis 5059
type 5040
～ 5002
in@@ 4995
management 4841
Methods 4840
To 4819
application 4781
8 4770
their 4766
treatment 4711
three 4703
OF 4678
B@@ 4672
t 4626
quality 4603
System 4601
higher 4568
Chinese 4550
D@@ 4534
n 4527
level 4523
m 4484
test 4445
all 4392
value 4390
P@@ 4377
C@@ 4375
7 4373
main 4369
well 4368
studied 4367
T 4334
B 4331
function 4311
cells 4307
low 4302
Application 4295
order 4263
content 4251
A@@ 4157
important 4110
ate 4109
， 4098
methods 4095
F@@ 4077
R@@ 4020
information 4019
o 4008
N 4007
℃ 4002
s@@ 3997
so 3991
L@@ 3974
T@@ 3957
g 3950
o@@ 3929
S 3914
ing 3864
through 3842
i 3826
characteristics 3818
result 3810
cell 3804
expression 3779
e 3772
p@@ 3742
area 3716
had 3709
e@@ 3706
only 3678
E@@ 3673
On 3659
when 3640
、 3626
ratio 3619
other 3601
ed 3593
show 3589
G@@ 3581
mg 3567
field 3565
× 3557
es 3537
construction 3534
network 3522
same 3504
use 3488
power 3467
increased 3451
H@@ 3450
Research 3447
0.05 3442
2@@ 3442
-@@ 3433
surface 3433
D 3421
then 3421
obtained 3418
could 3397
N@@ 3382
human 3363
should 3361
un@@ 3342
education 3339
9 3331
ated 3320
during 3305
mechanism 3297
t@@ 3295
de@@ 3271
n@@ 3271
there 3270
20 3263
d 3260
factors 3254
3@@ 3246
O@@ 3243
analyzed 3242
teaching 3219
y 3204
p 3191
conditions 3178
I 3171
M@@ 3156
Method 3150
right 3142
flow 3128
d@@ 3127
concentration 3123
i@@ 3111
performance 3091
pressure 3083
W@@ 3072
condition 3067
ability 3065
ation 3059
made 3056
groups 3051
acid 3045
di@@ 3042
first 3041
operation 3026
h 3025
problems 3018
ro@@ 3013
30 3004
article 2994
E 2990
gene 2979
K@@ 2970
ating 2969
effects 2963
an@@ 2951
technique 2949
H 2940
12 2939
no 2935
significantly 2935
will 2935
phase 2917
distribution 2894
al@@ 2884
our 2868
er 2865
4@@ 2864
X 2863
risk 2863
kg 2860
culture 2838
market 2835
a@@ 2827
growth 2826
· 2822
found 2818
solution 2811
discussed 2809
production 2809
ting 2809
influence 2808
soil 2804
en@@ 2801
M 2783
protein 2782
environment 2777
co@@ 2775
oil 2773
Re@@ 2766
forward 2747
lower 2746
b@@ 2742
both 2741
normal 2741
y@@ 2739
ted 2737
g@@ 2736
total 2721
&gt; 2720
line 2718
basis 2708
x 2694
activity 2674
compared 2669
good 2659
basic 2655
O 2653
energy 2652
V@@ 2649
K 2645
relationship 2637
introduced 2635
difference 2631
including 2630
efficiency 2624
c@@ 2619
al 2618
way 2608
R 2600
Objective 2597
problem 2597
50 2595
parameters 2576
form 2574
r@@ 2568
years 2568
k@@ 2565
By 2563
I@@ 2550
while 2541
mm 2540
l@@ 2536
most 2533
point 2532
resistance 2532
traditional 2529
5@@ 2526
Design 2526
algorithm 2526
u@@ 2525
increase 2524
reaction 2524
principle 2510
experiment 2509
U@@ 2508
stress 2498
Its 2488
gas 2484
improve 2463
F 2436
positive 2436
us 2431
speed 2424
ar@@ 2422
these 2422
h@@ 2414
steel 2414
G 2410
l 2407
size 2407
related 2403
material 2399
0.01 2393
15 2381
6@@ 2381
properties 2379
AND 2367
significant 2364
con@@ 2357
average 2353
V 2352
as@@ 2346
developed 2345
With 2343
age 2338
change 2336
factor 2334
dynamic 2328
economic 2324
law 2322
part 2318
side 2311
on@@ 2310
m@@ 2307
si@@ 2294
After 2288
non 2288
mainly 2287
ts 2276
frequency 2274
make 2273
present 2273
Effect 2269
work 2268
period 2266
less 2265
able 2263
state 2260
current 2259
strength 2258
f@@ 2256
introduces 2254
As 2250
effective 2244
stage 2233
software 2227
those 2223
heat 2217
according 2206
ers 2205
mode 2205
blood 2192
ations 2190
over 2188
r 2169
number 2165
shows 2164
each 2163
c 2155
large 2140
six 2140
or@@ 2138
given 2132
experimental 2130
ti@@ 2128
presented 2127
life 2126
set 2126
means 2123
standard 2100
100 2084
ic 2083
short 2078
THE 2065
long 2063
students 2059
cm 2057
simulation 2056
treated 2051
at@@ 2049
proposed 2042
b 2040
body 2038
ri@@ 2038
J@@ 2026
range 2026
economy 2025
among 2022
decreased 2018
applied 2014
days 2011
40 2006
&#91; 2005
ul@@ 2005
Y@@ 2003
air 2002
According 1997
four 1997
&#93; 1995
An 1985
er@@ 1970
layer 1970
etc 1965
weight 1961
very 1959
7@@ 1953
um 1953
IN 1949
concrete 1948
There 1947
1@@ 1946
them 1943
u 1936
signal 1935
country 1925
Conclusion 1923
space 1918
practice 1915
60 1910
index 1897
Control 1895
ch@@ 1893
sub@@ 1892
changes 1891
how 1887
min 1887
Using 1886
service 1885
key 1879
25 1878
induced 1869
α 1869
author 1862
light 1861
may 1857
rats 1856
social 1854
measured 1847
tion 1845
is@@ 1844
pre@@ 1841
ine 1839
modern 1838
DNA 1836
ates 1830
pro@@ 1827
cost 1824
serum 1824
ac@@ 1821
characteristic 1819
1.@@ 1818
put 1818
wave 1818
tic 1811
st@@ 1807
β 1807
people 1806
11 1805
Development 1801
Model 1799
9@@ 1798
In@@ 1797
8@@ 1794
kind 1792
multi 1792
property 1792
many 1790
resources 1789
density 1784
better 1778
res@@ 1777
yield 1774
New 1773
ant 1768
° 1768
the@@ 1765
kinds 1764
18 1754
investigated 1753
ON 1737
ter 1737
PCR 1736
calculation 1735
levels 1735
scale 1735
medium 1733
We 1732
being 1731
w@@ 1724
ic@@ 1720
project 1717
safety 1715
times 1713
determined 1711
systems 1707
ml 1705
day 1701
image 1701
whole 1697
ly 1692
small 1691
improved 1686
school 1686
16 1680
region 1679
Ⅱ 1679
before 1674
ment 1673
case 1672
evaluation 1671
species 1668
formation 1664
micro@@ 1663
&amp; 1662
computer 1658
length 1658
Z@@ 1657
24 1655
op@@ 1654
situation 1652
stability 1650
li@@ 1648
2O 1645
discusses 1644
le@@ 1641
materials 1641
real 1637
X@@ 1636
base 1635
te@@ 1633
relation 1629
laser 1626
14 1624
clinical 1624
degree 1624
observed 1624
High 1622
processing 1620
el@@ 1619
And 1618
great 1614
role 1614
capacity 1612
IL 1611
v@@ 1610
various 1610
At 1605
equation 1604
designed 1597
inter@@ 1596
ap@@ 1594
society 1594
load 1591
th@@ 1591
thesis 1589
k 1584
divided 1578
am@@ 1577
industry 1576
product 1570
plant 1569
ad@@ 1567
established 1565
points 1562
course 1555
∶ 1541
second 1531
ol@@ 1528
linear 1526
lo@@ 1526
features 1525
sand 1519
2.@@ 1515
rock 1514
they 1514
Al 1511
self 1509
ab@@ 1506
engineering 1506
x@@ 1506
os@@ 1502
sp@@ 1501
land 1500
80 1499
10@@ 1498
cancer 1495
enterprise 1495
Y 1492
13 1490
measures 1490
chemical 1489
general 1485
models 1484
complex 1482
ex@@ 1480
source 1480
relative 1474
making 1473
90 1471
and@@ 1459
communication 1459
ative 1458
z@@ 1456
resource 1455
old 1454
contents 1452
Fe 1449
f 1446
end 1443
series 1441
salt 1436
specific 1431
element 1430
tumor 1430
amount 1429
like 1429
sh@@ 1428
middle 1427
W 1426
red 1426
analyses 1424
ding 1422
anti 1420
Through 1417
free 1413
transfer 1412
Effects 1410
per@@ 1407
special 1407
pattern 1406
th 1403
samples 1400
types 1398
RE@@ 1396
pH 1394
coefficient 1390
above 1388
concept 1388
liquid 1384
year 1384
knowledge 1383
double 1382
ite 1379
thermal 1379
developing 1376
force 1374
studies 1374
position 1373
coal 1371
following 1371
mo@@ 1370
? 1365
U 1365
ator 1365
angle 1363
practical 1362
′ 1358
Technology 1357
es@@ 1357
For 1356
\ 1356
tive 1354
without 1354
dis@@ 1353
nm 1346
Experimental 1344
combined 1343
view 1342
detection 1341
simple 1341
tions 1335
When 1332
per 1332
mass 1331
training 1331
foundation 1330
μg 1330
investigate 1327
root 1325
natural 1320
world 1320
road 1316
to@@ 1316
mean 1315
site 1314
rice 1313
disease 1310
-1 1308
ur@@ 1306
From 1300
carried 1300
ph@@ 1299
significance 1299
active 1296
ar 1295
behavior 1295
19@@ 1293
functions 1290
aspects 1288
analyzing 1287
matrix 1287
Water 1286
common 1284
history 1283
Co@@ 1279
alloy 1264
especially 1262
building 1260
strain 1260
language 1256
best 1255
bone 1255
king 1255
products 1255
response 1255
3.@@ 1253
mice 1253
CT 1252
correlation 1249
section 1247
city 1246
se@@ 1246
early 1245
ds 1244
indicated 1244
values 1243
further 1241
me@@ 1240
Theory 1237
diameter 1237
measurement 1236
core 1235
government 1235
ag@@ 1233
working 1229
hours 1228
tri@@ 1227
increasing 1226
ase 1224
it@@ 1224
security 1220
protection 1217
ring 1213
prepared 1212
analyzes 1210
calculated 1210
Structure 1209
en 1206
equipment 1206
film 1206
physical 1202
several 1201
ance 1200
ent 1198
within 1196
Ar@@ 1192
ter@@ 1191
example 1190
70 1189
fiber 1189
machine 1189
provide 1187
electric 1185
sequence 1185
because 1184
us@@ 1183
his 1182
negative 1182
experiments 1180
children 1176
rates 1168
agent 1167
error 1167
ing@@ 1164
ization 1160
chain 1159
support 1159
Studies 1157
dose 1155
reform 1155
detected 1152
Two 1151
enterprises 1151
science 1151
theoretical 1151
bi@@ 1149
primary 1149
MS 1148
left 1148
strong 1148
21 1147
Cu 1147
Construction 1146
internal 1146
makes 1146
wall 1144
caused 1141
program 1140
learning 1139
ally 1138
ded 1138
il@@ 1138
Con@@ 1134
Influence 1133
forming 1133
character 1132
maximum 1132
reduced 1132
ness 1130
technical 1128
w 1128
formed 1126
id@@ 1125
ity 1125
thickness 1125
injection 1123
tes 1122
strategy 1121
zone 1121
target 1119
,@@ 1118
als 1117
skin 1117
optimal 1116
ship 1115
five 1114
potential 1113
22 1112
similar 1108
volume 1106
ec@@ 1105
mechanical 1105
id 1104
Single 1103
Pro@@ 1102
carbon 1102
scientific 1102
sample 1101
velocity 1094
loss 1093
of@@ 1093
national 1092
17 1091
metal 1090
der 1089
unit 1089
financial 1088
stable 1088
digital 1087
transmission 1085
deep 1083
supply 1082
45 1081
must 1081
testing 1081
35 1080
CO 1080
much 1079
Si 1077
An@@ 1076
art 1076
containing 1076
grade 1076
distance 1075
optimum 1075
scheme 1073
plate 1072
mol 1071
Ⅰ 1071
Ch@@ 1070
Ex@@ 1069
become 1069
bearing 1066
composite 1066
liver 1065
policy 1065
international 1063
reduce 1063
0@@ 1062
decrease 1062
output 1062
techniques 1061
oc@@ 1056
measure 1055
parameter 1055
.@@ 1053
combination 1053
local 1053
Under 1052
multiple 1050
public 1047
recovery 1046
structures 1044
le 1041
elements 1040
poly@@ 1040
suitable 1040
0.5 1038
controlled 1037
ality 1036
ol 1035
analyze 1034
realize 1034
status 1033
tissue 1033
English 1031
action 1031
Management 1030
im@@ 1030
capital 1029
curve 1029
par@@ 1028
fault 1027
presents 1027
reference 1027
28 1024
95 1024
therapy 1024
addition 1023
ous 1021
membrane 1020
channel 1015
32 1013
produced 1013
Three 1011
om@@ 1011
activities 1010
beam 1009
major 1008
ray 1008
SI@@ 1007
months 1006
Q@@ 1004
RT 1004
comparison 1004
deformation 1004
Ni 1003
investment 1003
solid 1003
vi@@ 1003
if 1001
approach 999
formula 999
corresponding 998
diagnosis 998
ks 998
literature 998
mRNA 998
described 996
direction 995
health 995
sis 994
IN@@ 992
improvement 991
reservoir 990
plasma 989
Some 988
differences 988
po@@ 985
Al@@ 983
ized 980
De@@ 979
optical 977
who 977
19 976
nitrogen 976
term 976
ed@@ 975
urban 975
performed 974
fuzzy 973
ore 973
μm 972
peak 971
acute 969
Sh@@ 967
puts 967
Then 966
adopted 964
ty 964
Process 963
4.@@ 962
et@@ 960
he 960
ments 960
shape 959
bed 958
&apos;@@ 957
color 957
gives 957
he@@ 956
off 956
procedure 956
be@@ 955
grain 955
organic 955
virus 955
0.0@@ 954
Di@@ 954
class 954
fluid 954
bo@@ 953
areas 952
composition 951
cultural 951
determination 949
develop 949
finite 949
ical 949
structural 948
75 945
j@@ 945
demand 944
optimization 944
follows 943
injury 943
rights 943
tube 942
lines 938
investigation 937
ver@@ 936
yl 936
comp@@ 935
extraction 935
carcinoma 934
noise 934
But 933
ling 933
depth 931
sion 931
take 931
non@@ 930
se 929
Steel 928
accuracy 928
Simulation 926
proved 926
Determination 925
direct 925
Expression 924
nature 924
failure 923
ism 922
CA@@ 921
certain 921
su@@ 921
open 919
oxygen 919
anti@@ 918
comprehensive 917
full 917
circuit 916
interface 915
ion 915
solve 915
controlling 914
improving 914
intensity 914
legal 913
attention 912
get 912
thus 909
20@@ 907
River 907
ia 906
ang@@ 903
pile 903
cross 902
analysed 901
continuous 901
no@@ 901
rural 901
political 900
powder 899
transformation 899
quantity 898
magnetic 897
trend 897
5.@@ 895
against 895
soft 895
shown 894
ways 894
em@@ 893
for@@ 892
ings 892
ot@@ 891
mL 890
every 889
cycle 887
existing 886
multi@@ 886
object 886
AR@@ 885
However 885
measuring 885
pe@@ 885
Education 882
over@@ 881
height 880
component 879
removal 879
et 876
Test 875
12@@ 874
ten@@ 874
century 873
mixed 873
derived 872
variation 872
Power 871
due 871
Ⅲ 869
v 868
ren@@ 867
business 866
down 866
experience 866
selection 864
selected 863
advanced 862
dimensional 862
monitoring 862
ms 861
infection 859
molecular 859
parts 859
platform 858
Clinical 856
genetic 856
mon@@ 856
ob@@ 856
price 856
Group 853
ch 853
CD@@ 852
Network 852
sc@@ 852
Mechanism 851
thought 851
Z 850
ig@@ 850
AS@@ 849
obviously 849
generation 848
rat 848
running 847
cerebral 846
ence 846
ci@@ 845
last 845
provides 845
industrial 844
&apos;t 843
Characteristics 843
Q 843
cause 843
nonlinear 843
ology 843
ru@@ 841
bridge 840
ons 839
alization 838
initial 837
Cr 836
St@@ 836
drug 836
ir@@ 836
male 836
necessary 836
CO@@ 835
idea 835
23 834
population 834
vector 834
γ 834
Ca 833
Province 833
re 832
brain 831
company 830
Li@@ 829
de 828
still 828
trans@@ 828
voltage 828
characters 827
effectively 827
environmental 827
man 827
ne@@ 826
advantages 825
ants 824
automatic 824
weeks 824
48 823
modified 823
33 822
net 822
te 822
ati@@ 819
device 819
reached 819
requirements 819
Dis@@ 818
requirement 818
Type 817
─ 816
Treatment 815
damage 815
female 815
style 815
ta@@ 815
ve 815
column 814
family 814
ground 814
wastewater 814
Quality 812
hot 812
establish 811
regulation 811
static 810
Compared 809
detail 809
center 808
original 807
vibration 807
wheat 807
&#124; 806
teachers 806
theories 806
Teaching 804
compound 804
ying 804
band 803
components 802
consumption 802
As@@ 801
storage 800
randomly 799
15@@ 798
uses 798
shear 797
tests 797
artery 796
taking 796
tested 796
ING 794
NO 794
along 794
reliability 794
36 793
numerical 793
principles 793
vitro 793
yl@@ 793
directly 792
slope 792
ters 792
frame 791
river 791
2000 790
So 789
precision 789
works 789
imp@@ 788
crystal 787
need 787
str@@ 787
dry 786
ors 786
indicate 785
library 784
background 783
lead 783
ou@@ 781
safe 781
dec@@ 779
uc@@ 779
26 778
enzyme 778
heart 778
lung 778
These 776
integrated 776
rich 776
sensitivity 775
typical 775
ve@@ 774
absorption 772
reduction 772
feature 771
taken 769
foreign 767
16@@ 766
conducted 765
healthy 765
equations 764
All 763
During 763
impact 763
obvious 763
novel 762
Human 761
back 760
step 760
motion 759
pollution 759
room 759
run 758
rule 757
18@@ 756
determine 756
IC 755
planning 755
so@@ 754
tr@@ 754
6.@@ 753
database 753
electron 753
head 753
micro 751
En@@ 750
200 749
Discussion 749
fields 749
plants 749
include 748
men@@ 748
AC@@ 746
face 745
assay 744
gel 744
provided 744
ce@@ 743
decision 743
og@@ 743
um@@ 743
Gene 742
operating 742
strains 742
Co 741
critical 740
evaluate 739
forms 739
gen@@ 738
highest 736
Evaluation 735
les 735
meter 735
do 734
la@@ 734
meet 734
module 734
thin 734
engine 733
integration 732
any 731
ular 731
ST@@ 730
countries 730
tic@@ 729
Therefore 728
even 728
joint 728
complete 727
pulse 727
izing 725
third 725
fracture 724
innovation 724
42 723
DE@@ 723
catalyst 722
traffic 722
Dynamic 721
receptor 721
exchange 720
J 719
Ti 719
Calculation 718
associated 718
cold 718
percentage 716
29 715
shock 715
pl@@ 714
cement 713
competition 712
reverse 712
stock 712
Performance 710
ni@@ 710
where 710
particle 709
ang 708
tional 708
RO@@ 707
controller 707
sensitive 707
IR 705
MPa 705
remote 705
station 705
den@@ 704
explore 704
sodium 704
--@@ 703
31 703
Le@@ 703
block 703
leaf 703
spectrum 703
achieved 702
greatly 702
includes 702
inf@@ 702
super@@ 702
38 700
width 700
RI@@ 699
fast 699
filter 699
medical 699
renal 699
trade 699
Information 698
led 698
welding 698
1.5 697
Zn 697
promote 697
13@@ 696
chip 696
future 696
0.@@ 694
historical 694
place 694
qu@@ 694
cutting 693
Mo@@ 692
recent 692
cor@@ 691
ide 691
72 690
One 689
rules 689
sive 688
34 687
hardware 687
hydro@@ 687
relatively 687
relevant 687
administration 686
constant 686
ge 686
benefit 685
upper 685
7.@@ 684
mental 684
Inter@@ 683
electronic 683
find 683
iron 683
limit 683
ra@@ 683
IP 682
PC 682
Relationship 682
distributed 682
ha@@ 682
heavy 682
give 681
ological 681
play 681
subject 681
synthesized 681
01 680
30@@ 679
Ca@@ 679
considered 678
setting 678
98 677
round 677
coating 676
der@@ 676
ke 676
resistant 676
27 675
basin 675
concentrations 675
ecological 675
purpose 675
05 674
amino 674
ba@@ 674
genes 674
mining 674
Si@@ 673
differential 673
protocol 673
sts 673
25@@ 672
hole 672
am 671
ong 671
200@@ 670
ma@@ 670
text 670
60@@ 669
movement 669
40@@ 668
efficient 668
ist 668
relations 668
37 667
conventional 667
domestic 667
fe@@ 667
lu@@ 667
survival 667
man@@ 666
motor 666
Properties 665
plan 665
65 664
ELISA 664
ational 664
meaning 664
implementation 663
rolling 663
describes 662
fine 662
gold 662
reasonable 662
tu@@ 662
0.1 661
Concrete 661
Na 661
tis 661
Mn 660
obtain 660
rapid 660
excellent 659
ins 659
tor 659
loading 658
media 658
el 657
plane 657
radiation 657
transition 657
MO@@ 655
boundary 655
men 655
reason 653
observation 651
objective 650
ses 650
TI@@ 649
applying 649
discuss 649
post 649
score 649
1.0 648
Their 648
ash 648
interaction 648
pa@@ 648
changed 647
pre 647
domain 646
nerve 646
Temperature 645
apoptosis 645
increases 645
50@@ 644
calculating 644
ge@@ 644
modeling 644
variable 644
ving 644
ages 643
external 643
screen 643
would 643
Investigation 642
little 642
st 642
subjects 642
educational 641
14@@ 640
pi@@ 640
seismic 640
Among 639
Field 639
seed 639
mine 638
AT@@ 637
PO@@ 637
isolated 637
whose 637
ble 636
cal@@ 636
simulated 636
9.@@ 635
Sub@@ 635
car@@ 635
mis@@ 635
plastic 635
ten 635
ans 634
cl@@ 634
preparation 634
reach 633
ties 633
composed 632
mathematical 632
oriented 632
oxidation 632
solutions 632
commercial 631
ud@@ 631
* 630
processes 630
waste 630
z 630
actual 629
ca@@ 629
ho@@ 629
regional 629
spirit 629
17@@ 628
sal@@ 628
sing 628
ane 627
changing 627
ning 627
suggested 627
tool 627
controls 626
AN@@ 625
Cl 625
gradually 625
mi@@ 625
prediction 625
added 624
ary 624
regular 624
sions 624
vertical 624
SP@@ 623
Finally 622
chronic 622
indicates 622
ps 622
ste@@ 622
women 622
Th@@ 621
balance 621
syndrome 620
Shanghai 619
combining 619
functional 619
pen@@ 619
synthesis 619
artificial 618
enhance 618
heating 618
ture 618
possible 617
around 616
corrosion 616
designing 616
quantitative 615
pump 614
41 613
fi@@ 613
particles 613
realized 612
studying 612
central 611
inner 611
stem 611
vehicle 611
cultured 610
examination 609
form@@ 609
regression 609
rel@@ 609
utilization 608
western 608
applications 607
amine 606
constructed 606
ones 606
co 605
conclusion 605
hand 605
min@@ 605
successfully 605
Data 604
architecture 604
code 604
sensor 604
Law 603
authors 603
contact 603
tax 602
8.@@ 601
emission 601
fixed 601
reducing 601
85 600
ae 599
organization 599
proliferation 599
du@@ 598
needs 598
produce 598
Fe@@ 597
ked 597
Flow 596
causes 596
importance 596
location 596
ma 595
Pb 594
coupling 594
minutes 594
silver 594
ved 594
55 593
lateral 591
resin 591
evolution 590
films 590
hydraulic 590
individual 590
input 590
iz@@ 590
wide 589
→ 589
SA@@ 588
Different 587
Result 587
province 587
rise 587
Problems 586
adding 586
il 586
interest 586
ose 586
tissues 586
2.5 585
American 585
earthquake 585
sleep 585
SS 584
contract 584
mixture 584
67 583
bu@@ 583
green 583
Technique 582
agricultural 582
com@@ 582
Web 581
leaves 581
let 581
resolution 581
technologies 581
ly@@ 580
ves 580
Internet 579
SH@@ 579
examined 579
glass 579
widely 579
Area 578
done 578
existence 578
muscle 578
producing 578
sites 578
antibody 577
earth 577
Se@@ 576
terms 576
CH@@ 575
ME@@ 575
SE@@ 575
secondary 575
biological 574
images 574
sil@@ 574
help 573
mal@@ 573
reported 573
sea 572
II 571
patterns 571
pipe 571
≥ 571
500 570
overall 570
Resistance 568
aged 568
college 568
since 568
3D 567
Gas 567
Soil 567
atory 565
oxide 565
random 565
up@@ 565
expressed 564
ver 564
ators 563
tics 563
achieve 562
spatial 562
Mg 561
CD 560
identified 560
roll 560
separation 560
44 559
Algorithm 559
ES 559
bus 559
cre@@ 559
enhanced 559
res 559
Comparison 558
technological 558
big 557
carry 557
close 557
detect 557
own 557
He@@ 555
board 555
ng 555
top 555
96 554
Ac@@ 554
DC 554
difficult 554
oral 554
46 553
out@@ 553
aging 552
capability 552
comparing 552
cut 552
elastic 552
severe 552
spectra 552
wind 552
accounting 551
displacement 551
advantage 550
build 550
gastric 550
gu@@ 550
task 550
School 549
essential 549
gain 549
growing 549
tin 549
000 548
RESULTS 547
conversion 547
fertilizer 547
ker 547
proportion 547
0.2 546
Qu@@ 546
calcium 546
contrast 546
copper 546
tin@@ 546
progress 545
Party 544
bank 544
cy@@ 544
ep@@ 544
rubber 544
upon 544
99 543
did 543
discharge 543
RNA 542
Time 542
fusion 542
highly 542
ischemia 542
sustainable 542
thinking 542
est 541
fication 541
fied 541
hydrogen 541
week 541
Pre@@ 540
Surface 540
alized 540
partial 540
recombinant 540
Ba@@ 539
near 539
Function 538
Western 538
patient 538
0.5@@ 537
axial 537
reasons 537
Numerical 536
au@@ 536
occurred 536
ox@@ 536
programming 536
City 535
assessment 535
classification 535
consciousness 535
Cell 534
FOR 534
characterized 534
electro@@ 534
pres@@ 534
stages 534
staining 534
report 533
collected 532
tree 532
ach@@ 531
Conclusions 530
University 530
together 530
64 529
fire 529
Micro@@ 528
compounds 528
maintenance 528
table 528
ial 527
km 527
under@@ 527
43 526
ate@@ 526
end@@ 526
fl@@ 526
framework 526
eyes 525
shell 525
via 525
SO@@ 524
release 524
sed 524
included 523
user 523
12.@@ 522
First 522
survey 522
dosage 521
－ 521
100@@ 520
evaluated 520
ics 520
oma 520
peripheral 520
BA 519
ER@@ 519
US 519
forest 519
Cr@@ 518
Of 518
complicated 518
half 518
300 517
Distribution 517
OR 517
Per@@ 517
bit 517
col@@ 517
memory 517
56 516
La@@ 516
equal 516
ls 516
Me@@ 515
ao 515
followed 515
indexes 515
scope 515
sense 515
STUDY 514
TNF 514
my@@ 514
serious 514
Dynasty 513
fruit 513
hyper@@ 513
ium 513
mp@@ 513
ven@@ 512
virtual 512
person 511
00 510
Because 510
Stress 510
edge 510
front 510
identification 510
ies 510
weak 510
dynamics 509
hybrid 509
soluble 509
86 508
88 508
Heat 508
UV 508
ment@@ 508
PC@@ 507
They 507
Un@@ 507
called 507
choice 507
connection 507
crack 507
living 507
observe 507
52 506
Pressure 506
ice 506
influences 506
bacteria 505
ically 505
translation 505
wavelength 505
percent 504
sa@@ 504
ure 504
ideal 503
matter 503
phenomenon 503
university 503
AP@@ 502
COD 502
EN@@ 502
Mar@@ 502
ax@@ 502
onic 502
pol@@ 502
sin@@ 502
≤ 502
Plant 501
mobile 501
precipitation 501
services 501
39 500
cu@@ 500
proposes 500
ut@@ 500
Production 499
deposit 499
satellite 499
transform 499
treating 499
1,@@ 498
Ad@@ 498
ron@@ 498
son 498
μmol 498
AL@@ 497
Cells 497
mar@@ 497
ns 497
path 497
rh@@ 497
24@@ 496
cDNA 496
compression 496
equilibrium 496
independent 496
shaped 496
Bi@@ 495
adsorption 495
construct 495
ind@@ 495
shift 495
demonstrated 494
got 494
gr@@ 494
limited 494
perfect 494
tunnel 494
correlated 493
received 493
silicon 493
pr@@ 492
researched 492
varieties 492
rep@@ 491
AD@@ 490
differentiation 490
global 490
strengthen 490
Ni@@ 489
bio@@ 489
diseases 489
ER 488
Mo 488
activation 488
credit 488
mmol 488
variety 488
SO 487
Six 487
focus 487
ric@@ 487
Comp@@ 486
Oil 485
dimension 485
fully 485
wear 485
51 484
SC@@ 484
TH@@ 484
ation@@ 484
chapter 484
charge 484
coronary 484
regions 484
ber@@ 483
binding 483
ff@@ 483
fying 483
reinforced 483
reperfusion 483
sk@@ 483
myocardial 482
prevention 482
takes 482
casting 481
late 481
statistical 481
Beijing 480
METHODS 480
alism 480
11@@ 479
affected 479
ard 479
drawing 479
ian 479
larger 479
raw 479
tra@@ 479
adjustment 478
belt 478
community 478
completely 478
configuration 478
cooling 478
node 478
accumulation 477
implement 477
sur@@ 477
built 476
exploration 476
Rice 475
neural 475
white 475
CAD 474
Car@@ 474
Low 474
tourism 474
wire 474
63 473
Engineering 473
PL@@ 473
easy 473
residual 473
revealed 473
scores 473
vascular 473
82 472
RS 472
interference 472
radi@@ 472
branch 471
cast 471
compensation 471
later 471
realization 471
ze 471
bro@@ 470
establishment 470
month 470
whether 470
80@@ 469
mer@@ 469
Phase 468
appeared 468
bottom 468
ensure 468
hy@@ 468
logic 468
discussion 467
drilling 467
follow 467
top@@ 467
AN 466
cavity 466
having 466
pulmonary 466
tolerance 466
AS 465
ching 465
daily 465
dissertation 465
graph 465
ori@@ 465
superior 465
54 464
AL 464
understanding 464
120 463
78 463
Gu@@ 463
PA 463
ST 463
Su@@ 463
ad 463
mechanisms 463
Between 462
MA 462
bl@@ 462
feed 462
flux 462
horizontal 462
imaging 462
parallel 462
researches 462
signals 462
valve 462
Par@@ 461
saving 461
Large 460
Line 460
moral 460
nuclear 460
AC 459
Detection 459
Synthesis 459
administrative 459
clear 459
introduce 459
port 459
tendency 459
briefly 458
immune 458
manufacturing 458
proteins 458
sampling 458
solving 458
ventricular 458
Growth 457
affect 457
aspect 457
inal 457
reviewed 457
systematic 457
too 457
13.@@ 456
Ro@@ 456
algorithms 456
ari@@ 456
ography 456
Sp@@ 455
fundamental 455
goal 455
layers 455
party 455
Ag 454
antigen 454
calculate 454
compare 454
eng@@ 454
filling 454
geological 454
probability 454
semi 454
11.@@ 453
curriculum 453
dam 453
optimized 453
2.0 452
GIS 452
Measurement 452
dust 452
estimation 452
finally 452
LE@@ 451
SD 451
reliable 451
sports 451
tro@@ 451
Computer 450
HPLC 450
Science 450
induction 450
Project 449
activated 449
chemistry 449
electrical 449
food 449
former 449
sho@@ 449
bar 448
delay 448
ene 448
53 447
NO@@ 447
pure 447
states 447
suggestions 447
68 446
defects 446
another 445
dependent 445
des 445
home 445
instrument 445
trial 445
viscosity 445
exist 444
leading 444
tically 444
35@@ 443
az@@ 443
hepatic 443
lot 443
mineral 443
sol@@ 443
Ne@@ 442
br@@ 442
fatigue 442
her 442
intelligent 442
oid 442
Multi 441
extract 441
fac@@ 441
located 441
loop 441
ologic 441
prevent 441
71 440
CH 440
OH 440
civil 440
namely 440
standards 440
surgery 440
92 439
PP 439
electrode 439
incidence 439
150 438
Bridge 438
Modern 438
curves 438
display 438
furnace 438
networks 438
pri@@ 438
DI@@ 437
cr@@ 437
criterion 437
ke@@ 437
now 437
plasmid 437
responsibility 437
scanning 437
sets 437
Since 435
cul@@ 435
ess 435
stone 435
therefore 435
tical 435
tors 435
diffraction 434
effectiveness 434
inside 434
introduction 434
pu@@ 434
sen@@ 434
sin 434
transport 434
PA@@ 433
hour 433
ides 433
proper 433
abnormal 432
dual 432
her@@ 432
rocks 432
roller 432
47 431
58 431
Element 431
Hu@@ 431
accurate 431
adult 431
insurance 431
mixing 431
poor 431
q 431
recognition 431
ED 430
Formation 430
MA@@ 430
axis 430
below 430
medicine 430
solved 430
account 429
glucose 429
ow@@ 429
schools 429
video 429
ancy 428
sequences 428
aim 427
hi@@ 427
0.3@@ 426
ant@@ 426
visual 426
TS 425
ali@@ 425
aluminum 425
defined 425
inhibition 425
known 425
pointed 425
Safety 424
laws 424
Asia 423
Bo@@ 423
IL@@ 423
LI@@ 423
LO@@ 423
Risk 423
TION 423
Value 423
ear@@ 423
post@@ 423
spring 423
zinc 423
14.@@ 422
84 422
Res@@ 422
TO 422
creation 422
fresh 422
fuel 422
infarction 422
28@@ 421
62 421
2003 420
87 420
94 420
PE@@ 420
SOD 420
access 420
cultivation 420
sco@@ 420
0.9@@ 419
Energy 419
Nd 419
Practice 419
combustion 419
ize 419
om 419
① 419
Basin 418
Ri@@ 418
rec@@ 418
rest 418
tly 418
available 417
0.001 416
16.@@ 416
NH 416
Po@@ 416
minimum 416
summarized 416
wh@@ 416
carrying 415
ents 415
few 415
od@@ 415
required 415
sign 415
89 414
Laser 414
ful 414
BP 413
IS@@ 413
Road 413
closed 413
criminal 413
guarantee 413
phot@@ 413
Experiment 412
Factors 412
brought 412
go@@ 412
sheet 412
steady 412
If 411
National 411
af@@ 411
amp@@ 411
arm 411
composites 411
fact 411
vacuum 411
war@@ 411
RA@@ 410
cardiac 410
confirmed 410
correct 410
opening 410
sediment 410
und@@ 410
writing 410
Culture 409
Patients 409
arc 409
death 409
AP 408
Changes 408
annual 408
literary 408
max 408
15.@@ 407
TE@@ 407
iso@@ 407
ran@@ 407
satisfactory 407
spot 407
xi@@ 407
0.8@@ 406
PE 406
box 406
definition 406
friction 406
house 406
might 406
mutation 405
transportation 405
Be@@ 404
establishing 404
lin@@ 404
ming 404
reg@@ 404
2004 403
97 403
Fuzzy 403
IC@@ 403
segment 403
wood 403
Taking 402
Ti@@ 402
ances 402
atic 402
care 402
ering 402
map 402
smooth 402
uniform 402
vein 402
aff@@ 401
carrier 401
examples 401
integral 401
expansion 400
injected 400
probe 400
zing 400
Non 399
Solution 399
act 399
cur@@ 399
feasibility 399
q@@ 399
word 399
66 398
Finite 398
Man@@ 398
association 398
circulation 398
least 398
mat@@ 398
College 397
abroad 397
does 397
dB 396
expounds 396
rational 396
strategies 396
Rate 395
ata 395
can@@ 395
collection 395
cotton 395
drive 395
ideas 395
income 395
lies 395
ner 395
nursing 395
plus 395
ser@@ 395
what 395
49 394
Protein 394
② 394
Environment 393
Trans@@ 393
XRD 393
dic@@ 393
ery 393
fit 393
involved 393
modes 393
orientation 393
pore 393
wing 393
400 392
73 392
74 392
Coal 392
Preparation 392
coefficients 392
hospital 392
influenced 392
reading 392
reconstruction 392
sources 392
Acid 391
breast 391
deviation 391
influencing 391
shoot 391
Mon@@ 390
bending 390
degradation 390
exercise 390
phy@@ 390
question 390
rotor 390
units 390
00@@ 389
18.@@ 389
93 389
ect 389
hard 389
retention 389
sl@@ 389
ton 389
83 388
Cu@@ 388
DS 388
ats 388
ber 388
exposure 388
feasible 388
polymer 388
slightly 388
solvent 388
sub 388
Japan 387
Machine 387
WTO 387
ases 387
closely 387
consists 387
successful 387
tion@@ 387
77 386
CT@@ 386
GA 386
SEM 386
arrangement 386
reality 386
AT 385
CA 385
amplitude 385
itation 385
polymerase 385
psychological 385
seven 385
wa@@ 385
Company 384
fat 384
nano 384
tur@@ 384
0.3 383
Liquid 383
Lo@@ 383
Service 383
ions 383
marketing 383
rabbits 383
search 383
useful 383
ward 383
L. 382
Our 382
aesthetic 382
anterior 382
becomes 382
duration 382
expressions 382
microscope 382
necessity 382
raise 382
shan 382
span 382
student 382
Meanwhile 381
Optimization 381
PS 381
Serum 381
firstly 381
laboratory 381
unique 381
61 380
Combined 380
cin@@ 380
era 380
extent 380
mes@@ 380
permeability 380
remarkable 380
square 380
vs 380
0.8 379
PRO@@ 379
State 379
hu@@ 379
microstructure 379
ot 379
rapidly 379
tre@@ 379
appropriate 378
crude 378
fraction 378
greater 378
philosophy 378
review 378
￣ 378
1.0@@ 377
Furthermore 377
LE 377
Thermal 377
bp 377
repair 377
sound 377
strengthening 377
wheel 377
69 376
Scale 376
are@@ 376
defect 376
feeding 376
gi@@ 376
origin 376
phosphate 376
symptoms 376
East 375
Poly@@ 375
Stability 375
bul@@ 375
embedded 375
microwave 375
potassium 375
Li 374
Students 374
die 374
employed 374
extracted 374
os 374
tension 374
Anti 373
Imp@@ 373
fluorescence 373
hydrocarbon 373
ination 373
insulin 373
moisture 373
pain 373
ancient 372
bring 372
dominant 372
dr@@ 372
mill 372
pass 372
syn@@ 372
we@@ 372
91 371
For@@ 371
South 371
coding 371
companies 371
deposition 371
depression 371
ected 371
idi@@ 371
supporting 371
ys 371
ATION 370
Basic 370
No 370
SiO 370
deal 370
equivalent 370
far 370
rous 370
supervision 370
APPLICATION 369
Col@@ 369
all@@ 369
ass@@ 369
issues 369
rotation 369
slip 369
suspension 369
thi@@ 369
was@@ 369
cylinder 368
flexible 368
personal 368
row 368
1.5@@ 367
Both 367
interval 367
metry 367
principal 367
server 367
users 367
zed 367
0.4@@ 366
0.7@@ 366
Air 366
EL@@ 366
International 366
Rec@@ 366
Systems 366
avoid 366
cooperation 366
retro@@ 366
tering 366
concepts 365
lac@@ 365
numbers 365
1.2 364
Hydro@@ 364
acids 364
ging 364
AA 363
Image 363
Middle 363
SE 363
Sal@@ 363
Sch@@ 363
erosion 363
fin@@ 363
protective 363
threshold 363
transplantation 363
0.4 362
GC 362
alcohol 362
driving 362
infected 362
jet 362
just 362
professional 362
slag 362
76 361
Cor@@ 361
melting 361
roof 361
sel@@ 361
81 360
He 360
MB@@ 360
MP@@ 360
Ta@@ 360
fer@@ 360
final 360
hypertension 360
nucleus 360
17.@@ 359
tensile 359
59 358
ale 358
appearance 358
ars 358
assembly 358
bond 358
detecting 358
hardness 358
situ 358
zero 358
AB@@ 357
Main 357
Transfer 357
WITH 357
comparative 357
finance 357
protect 357
ry 357
scan 357
val@@ 357
Multi@@ 356
adopt 356
chromatography 356
constructing 356
description 356
fo@@ 356
implemented 356
metric 356
robot 356
sti@@ 356
theorem 356
METHOD 355
analyse 355
cervical 355
ines 355
turn 355
2,@@ 354
Chapter 354
bar@@ 354
come 354
smaller 354
terminal 354
tumors 354
Na@@ 353
eu@@ 353
facies 353
ll@@ 353
profile 353
tan@@ 353
words 353
Ⅳ 353
Genetic 352
detailed 352
roots 352
sales 352
shorter 352
shot 352
Tr@@ 351
benefits 351
cer@@ 351
competitive 351
conception 351
existed 351
interests 351
seedling 351
tor@@ 351
δ 351
57 350
EC@@ 350
Four 350
Ge@@ 350
ITS 350
Training 350
adhesion 350
generalized 350
plays 350
2002 349
Reform 349
adaptive 349
attitude 349
ce 349
cord 349
i.e. 349
physiological 349
resulted 349
． 349
Improvement 348
North 348
av@@ 348
ball 348
car 348
fish 348
fu@@ 348
gear 348
har@@ 348
mouse 348
cen@@ 347
ear 347
eight 347
enti@@ 347
fy 347
hepatitis 347
raised 347
start 347
tw@@ 347
％ 347
HBV 346
often 346
separated 346
6.0 345
diffusion 345
filled 345
ine@@ 345
revenue 345
specimens 345
track 345
acquisition 344
break 344
guide 344
neuro@@ 344
phosph@@ 344
un 344
uni@@ 344
79 343
Cd 343
FE@@ 343
Second 343
animal 343
apply 343
link 343
modernization 343
phosphorus 343
presence 343
prove 343
saline 343
sy@@ 343
understand 343
MRI 342
Rock 342
collagen 342
errors 342
extended 342
malignant 342
yn@@ 342
How 341
Several 341
artistic 341
m3 341
sugar 341
web 341
Automatic 340
Region 340
agriculture 340
ely 340
mature 340
statistics 340
waves 340
GPS 339
arch 339
array 339
inhibited 339
migration 339
2005 338
almost 338
crime 338
efficacy 338
fragment 338
go 338
io@@ 338
m2 338
por@@ 338
spinal 338
water@@ 338
27@@ 337
Use 337
ceramic 337
inhibitor 337
issue 337
keep 337
morphology 337
outside 337
resi@@ 337
substrate 337
transcription 337
urine 337
Digital 336
Economic 336
bur@@ 336
cluster 336
countermeasures 336
ethanol 336
linked 336
route 336
sex 336
trace 336
zhou 336
99.@@ 335
Secondly 335
Self 335
estimated 335
infrared 335
ne 335
CK 334
Cl@@ 334
PID 334
Sa@@ 334
TiO 334
ben@@ 334
ero@@ 334
mic 334
others 334
reaches 334
resp@@ 334
seeds 334
treatments 334
ulation 334
app@@ 333
easily 333
wavelet 333
0.6 332
GE 332
MI@@ 332
Tri@@ 332
chromosome 332
division 332
equ@@ 332
freedom 332
gradient 332
ie@@ 332
ined 332
ini@@ 332
private 332
BY 331
Han 331
Moreover 331
Sea 331
extension 331
me 331
photo@@ 331
ris@@ 331
routine 331
sig@@ 331
sign@@ 331
ty@@ 331
5,@@ 330
Current 330
Foundation 330
Ma@@ 330
amplified 330
ann@@ 330
diff@@ 330
hm 330
personality 330
sections 330
19.@@ 329
OR@@ 329
Part 329
den 329
molecule 329
off@@ 329
23@@ 328
exists 328
mil@@ 328
train 328
universities 328
vit@@ 328
1999 327
Base 327
Industry 327
Materials 327
PLC 327
Pl@@ 327
Property 327
Standard 327
ast 327
bodies 327
computation 327
ders 327
ome@@ 327
past 327
rising 327
3,@@ 326
Significance 326
adopting 326
exposed 326
generated 326
thick 326
trac@@ 326
wet 326
2001 325
Comparative 325
Har@@ 325
RP 325
We@@ 325
chemotherapy 325
immun@@ 325
orthogonal 325
promoting 325
she@@ 325
IP@@ 324
black 324
ff 324
itself 324
mol@@ 324
projects 324
pul@@ 324
Double 323
Market 323
contains 323
criteria 323
mentioned 323
metastasis 323
ously 323
steam 323
tively 323
5.0 322
MDA 322
Mode 322
Space 322
flu@@ 322
irradiation 322
matching 322
sharing 322
ach 321
cloned 321
eff@@ 321
ill@@ 321
ographic 321
onal 321
operative 321
silica 321
stri@@ 321
usually 321
ANALYSIS 320
Principle 320
Problem 320
SA 320
Sk@@ 320
chloride 320
considering 320
decreasing 320
ening 320
evidence 320
hypo@@ 320
nation 320
temperatures 320
ther@@ 320
west 320
} 320
Cases 319
Pe@@ 319
decreases 319
lack 319
marrow 319
request 319
ther 319
therapeutic 319
ased 318
ched 318
methyl 318
0.6@@ 317
ces 317
event 317
feedback 317
reactor 317
70@@ 316
LA@@ 316
MR 316
Ma 316
Nonlinear 316
academic 316
bil@@ 316
families 316
gap 316
perspective 316
separately 316
treat 316
ET 315
NC 315
Short 315
deposits 315
ire 315
peptide 315
proof 315
winter 315
{ 315
Diagnosis 314
MS@@ 314
Visual 314
became 314
deficiency 314
district 314
operator 314
recorded 314
workers 314
Ⅱ@@ 314
Level 313
TV 313
gar@@ 313
lowest 313
ratios 313
relationships 313
2- 312
Case 312
Firstly 312
Station 312
atmosphere 312
evaluating 312
owned 312
phenol 312
propagation 312
rod 312
stream 312
strip 312
try 312
underground 312
young 312
Building 311
IF@@ 311
PI 311
Processing 311
affecting 311
card 311
convergence 311
determining 311
ens 311
iling 311
lesions 311
milk 311
ping 311
return 311
strategic 311
3.0 310
Parameters 310
analytical 310
attack 310
cri@@ 310
flood 310
ici@@ 310
icity 310
mechanics 310
once 310
run@@ 310
steps 310
26@@ 309
Physical 309
Yellow 309
abilities 309
air@@ 309
bands 309
contained 309
flap 309
moment 309
north 309
pavement 309
pay 309
requ@@ 309
rough 309
Alloy 308
Ren@@ 308
adjusting 308
banks 308
beginning 308
ement 308
fermentation 308
however 308
ids 308
psychology 308
railway 308
rare 308
sides 308
synthetic 308
IT 307
Japanese 307
Right 307
behaviors 307
cable 307
concerned 307
diversity 307
gh@@ 307
ill 307
ish 307
occurrence 307
pos@@ 307
sedimentary 307
sing@@ 307
AM 306
Ag@@ 306
Course 306
Ji@@ 306
TIC 306
ak@@ 306
cap@@ 306
coli 306
grass 306
iness 306
questions 306
rac@@ 306
Ab@@ 305
IT@@ 305
NMR 305
breeding 305
concluded 305
profit 305
rigid 305
starting 305
teacher 305
Anti@@ 304
Material 304
always 304
do@@ 304
modification 304
neurons 304
phen@@ 304
sized 304
ue 304
whereas 304
σ 304
DM 303
HE@@ 303
RE 303
cellular 303
classified 303
demands 303
dispersion 303
markedly 303
polymorphism 303
Shi@@ 302
duc@@ 302
monitor 302
moving 302
regulations 302
respect 302
success 302
with@@ 302
MC 301
Mn@@ 301
Pile 301
Speed 301
boiler 301
diabetes 301
screening 301
tim@@ 301
μ 301
Mine 300
Ob@@ 300
Rats 300
SP 300
agents 300
brings 300
fur@@ 300
soybean 300
vessel 300
4,@@ 299
AR 299
aims 299
assets 299
char@@ 299
classical 299
dy@@ 299
gra@@ 299
mapping 299
periods 299
radar 299
writer 299
CON@@ 298
back@@ 298
coupled 298
designs 298
idal 298
kinase 298
mark 298
measurements 298
oro@@ 298
reflect 298
sch@@ 298
tures 298
Electro@@ 297
PH@@ 297
essay 297
latter 297
ocyte 297
silk 297
skill 297
Behavior 296
Complex 296
DA 296
ast@@ 296
devices 296
doped 296
genic 296
inter 296
istic 296
ory 296
posterior 296
Chang@@ 295
Molecular 295
ech@@ 295
fier 295
flat 295
hem@@ 295
inv@@ 295
oph@@ 295
sintering 295
systematically 295
took 295
vision 295
work@@ 295
NA@@ 294
PD 294
Protection 294
Theoretical 294
While 294
allocation 294
leaching 294
supported 294
Salt 293
already 293
connected 293
correction 293
diesel 293
enhancement 293
fed 293
irrigation 293
landscape 293
religious 293
rot@@ 293
screw 293
-2 292
Cy@@ 292
clay 292
conver@@ 292
describe 292
emulsion 292
restriction 292
resulting 292
sia 292
zation 292
23.@@ 291
3.5 291
CS@@ 291
Life 291
Monitoring 291
Ru@@ 291
Signal 291
blot 291
catalytic 291
chamber 291
els 291
emphasis 291
fa@@ 291
ga@@ 291
ged 291
inverse 291
ordinary 291
skills 291
tank 291
Nan@@ 290
Ph@@ 290
Traditional 290
lar@@ 290
scattering 290
share 290
south 290
transformed 290
wireless 290
500@@ 289
Implementation 289
Virus 289
asi@@ 289
comes 289
host 289
member 289
ome 289
press 289
yuan 289
29@@ 288
90@@ 288
Learning 288
Preliminary 288
fibers 288
fund 288
intr@@ 288
logistics 288
peri@@ 288
respiratory 288
Hz 287
agreement 287
cover 287
economical 287
highway 287
kes 287
phases 287
quantum 287
reactive 287
sati@@ 287
seedlings 287
sludge 287
Chemical 286
HO@@ 286
MP 286
TA 286
ately 286
cal 286
deeply 286
fold 286
guidance 286
leakage 286
meth@@ 286
tools 286
yang 286
CP@@ 285
General 285
La 285
MW 285
Wheat 285
alloys 285
check 285
fore@@ 285
grid 285
ils 285
ket 285
popular 285
reserve 285
selective 285
simulate 285
turbine 285
600 284
CI@@ 284
CO2 284
ME 284
NaCl 284
Super@@ 284
Thus 284
aling 284
animals 284
approaches 284
arteri@@ 284
by@@ 284
essence 284
estimate 284
fly 284
lic@@ 284
manufacture 284
multimedia 284
showing 284
slide 284
tation 284
Blood 283
CI 283
Frequency 283
Iron 283
TP 283
World 283
date 283
except 283
season 283
λ 283
Composite 282
Content 282
DSP 282
GM 282
HA 282
Identification 282
NS 282
asphalt 282
combine 282
longer 282
music 282
newly 282
raising 282
shaft 282
suggests 282
# 281
Urban 281
med 281
members 281
na@@ 281
needed 281
residue 281
scal@@ 281
Ste@@ 280
accordance 280
ammonia 280
consideration 280
deals 280
dent 280
drop 280
emp@@ 280
ong@@ 280
LD 279
NF 279
Rel@@ 279
achievements 279
bor@@ 279
bra@@ 279
consistent 279
file 279
forecast 279
interleukin 279
proves 279
rabbit 279
representative 279
sion@@ 279
sli@@ 279
sufficient 279
ths 279
1000 278
CSF 278
Economy 278
NT 278
Regulation 278
TO@@ 278
cy 278
hist@@ 278
jiang 278
polarization 278
pressing 278
rent 278
saturation 278
Applications 277
HLA 277
TA@@ 277
Vibration 277
ai 277
ay 277
ideological 277
risks 277
thoughts 277
Factor 276
Fault 276
PR@@ 276
aqueous 276
chosen 276
cities 276
diet 276
experiences 276
hold 276
particular 276
satisfy 276
Key 275
Pres@@ 275
Soft 275
Sol@@ 275
converter 275
ections 275
listed 275
lymphocytes 275
ranged 275
reflection 275
vel@@ 275
yed 275
ε 275
180 274
1998 274
At@@ 274
Cancer 274
Language 274
Software 274
atomic 274
auto 274
complexity 274
either 274
institution 274
leg@@ 274
ler 274
named 274
productivity 274
reports 274
ton@@ 274
CS 273
Ha@@ 273
MI 273
Metal 273
Reaction 273
Sha@@ 273
biomass 273
cultivars 273
ect@@ 273
ele@@ 273
est@@ 273
ining 273
spread 273
teen 273
tries 273
vocational 273
250 272
45@@ 272
DO@@ 272
Land 272
MC@@ 272
Natural 272
Response 272
TGF 272
brand 272
ency 272
events 272
induce 272
mid 272
pp@@ 272
quite 272
selecting 272
shi@@ 272
shoulder 272
true 272
Equation 271
Strength 271
bac@@ 271
da@@ 271
hm2 271
introducing 271
lymphocyte 271
metabolism 271
oste@@ 271
pe 271
spectral 271
Change 270
Pol@@ 270
acting 270
courses 270
decomposition 270
eye 270
improves 270
nor@@ 270
seen 270
vo@@ 270
vol@@ 270
Long 269
People 269
Real 269
Selection 269
cognitive 269
identify 269
intra@@ 269
ise 269
ji@@ 269
kin@@ 269
moderate 269
osis 269
pregnancy 269
stimulation 269
towards 269
③ 269
Electric 268
Load 268
Lu@@ 268
Remote 268
Rural 268
Social 268
customer 268
master 268
offer 268
pathological 268
posi@@ 268
settlement 268
simply 268
val 268
RT@@ 267
Resource 267
Small 267
Sr 267
Wave 267
advance 267
ana 267
continuously 267
graphy 267
intermediate 267
mortality 267
pal@@ 267
planting 267
vers 267
22.@@ 266
CC 266
Induced 266
O2 266
deduced 266
disp@@ 266
drugs 266
low@@ 266
ned 266
operated 266
plan@@ 266
providing 266
spray 266
α@@ 266
Com@@ 265
Mechanical 265
analysing 265
channels 265
circular 265
contribution 265
ell@@ 265
filtration 265
grinding 265
ile 265
inhibit 265
ro 265
toxicity 265
0.00@@ 264
Class 264
NE 264
Optical 264
Te@@ 264
ishing 264
kidney 264
labor 264
mic@@ 264
ore@@ 264
policies 264
reli@@ 264
20th 263
Approach 263
Fiber 263
corporation 263
fic@@ 263
gave 263
ily 263
military 263
tivity 263
variance 263
。 263
Higher 262
Or@@ 262
apparent 262
connotation 262
ide@@ 262
instead 262
politics 262
save 262
say 262
super 262
tea 262
underwent 262
wild 262
MENT 261
TC@@ 261
Technical 261
blue 261
coordination 261
game 261
keeping 261
mal 261
ocytes 261
outer 261
socialist 261
thermo@@ 261
tine 261
21st 260
Communication 260
Early 260
Neural 260
colleges 260
endothelial 260
express 260
pair 260
realizing 260
sulfur 260
Cs 259
Dec@@ 259
Tra@@ 259
adi@@ 259
adopts 259
buffer 259
hal@@ 259
harmonious 259
phenomena 259
regulated 259
rin@@ 259
sol 259
spe@@ 259
tho@@ 259
Doppler 258
RS@@ 258
SS@@ 258
SU@@ 258
Sand 258
TCP 258
adjust 258
conclusions 258
convenient 258
dependence 258
equipments 258
generator 258
oper@@ 258
oring 258
responses 258
serial 258
slo@@ 258
tooth 258
Point 257
Related 257
TR@@ 257
ches 257
economics 257
inhibitory 257
purified 257
replacement 257
sor@@ 257
tom@@ 257
ust 257
μ@@ 257
98.@@ 256
AD 256
HC@@ 256
Qing 256
SYSTEM 256
Sil@@ 256
West 256
Xinjiang 256
cannot 256
clu@@ 256
coll@@ 256
ecting 256
explained 256
fixation 256
optimize 256
radial 256
show@@ 256
signific@@ 256
0,@@ 255
2.5@@ 255
Operation 255
Pa@@ 255
Reservoir 255
TING 255
cel@@ 255
constitution 255
contrac@@ 255
corporate 255
drainage 255
educ@@ 255
gained 255
machining 255
talents 255
wi@@ 255
β@@ 255
10.@@ 254
22@@ 254
24.@@ 254
26.@@ 254
Relation 254
created 254
diabetic 254
east 254
fill 254
grains 254
select 254
sum 254
2.0@@ 253
Agent 253
America 253
Efficiency 253
IFN 253
PS@@ 253
SC 253
TG 253
Windows 253
catalysts 253
conductivity 253
generally 253
mas@@ 253
nodes 253
performances 253
thro@@ 253
tile 253
utilizing 253
variables 253
RA 252
The@@ 252
Vi@@ 252
cat@@ 252
detector 252
ective 252
focuses 252
maize 252
piles 252
polymerization 252
sand@@ 252
tail 252
125 251
CONCLUSION 251
CP 251
Da@@ 251
Health 251
Ring 251
TE 251
create 251
curing 251
high@@ 251
positively 251
removed 251
rotating 251
soils 251
starch 251
21@@ 250
Al2O3 250
Ap@@ 250
Environmental 250
GS 250
Measures 250
Plate 250
Prediction 250
Role 250
SDS 250
Used 250
ace 250
ain 250
allo@@ 250
blade 250
computing 250
disturbance 250
facing 250
holding 250
lake 250
tracking 250
varied 250
1997 249
Countermeasures 249
NA 249
arterial 249
aver@@ 249
coordinate 249
draw 249
fies 249
lay 249
loc@@ 249
ogenic 249
plas@@ 249
possibility 249
postoperative 249
probes 249
27.@@ 248
Five 248
Multiple 248
San@@ 248
Yunnan 248
aph@@ 248
aro@@ 248
assess 248
department 248
determin@@ 248
helpful 248
ideology 248
margin 248
remo@@ 248
simultaneously 248
transient 248
yp@@ 248
Conditions 247
Resources 247
Sichuan 247
UN@@ 247
amin@@ 247
book 247
diagnosed 247
ent@@ 247
fil@@ 247
ju@@ 247
lipid 247
modulus 247
prognosis 247
quick 247
ured 247
4.5 246
CE@@ 246
bre@@ 246
eth@@ 246
gate 246
ges 246
mia 246
personnel 246
temporal 246
25.@@ 245
Beam 245
Cold 245
EX@@ 245
Enterprise 245
No@@ 245
RSD 245
Report 245
Security 245
VEGF 245
benzene 245
clo@@ 245
concerning 245
focal 245
gravity 245
intervention 245
mostly 245
necrosis 245
sac@@ 245
schemes 245
ure@@ 245
300@@ 244
About 244
Characteristic 244
ED@@ 244
Establishment 244
HIV 244
acet@@ 244
corn 244
crop 244
hetero@@ 244
ities 244
kernel 244
log@@ 244
logical 244
medi@@ 244
slow 244
usage 244
Assessment 243
Intelligent 243
Se 243
coated 243
contemporary 243
driven 243
favorable 243
ili@@ 243
quanti@@ 243
revi@@ 243
suggest 243
tal 243
tant 243
tectonic 243
topic 243
transaction 243
ual 243
uring 243
ym@@ 243
4.0 242
Activity 242
CR 242
County 242
Observation 242
Situation 242
achievement 242
angi@@ 242
lesion 242
mathematics 242
mentation 242
oning 242
sensing 242
ta 242
tar@@ 242
ultrasonic 242
28.@@ 241
GB@@ 241
Industrial 241
Min@@ 241
climate 241
expected 241
explains 241
flower 241
macro@@ 241
porous 241
silic@@ 241
wor@@ 241
0.9 240
Review 240
SiC 240
financing 240
melt 240
mission 240
ogram 240
osi@@ 240
persons 240
revolution 240
speech 240
sw@@ 240
tal@@ 240
tus 240
urinary 240
∈ 240
02 239
33@@ 239
Fu@@ 239
Linear 239
aries 239
bility 239
diagram 239
hex@@ 239
hormone 239
molar 239
ppm 239
reservoirs 239
side@@ 239
Condition 238
Differential 238
Hot 238
LC 238
NE@@ 238
Reinforced 238
Wall 238
assi@@ 238
blast 238
creative 238
disorder 238
drawn 238
fabric 238
limitation 238
optimizing 238
pricing 238
shallow 238
stations 238
tower 238
0.0 237
110 237
Association 237
DE 237
MT 237
Met@@ 237
Pattern 237
TEM 237
accident 237
adhesive 237
ammonium 237
bulk 237
degrees 237
duty 237
interpretation 237
methanol 237
petroleum 237
ration 237
rig@@ 237
routing 237
sexual 237
stand 237
summarizes 237
surfaces 237
Gen@@ 236
Song 236
Tang 236
angiotensin 236
exp@@ 236
individuals 236
meat 236
objects 236
surgical 236
vegetation 236
Although 235
CD4 235
Index 235
Light 235
Modeling 235
No. 235
Pu@@ 235
Testing 235
aria 235
bad 235
bonding 235
disc 235
electromagnetic 235
forces 235
log 235
mag@@ 235
nutrient 235
BO@@ 234
Bur@@ 234
IR@@ 234
Realization 234
Total 234
alkali 234
complexes 234
drying 234
eness 234
fair 234
hing 234
hydroxy@@ 234
items 234
leads 234
legislation 234
lens 234
mu@@ 234
occur 234
operations 234
vari@@ 234
ws 234
0.7 233
800 233
Cre@@ 233
EFFECT 233
PT@@ 233
Transformation 233
VC 233
bacterial 233
blasting 233
discovered 233
handling 233
hu 233
inspection 233
installation 233
mid@@ 233
parents 233
predic@@ 233
viral 233
∞ 233
1.3 232
Capacity 232
Engine 232
HR 232
Ho@@ 232
Lin@@ 232
Optimal 232
Period 232
additive 232
alkaline 232
cho@@ 232
cleaning 232
coagulation 232
ets 232
extracting 232
formulas 232
ication 232
ie 232
longitudinal 232
mediated 232
quickly 232
regarded 232
rou@@ 232
Disease 231
PD@@ 231
ae@@ 231
automatically 231
clearly 231
covered 231
ened 231
hen@@ 231
j 231
joints 231
kV 231
printing 231
regeneration 231
roles 231
stroke 231
29.@@ 230
CR@@ 230
Considering 230
DP 230
MD@@ 230
beams 230
bound 230
dro@@ 230
gal@@ 230
here 230
identity 230
judicial 230
next 230
protecting 230
spinning 230
tradition 230
wn 230
7.5 229
EC 229
NP 229
ater 229
crisis 229
died 229
ess@@ 229
ester 229
izes 229
mig@@ 229
mold 229
porosity 229
prospect 229
purity 229
scene 229
sulfate 229
Carbon 228
Error 228
ak 228
diagnostic 228
graft 228
hes 228
intelligence 228
ou 228
rank 228
sional 228
tig@@ 228
yer 228
21.@@ 227
CB@@ 227
CF@@ 227
HT 227
Hol@@ 227
PB@@ 227
Plasma 227
Transmission 227
cyclic 227
def@@ 227
inferior 227
ischemic 227
lit@@ 227
matic 227
methodology 227
navigation 227
preventing 227
radical 227
rather 227
rhe@@ 227
rope 227
sizes 227
surrounding 227
texture 227
1.8 226
Bone 226
CE 226
Extraction 226
Measuring 226
PM 226
Public 226
Red 226
Sho@@ 226
angles 226
calibration 226
floor 226
hum@@ 226
know 226
lets 226
pulp 226
radius 226
rid@@ 226
sibility 226
simul@@ 226
spiritual 226
validity 226
Cloning 225
Deep 225
ID 225
IgG 225
LS 225
Library 225
QU@@ 225
STUDIES 225
acquired 225
bol@@ 225
civilization 225
dium 225
ere 225
faults 225
graphic 225
paid 225
ventilation 225
views 225
wells 225
zo@@ 225
36@@ 224
Her@@ 224
My@@ 224
acoustic 224
ai@@ 224
carbonate 224
discrete 224
fol@@ 224
las@@ 224
mor@@ 224
replace 224
restricted 224
version 224
Also 223
Art 223
Asian 223
Bearing 223
PV@@ 223
Support 223
TC 223
Xi@@ 223
bs 223
callus 223
complications 223
estate 223
fabricated 223
fitting 223
inde@@ 223
maintain 223
populations 223
OS 222
Sb 222
Vehicle 222
alities 222
appear 222
arity 222
audit 222
bladder 222
crystals 222
document 222
duct 222
enough 222
fall 222
findings 222
microscopy 222
optic 222
ownership 222
predicted 222
ranges 222
researching 222
respon@@ 222
sec@@ 222
shrinkage 222
tobacco 222
π 222
‰ 222
Injection 221
MD 221
Nb 221
Primary 221
apparatus 221
mesh 221
novels 221
pon@@ 221
represents 221
sity 221
speci@@ 221
stop 221
symptom 221
vaccine 221
SW@@ 220
Section 220
Structural 220
Virtual 220
acted 220
appears 220
asset 220
breaking 220
brief 220
but@@ 220
collecting 220
cracking 220
excitation 220
iting 220
logging 220
meanwhile 220
mented 220
modi@@ 220
regul@@ 220
saw 220
simplified 220
summer 220
△ 220
0.1@@ 219
Center 219
Matrix 219
Rat 219
acetate 219
belong 219
buildings 219
cure 219
efficiently 219
germination 219
instruction 219
ker@@ 219
marine 219
productive 219
quasi 219
targets 219
team 219
teeth 219
ule 219
75@@ 218
History 218
PR 218
Rolling 218
barrier 218
broad 218
drought 218
ered 218
groundwater 218
narrative 218
piece 218
pig 218
preliminary 218
reveal 218
rust 218
sheep 218
window 218
yellow 218
0.2@@ 217
1.7 217
1996 217
Children 217
Comparing 217
Force 217
IO@@ 217
TiO2 217
chi@@ 217
colour 217
completed 217
dic 217
doses 217
electricity 217
fragments 217
ll 217
metallic 217
methyl@@ 217
nutrition 217
ometer 217
operational 217
powerful 217
pping 217
relief 217
slab 217
turning 217
vation 217
vitamin 217
yarn 217
Century 216
Mg@@ 216
Planning 216
Tu@@ 216
XML 216
ably 216
compares 216
ev@@ 216
flight 216
ink 216
inorganic 216
modulation 216
pil@@ 216
primers 216
removing 216
situ@@ 216
tial 216
AV@@ 215
Electronic 215
Fi@@ 215
H2O 215
May 215
Ratio 215
SB@@ 215
ade 215
atin 215
atom 215
becoming 215
disadvantages 215
down@@ 215
ger 215
homogeneous 215
inflammatory 215
ists 215
lim@@ 215
nearly 215
neutral 215
olog@@ 215
p53 215
processor 215
questionnaire 215
realistic 215
sinus 215
wound 215
2R 214
2S 214
34.@@ 214
Applying 214
Ar 214
Deformation 214
Unit 214
YAG 214
ac 214
anc@@ 214
antibodies 214
context 214
enhancing 214
explain 214
fourth 214
fr@@ 214
met 214
pathway 214
rainfall 214
reinforcement 214
teri@@ 214
tract 214
vel 214
yeast 214
-3 213
38.@@ 213
97.@@ 213
Central 213
Northern 213
Novel 213
Southern 213
cep@@ 213
chlor@@ 213
cs 213
difficulty 213
electrophoresis 213
fan 213
forth 213
generating 213
lymph 213
maximal 213
od 213
repe@@ 213
sale 213
shore 213
ulated 213
xy@@ 213
Besides 212
Comprehensive 212
Dong@@ 212
LU@@ 212
Layer 212
Pi@@ 212
Source 212
absolute 212
affects 212
anesthesia 212
concentrate 212
cycles 212
demonstrate 212
ip@@ 212
markers 212
match 212
offers 212
ole@@ 212
plain 212
proc@@ 212
stronger 212
tual 212
worked 212
1.4 211
Nitrogen 211
SD@@ 211
SI 211
Yield 211
cracks 211
ending 211
fractures 211
hybridization 211
imper@@ 211
item 211
mination 211
nit@@ 211
picture 211
pipeline 211
predict 211
procedures 211
promoted 211
stimulated 211
temp@@ 211
thrust 211
96.@@ 210
BA@@ 210
LA 210
PVC 210
Policy 210
Ra@@ 210
alk@@ 210
chol@@ 210
coatings 210
egg 210
flo@@ 210
knee 210
mild 210
nan@@ 210
narrow 210
record 210
rises 210
runoff 210
saturated 210
wards 210
Body 209
Channel 209
IS 209
Impact 209
Literature 209
MMP 209
Mi@@ 209
SR@@ 209
Sen@@ 209
Size 209
approximately 209
assessed 209
auto@@ 209
away 209
bandwidth 209
chloro@@ 209
circle 209
crystalline 209
dre@@ 209
extensive 209
holds 209
hyp@@ 209
lattice 209
mul@@ 209
pine 209
reveals 209
signature 209
sta@@ 209
though 209
ur 209
vivo 209
105 208
Cultural 208
Estimation 208
Ga@@ 208
Integrated 208
Strategy 208
accurately 208
bri@@ 208
choose 208
coming 208
distributions 208
esophageal 208
examine 208
exploitation 208
geometric 208
ha 208
indices 208
intake 208
manage 208
modul@@ 208
ocy@@ 208
previous 208
rose 208
seeking 208
spectroscopy 208
spon@@ 208
staff 208
stainless 208
tle 208
ven 208
Device 207
Knowledge 207
Mat@@ 207
RF@@ 207
Side 207
Ter@@ 207
filtering 207
gre@@ 207
lan@@ 207
mud 207
promoter 207
radio 207
regularity 207
thing 207
tory 207
B.@@ 206
Developing 206
Non@@ 206
View 206
belongs 206
ecology 206
emotion 206
fer 206
genotype 206
hol@@ 206
layout 206
ometric 206
propose 206
published 206
purification 206
py@@ 206
realizes 206
regulating 206
represented 206
AIM 205
Cement 205
E. 205
Normal 205
Raman 205
acts 205
ading 205
again 205
ain@@ 205
asis 205
bases 205
bic@@ 205
da 205
em 205
ensis 205
ethyl 205
femoral 205
figure 205
genera 205
governance 205
isolates 205
microcomputer 205
reactions 205
rever@@ 205
shelf 205
specificity 205
trends 205
ultimate 205
valuable 205
BE@@ 204
FEM 204
Resi@@ 204
Special 204
That 204
develops 204
distortion 204
empirical 204
harmonic 204
immuno@@ 204
isolation 204
managing 204
marker 204
mel@@ 204
mould 204
my 204
reduces 204
tasks 204
verified 204
ware 204
Ce 203
DS@@ 203
Phot@@ 203
Solid 203
Syn@@ 203
aircraft 203
ams 203
atmospheric 203
automobile 203
awareness 203
consider 203
contro@@ 203
count 203
counter 203
cured 203
dri@@ 203
fetal 203
ka 203
kers 203
macro 203
manner 203
ony 203
pat@@ 203
reduc@@ 203
seepage 203
ships 203
spiral 203
substance 203
switching 203
1.1 202
Cap@@ 202
Direct 202
Program 202
Sixty 202
amide 202
atrial 202
county 202
driver 202
earthquakes 202
ectomy 202
land@@ 202
liability 202
message 202
poetry 202
transfected 202
Agricultural 201
Genes 201
Order 201
PT 201
VE@@ 201
Zhejiang 201
Zr 201
abdominal 201
bes 201
came 201
crossing 201
emergency 201
factory 201
ina 201
indicating 201
intensive 201
justice 201
lift 201
nickel 201
otic 201
passive 201
resolve 201
roc@@ 201
said 201
son@@ 201
traits 201
tubes 201
viewpoint 201
1.6 200
35.@@ 200
Au 200
Earth 200
IGF 200
PO 200
SAR 200
Simple 200
Site 200
Tube 200
alis 200
aluminium 200
asser@@ 200
bit@@ 200
bon@@ 200
china 200
conflict 200
delta 200
dy 200
ort@@ 200
scheduling 200
simil@@ 200
simulating 200
transforming 200
94.@@ 199
95.@@ 199
Ba 199
Combining 199
Cur@@ 199
Government 199
HCV 199
Hydraulic 199
Improving 199
challenge 199
compact 199
concentrated 199
disc@@ 199
ethylene 199
facial 199
hi 199
humidity 199
hundred 199
ji 199
loci 199
needle 199
plates 199
plo@@ 199
pool 199
tip 199
trees 199
written 199
θ 199
Film 198
Gy 198
MTT 198
Str@@ 198
ao@@ 198
appro@@ 198
arly 198
ath@@ 198
atoms 198
ature 198
classes 198
codes 198
eric 198
glu@@ 198
industrialization 198
juice 198
laying 198
loads 198
ners 198
ope 198
periodic 198
switch 198
vely 198
1990 197
A1 197
Bi 197
NT@@ 197
RU@@ 197
Structures 197
antenna 197
applicable 197
beneficial 197
cultivated 197
expert 197
ished 197
prop@@ 197
remove 197
signi@@ 197
tered 197
torque 197
wt 197
HA@@ 196
Mass 196
P. 196
SION 196
Series 196
acetic 196
acy 196
adjacent 196
altitude 196
ble@@ 196
conservation 196
dig@@ 196
enc@@ 196
famous 196
gener@@ 196
inlet 196
ort 196
physi@@ 196
plating 196
signs 196
similarity 196
solar 196
spaces 196
symmetric 196
tactics 196
tioning 196
universal 196
36.@@ 195
Continuous 195
Equations 195
Exploration 195
Fujian 195
Go@@ 195
ay@@ 195
canal 195
criticism 195
institutions 195
ition 195
kinetics 195
lis@@ 195
pH@@ 195
pairs 195
pin 195
promotion 195
replic@@ 195
satisfied 195
separate 195
AF@@ 194
Decision 194
Eth@@ 194
MG 194
Mal@@ 194
PAGE 194
bly 194
embryo 194
encoding 194
geo@@ 194
ger@@ 194
grown 194
implementing 194
internet 194
izer 194
largest 194
mutual 194
northern 194
platelet 194
prestressed 194
restoration 194
rhiz@@ 194
semantic 194
sewage 194
sic 194
tings 194
2D 193
88.@@ 193
Ability 193
Bio@@ 193
Bu@@ 193
CL@@ 193
CM 193
Due 193
FROM 193
Financial 193
RF 193
alizing 193
atal 193
going 193
lam@@ 193
modules 193
morphological 193
organ 193
pac@@ 193
receiving 193
remained 193
schedule 193
serve 193
sm@@ 193
stored 193
Correlation 192
Internal 192
LD@@ 192
LPS 192
MT@@ 192
Quantitative 192
SF@@ 192
bin@@ 192
dom@@ 192
ful@@ 192
hemorrhage 192
ick 192
indirect 192
lock 192
mus@@ 192
organ@@ 192
osing 192
powders 192
resonance 192
scar@@ 192
ser 192
sible 192
tech 192
think 192
war 192
weighted 192
Applied 191
Compound 191
Copper 191
FT 191
Flu@@ 191
GB 191
Guangdong 191
NAA 191
Separation 191
Tunnel 191
abundant 191
aden@@ 191
contain 191
cyclo@@ 191
eci@@ 191
extr@@ 191
ica 191
lation 191
love 191
ole 191
online 191
physics 191
pigs 191
rigidity 191
titanium 191
xi 191
1H 190
92.@@ 190
Capital 190
Du@@ 190
ID@@ 190
MHz 190
Many 190
Pt 190
Re 190
Ship 190
Sur@@ 190
aiming 190
anchor 190
annealing 190
binary 190
colony 190
false 190
flexibility 190
focused 190
intravenous 190
jo@@ 190
ken 190
pregnant 190
profound 190
race 190
ranging 190
rescue 190
ric 190
theoretically 190
24h 189
86.@@ 189
ACE 189
Acute 189
CD8 189
Can@@ 189
Characterization 189
DR 189
Form 189
Free 189
Out@@ 189
Satellite 189
asing 189
began 189
benign 189
bigger 189
costs 189
decline 189
ecti@@ 189
entry 189
ethics 189
giving 189
gran@@ 189
hand@@ 189
kinetic 189
main@@ 189
sliding 189
tero@@ 189
tuberculosis 189
″ 189
38@@ 188
Equipment 188
Green 188
Let 188
Magnetic 188
MgO 188
Work 188
beauty 188
burden 188
choosing 188
damping 188
ell 188
employment 188
firm 188
frequencies 188
inform@@ 188
iring 188
mer 188
mit@@ 188
nt 188
produc@@ 188
scholars 188
tting 188
varying 188
39.@@ 187
DD@@ 187
Rob@@ 187
SL@@ 187
Techniques 187
actions 187
birth 187
chro@@ 187
connecting 187
disk 187
eds 187
elasticity 187
ether 187
eti@@ 187
expounded 187
folk 187
hip 187
ices 187
maxim@@ 187
mucosa 187
poly 187
regard 187
residential 187
tance 187
tun@@ 187
volcanic 187
140 186
6,@@ 186
Enterprises 186
Hunan 186
Hy@@ 186
Hybrid 186
Present 186
Railway 186
TER 186
Wastewater 186
amorphous 186
bing 186
carbon@@ 186
chart 186
creating 186
dyeing 186
electrochemical 186
fatty 186
ick@@ 186
ion@@ 186
job 186
leukemia 186
lic 186
predicting 186
quartz 186
raft 186
representation 186
southern 186
stro@@ 186
strongly 186
sum@@ 186
transverse 186
washing 186
ylene 186
III 185
SBR 185
asp@@ 185
benz@@ 185
cle@@ 185
combines 185
disposal 185
elementary 185
expressing 185
fas@@ 185
forecasting 185
geometry 185
liquor 185
meters 185
nine 185
repa@@ 185
repeated 185
screened 185
segments 185
sixth 185
slight 185
stiffness 185
stresses 185
tric@@ 185
1994 184
ATE 184
Eu 184
Gr@@ 184
Jin@@ 184
Sing@@ 184
Supply 184
TU@@ 184
To@@ 184
Trade 184
Turbine 184
United 184
Variable 184
amounts 184
approximate 184
ceramics 184
delayed 184
elevation 184
fibre 184
genome 184
hair 184
ight 184
immunohistochemistry 184
marked 184
mix 184
offered 184
onset 184
packet 184
placed 184
remarkably 184
soci@@ 184
statistically 184
struc@@ 184
urea 184
45.@@ 183
Bar@@ 183
Boundary 183
Evolution 183
Interaction 183
PET 183
accounted 183
campus 183
chicken 183
cit@@ 183
client 183
depends 183
details 183
dye 183
ection 183
frequently 183
getting 183
grouting 183
inte@@ 183
pit 183
processed 183
rehabilitation 183
rocket 183
sandstone 183
school@@ 183
sy 183
Aff@@ 182
Fin@@ 182
Furnace 182
Over@@ 182
STRUCTURE 182
Sequence 182
Sn 182
Yuan 182
adjusted 182
condensation 182
delivery 182
ects 182
gun 182
intestinal 182
ir 182
oxy@@ 182
painting 182
positions 182
pretreatment 182
que 182
resist 182
ridge 182
securities 182
spherical 182
strengthened 182
vial 182
37.@@ 181
Analyses 181
DA@@ 181
Experiments 181
G1 181
blind 181
capsule 181
compressive 181
consisted 181
cortex 181
disaster 181
eliminate 181
ety 181
goods 181
housing 181
hydrothermal 181
intellectual 181
list 181
males 181
maturity 181
minimal 181
toward 181
ula 181
venous 181
vessels 181
《 181
FA 180
Mu@@ 180
PI@@ 180
Set 180
Shanxi 180
Survey 180
TIVE 180
VO@@ 180
Wang 180
ZnO 180
arteries 180
comparatively 180
consisting 180
cooperative 180
curative 180
directional 180
ectively 180
elongation 180
ft 180
illustrates 180
impedance 180
oni@@ 180
peaks 180
putting 180
reviews 180
shipping 180
straw 180
var@@ 180
viol@@ 180
vis@@ 180
zones 180
2O3 179
89@@ 179
93.@@ 179
CAM 179
EP 179
Guangxi 179
June 179
MIN@@ 179
Medical 179
Most 179
Pd 179
Reverse 179
Thinking 179
Zh@@ 179
associ@@ 179
circuits 179
compatibility 179
comple@@ 179
emia 179
etic 179
explored 179
fertility 179
foot 179
han 179
kept 179
opportunity 179
ped 179
pole 179
possess 179
prevalence 179
see 179
situations 179
sto@@ 179
uptake 179
variations 179
Ω 179
3.0@@ 178
31.@@ 178
App@@ 178
Bank 178
Ca2 178
Root 178
Server 178
Shandong 178
Taiwan 178
alone 178
ame@@ 178
antly 178
articles 178
bles 178
broken 178
burning 178
discussing 178
ense 178
finishing 178
igh@@ 178
inducing 178
inversion 178
leg 178
long@@ 178
lymph@@ 178
magne@@ 178
magnitude 178
neck 178
nucle@@ 178
outcome 178
reflected 178
stor 178
ural 178
xy 178
》 178
-6 177
Active 177
Elements 177
IB@@ 177
Innovation 177
Modified 177
Open 177
Prevention 177
Product 177
RC 177
Sin@@ 177
adapt 177
after@@ 177
anol 177
arch@@ 177
behaviour 177
ecosystem 177
effluent 177
exten@@ 177
flame 177
fungi 177
gs 177
lime 177
mineralization 177
pur@@ 177
represent 177
resection 177
sight 177
ultra 177
yields 177
101 176
104 176
CF 176
Code 176
FO@@ 176
His 176
Late 176
Mining 176
acc@@ 176
acceleration 176
acupuncture 176
add 176
age@@ 176
bers 176
computed 176
cultures 176
discourse 176
infusion 176
integr@@ 176
ligh@@ 176
night 176
ogenesis 176
poems 176
pped 176
rail 176
ram@@ 176
rib 176
rings 176
spleen 176
stu@@ 176
vapor 176
warm 176
1995 175
ATP 175
Inner 175
January 175
Ming 175
Models 175
Pacific 175
Third 175
aero@@ 175
arithmetic 175
arsenic 175
assignment 175
cas@@ 175
consistency 175
dark 175
hydrolysis 175
overcome 175
played 175
protocols 175
ry@@ 175
stained 175
statistic 175
sul@@ 175
tization 175
zer 175
0.25 174
Character 174
Foreign 174
Investment 174
Parameter 174
So@@ 174
Well 174
ase@@ 174
atively 174
brake 174
conn@@ 174
females 174
finished 174
formations 174
hua 174
infiltration 174
molecules 174
oned 174
ra 174
seam 174
secretion 174
ti 174
traction 174
trust 174
utilized 174
κB 174
199@@ 173
78.@@ 173
AIDS 173
Absorption 173
Chain 173
Common 173
States 173
additional 173
apping 173
cing 173
elderly 173
exact 173
explanation 173
grey 173
mutant 173
playing 173
portal 173
programs 173
qui@@ 173
rain 173
reflects 173
specimen 173
standing 173
tative 173
transi@@ 173
vity 173
001 172
FPGA 172
Fer@@ 172
PP@@ 172
Scheme 172
Scientific 172
Teachers 172
Uni@@ 172
aggregation 172
applies 172
branches 172
distinct 172
elling 172
ese 172
export 172
extremely 172
floating 172
formulation 172
funds 172
girder 172
interior 172
mut@@ 172
retrieval 172
ship@@ 172
spraying 172
sting 172
strata 172
tolerant 172
transformer 172
verse 172
vital 172
xing 172
2,4 171
48@@ 171
Aiming 171
Angle 171
GA@@ 171
Northeast 171
Reliability 171
Tur@@ 171
VE 171
batch 171
blo@@ 171
cm2 171
con 171
dence 171
direc@@ 171
ences 171
hai 171
implantation 171
linkage 171
metals 171
mouth 171
myel@@ 171
pap@@ 171
perf@@ 171
recurrence 171
salinity 171
ALT 170
Boiler 170
CaO 170
Ce@@ 170
Exchange 170
HCC 170
Institute 170
Jiangsu 170
Nature 170
Thought 170
Yang@@ 170
balanced 170
continental 170
dioxide 170
don 170
dou@@ 170
edi@@ 170
epithelial 170
increasingly 170
iodine 170
kle 170
mono@@ 170
net@@ 170
our@@ 170
reagent 170
reinforcing 170
tiv@@ 170
ylation 170
Along 169
Biological 169
Br@@ 169
Carcinoma 169
Cen@@ 169
PG@@ 169
PRE@@ 169
Twenty 169
VI@@ 169
bleeding 169
ca 169
clone 169
defense 169
dimensions 169
documents 169
experi@@ 169
gro@@ 169
inoculation 169
inserted 169
name 169
omes 169
organs 169
parent 169
real@@ 169
reversed 169
shortcomings 169
straight 169
techn@@ 169
tone 169
transp@@ 169
vehicles 169
Δ@@ 169
BL@@ 168
Combination 168
Ecological 168
Er@@ 168
Membrane 168
NR 168
Networks 168
Political 168
TB@@ 168
ap 168
bcl 168
checking 168
etc. 168
meeting 168
responsible 168
slice 168
spec@@ 168
specification 168
spi@@ 168
European 167
FC 167
Generation 167
Meth@@ 167
Organic 167
Ros@@ 167
aid 167
alog@@ 167
ame 167
approximation 167
bel@@ 167
biochemical 167
blocks 167
capillary 167
cognition 167
diamond 167
dielectric 167
fluorescent 167
foam 167
gram 167
limits 167
nitro@@ 167
occlusion 167
qualified 167
resistivity 167
rest@@ 167
rolled 167
sport 167
story 167
suit 167
tron 167
vic@@ 167
04 166
Features 166
Immun@@ 166
Only 166
Pipe 166
Society 166
advances 166
arization 166
attrac@@ 166
bonded 166
burn 166
circumstances 166
collision 166
deposited 166
finding 166
ites 166
look 166
mati@@ 166
nel 166
optim@@ 166
propag@@ 166
qi 166
qualities 166
sedimentation 166
seriously 166
sle@@ 166
theme 166
160 165
32@@ 165
Block 165
Country 165
Forming 165
HCl 165
IV 165
LP 165
P.@@ 165
Pac@@ 165
Yangtze 165
Zn@@ 165
accelerate 165
clean 165
dietary 165
eous 165
extend 165
flowing 165
gin@@ 165
hed 165
lab@@ 165
larvae 165
loan 165
op 165
possesses 165
receptors 165
repeat 165
san@@ 165
sentence 165
sequencing 165
shortage 165
Ⅰ@@ 165
3H 164
85.@@ 164
Abstract 164
Pro 164
Pump 164
Qi@@ 164
Rh@@ 164
TIONS 164
TM 164
aggregate 164
basically 164
cation 164
commonly 164
contr@@ 164
crystallization 164
dness 164
entire 164
escent 164
illo@@ 164
interactive 164
invasion 164
mes 164
option 164
phenyl 164
released 164
retail 164
seal 164
tening 164
tured 164
visible 164
wed 164
wool 164
130 163
32.@@ 163
Ground 163
Historical 163
Lake 163
Marxism 163
Mathematical 163
Micro 163
N2 163
Static 163
amplification 163
basal 163
competence 163
compositions 163
cytes 163
displayed 163
distribu@@ 163
eng 163
extrusion 163
gent 163
heated 163
industries 163
instability 163
judge 163
lands 163
lar 163
localization 163
lost 163
manager 163
million 163
nasal 163
ometry 163
operate 163
package 163
pathogenesis 163
positioning 163
replaced 163
spectrometry 163
stochastic 163
subjective 163
symmetry 163
systemic 163
theoretic 163
tici@@ 163
uro@@ 163
1992 162
Hyper@@ 162
O3 162
SF 162
SM 162
SR 162
SiO2 162
T1 162
Trace 162
Ver@@ 162
Wu@@ 162
albumin 162
analytic 162
anxiety 162
appraisal 162
coun@@ 162
dissolved 162
ently 162
experienced 162
gland 162
globalization 162
grafting 162
i. 162
immunohistochemical 162
indoor 162
inhibiting 162
lamp 162
mantle 162
markets 162
omal 162
qualitative 162
residence 162
ros@@ 162
roughness 162
sulf@@ 162
tire 162
town 162
ut 162
Aim 161
Analyzing 161
F2 161
H2 161
HD 161
Local 161
Mice 161
SM@@ 161
Shear 161
ared 161
army 161
arti@@ 161
attenuation 161
chem@@ 161
commerce 161
debt 161
definite 161
dental 161
digestion 161
expanding 161
facilities 161
fluctuation 161
gray 161
hel@@ 161
hollow 161
human@@ 161
inci@@ 161
initi@@ 161
mountain 161
pitch 161
precise 161
sou@@ 161
superiority 161
tax@@ 161
thal@@ 161
tized 161
ultrasound 161
yet 161
Hg 160
Medium 160
POD 160
TCM 160
Temp@@ 160
Thin 160
Tw@@ 160
aesthetics 160
aldehyde 160
algebra 160
anch@@ 160
chest 160
healing 160
instruments 160
ley 160
oration 160
passenger 160
slurry 160
sup@@ 160
sure 160
tidal 160
transferred 160
utility 160
were@@ 160
yi 160
03 159
Cal@@ 159
Controlling 159
Frame 159
GO@@ 159
HP 159
INE 159
MODEL 159
PER@@ 159
Positive 159
Stra@@ 159
Sul@@ 159
Ten@@ 159
Zone 159
angular 159
bas@@ 159
carries 159
cone 159
convex 159
enter 159
eration 159
ey 159
faces 159
fibrosis 159
fla@@ 159
holes 159
induc@@ 159
inj@@ 159
los@@ 159
permanent 159
phenyl@@ 159
prof@@ 159
receiver 159
stabilization 159
stre@@ 159
tetra@@ 159
transgenic 159
106 158
Am@@ 158
GaAs 158
ISO 158
Mer@@ 158
Pan@@ 158
Roller 158
Skin 158
VA 158
aerobic 158
aving 158
ew@@ 158
guiding 158
ii 158
lumbar 158
pes 158
residents 158
shall 158
spin 158
sun@@ 158
tely 158
voice 158
... 157
34@@ 157
700 157
89.@@ 157
AE 157
ASP 157
Casting 157
Chongqing 157
Fourier 157
MB 157
MV 157
Measure 157
Ser@@ 157
Sports 157
TH 157
although 157
anth@@ 157
astic 157
att@@ 157
automation 157
centr@@ 157
ella 157
establishes 157
gets 157
hypoxia 157
liqu@@ 157
panel 157
passing 157
police 157
rotary 157
sa 157
toughness 157
utilize 157
120@@ 156
68.@@ 156
76.@@ 156
Artificial 156
Chromatography 156
Circuit 156
Civil 156
Crack 156
FS 156
Further 156
Ge 156
Gold 156
Injury 156
Mor@@ 156
Pri@@ 156
Solutions 156
Stage 156
Works 156
adaptability 156
authority 156
behind 156
bis@@ 156
books 156
cies 156
correlative 156
creep 156
dents 156
distal 156
drill 156
enzymes 156
explores 156
immunity 156
invasive 156
methane 156
morph@@ 156
ogen@@ 156
secure 156
selectivity 156
started 156
valued 156
ye@@ 156
you 156
06 155
4th 155
99@@ 155
NK 155
Speci@@ 155
aly@@ 155
eastern 155
eding 155
ental 155
ep 155
fications 155
huge 155
identical 155
increment 155
isotope 155
occurs 155
pieces 155
preparing 155
regulatory 155
religion 155
remains 155
rine 155
satisfaction 155
selectin 155
sera 155
sero@@ 155
sky 155
tac@@ 155
termin@@ 155
ums 155
weld 155
111 154
150@@ 154
S2 154
SIS 154
Silicon 154
Status 154
Steam 154
asthma 154
clinic 154
develop@@ 154
di 154
econ@@ 154
fruits 154
fun@@ 154
ister 154
iv@@ 154
kb 154
met@@ 154
milling 154
news 154
nitrate 154
nucleotide 154
orien@@ 154
photon 154
rhythm 154
saf@@ 154
shearing 154
village 154
8,@@ 153
84.@@ 153
AST 153
Br 153
CL 153
Motor 153
Nor@@ 153
Vertical 153
War 153
accepted 153
attribute 153
bin 153
calculations 153
chromium 153
conduct 153
directions 153
distributing 153
door 153
fec@@ 153
guided 153
kJ 153
la 153
lining 153
nitric 153
one@@ 153
outstanding 153
reformation 153
rup@@ 153
shop 153
tery 153
08 152
1,2 152
400@@ 152
AM@@ 152
Cer@@ 152
DSC 152
Ga 152
Integration 152
Lower 152
Making 152
NOS 152
PV 152
REE 152
Shu@@ 152
Strain 152
Tc 152
Vari@@ 152
assigned 152
bamboo 152
comprehensively 152
container 152
ession 152
explosion 152
iled 152
inten@@ 152
involving 152
loaded 152
mentary 152
morality 152
motive 152
perform 152
plic@@ 152
recently 152
red@@ 152
remaining 152
requires 152
resident 152
socialism 152
spreading 152
sten@@ 152
stratum 152
thread 152
ute 152
van@@ 152
volu@@ 152
why 152
Ⅲ@@ 152
0.15 151
COMP@@ 151
CY@@ 151
DU@@ 151
Europe 151
GU@@ 151
Guangzhou 151
HF 151
Hospital 151
RI 151
S1 151
Storage 151
UR@@ 151
aches 151
aded 151
ads 151
ass 151
circumstance 151
closure 151
contradiction 151
donor 151
ends 151
ign 151
magnesium 151
missile 151
plot 151
quantitatively 151
recurrent 151
relaxation 151
silicone 151
temper@@ 151
valid 151
xes 151
48.@@ 150
65@@ 150
CU@@ 150
Difference 150
Fatigue 150
Forest 150
Platform 150
ack 150
ced 150
coke 150
dor@@ 150
dra@@ 150
exhibited 150
expanded 150
incision 150
inoculated 150
ionic 150
maintained 150
oli@@ 150
pancreatic 150
projection 150
pumped 150
quenching 150
recommended 150
records 150
relati@@ 150
ring@@ 150
river@@ 150
scrap@@ 150
singing 150
strict 150
tness 150
unity 150
winding 150
： 150
.The 149
1000@@ 149
56.@@ 149
58.@@ 149
Addi@@ 149
Bl@@ 149
Core 149
Des@@ 149
Failure 149
Grain 149
HB@@ 149
HI@@ 149
Linux 149
Man 149
Pollution 149
Thirty 149
Water@@ 149
Yan@@ 149
activator 149
affairs 149
aimed 149
chlorophyll 149
conditioning 149
continu@@ 149
environments 149
genus 149
inclusion 149
kg@@ 149
minim@@ 149
norm 149
recovered 149
sensi@@ 149
stationary 149
subjected 149
twice 149
42.@@ 148
Classification 148
Den@@ 148
F1 148
GSH 148
Inte@@ 148
LDH 148
Loc@@ 148
Mill 148
NEW 148
Position 148
RB@@ 148
Regional 148
Relative 148
SCA@@ 148
Traffic 148
Vector 148
adverse 148
chitosan 148
circulating 148
cultivating 148
dead 148
etal 148
explo@@ 148
formal 148
generate 148
incident 148
integrity 148
ple 148
properly 148
serv@@ 148
sor 148
storm 148
suc@@ 148
thec@@ 148
0.02 147
5mm 147
6.5 147
Bay 147
Functional 147
HL 147
Interface 147
Ly@@ 147
Mac@@ 147
Oc@@ 147
Pavement 147
Powder 147
Practical 147
SARS 147
Val@@ 147
accumulated 147
aled 147
art@@ 147
bal@@ 147
bi 147
casing 147
category 147
classi@@ 147
clearance 147
combinations 147
crown 147
crust 147
cultivate 147
define 147
ethyl@@ 147
format 147
grades 147
hippocampus 147
maintaining 147
mem@@ 147
obtaining 147
opathy 147
opinion 147
pit@@ 147
polar 147
reticul@@ 147
retinal 147
seek 147
shoots 147
store 147
stric@@ 147
toxin 147
β1 147
＜ 147
7,@@ 146
A2 146
ANSYS 146
Business 146
Color 146
GH 146
Guizhou 146
Huang@@ 146
Mountain 146
Op@@ 146
Pen@@ 146
RMB 146
Reserve 146
Shell 146
Syndrome 146
USB 146
Welding 146
Women 146
a- 146
analy@@ 146
carotid 146
che@@ 146
coarse 146
court 146
hom@@ 146
hypertensive 146
im 146
lig@@ 146
lith@@ 146
petro@@ 146
produces 146
rad@@ 146
ral 146
restraint 146
scen@@ 146
searching 146
stain 146
synchronous 146
thyroid 146
until 146
vectors 146
-4 145
2n 145
Analy@@ 145
BS 145
Char@@ 145
Diff@@ 145
ERP 145
Fluid 145
GHz 145
Ir@@ 145
July 145
Long@@ 145
Pr@@ 145
Species 145
Tex@@ 145
Translation 145
Variation 145
ached 145
address 145
ands 145
ax 145
blend 145
burst 145
cholesterol 145
conduction 145
confirm 145
ction 145
discipline 145
dly 145
excavation 145
fic 145
fitted 145
gh 145
grow 145
judgment 145
lamin@@ 145
li 145
medial 145
minute 145
mirror 145
mping 145
osed 145
particularly 145
split 145
ster 145
sterile 145
suff@@ 145
symbol 145
ume 145
vibr@@ 145
000@@ 144
2006 144
44.@@ 144
87.@@ 144
ECG 144
Java 144
Mechanisms 144
Nit@@ 144
Optimum 144
Rapid 144
Rou@@ 144
S. 144
Sr@@ 144
Starting 144
TMS320@@ 144
TT 144
Under@@ 144
WATER 144
Xin@@ 144
ano@@ 144
arm@@ 144
bud 144
concern 144
dealing 144
dorsal 144
emphatically 144
exec@@ 144
gan@@ 144
happ@@ 144
inst@@ 144
intrac@@ 144
lec@@ 144
minerals 144
motivation 144
och@@ 144
organizations 144
prolonged 144
reforming 144
reproduction 144
robust 144
toxic 144
twenty 144
uncertainty 144
γ@@ 144
2SO 143
AST@@ 143
Brain 143
CDMA 143
CRP 143
Column 143
Concentration 143
Corrosion 143
FI@@ 143
Family 143
Great 143
HS 143
Heavy 143
Hem@@ 143
Introduction 143
Liver 143
NU@@ 143
Net 143
No.@@ 143
Qinghai 143
Radar 143
Rubber 143
Slope 143
Sm 143
Style 143
VB 143
Vocational 143
ater@@ 143
atus 143
auxiliary 143
bilateral 143
blocking 143
collapse 143
demonstrates 143
e. 143
eing 143
gg@@ 143
granite 143
graphite 143
incentive 143
inherent 143
institutional 143
ky 143
lied 143
machinery 143
mation 143
move 143
ophy@@ 143
prototype 143
pun@@ 143
recording 143
rol 143
spontaneous 143
suffered 143
swelling 143
tox@@ 143
ultraviolet 143
wo@@ 143
φ@@ 143
AG@@ 142
Bcl 142
Combustion 142
Cross 142
Cylinder 142
Henan 142
Hong 142
Legal 142
New@@ 142
Plas@@ 142
RR 142
Reg@@ 142
Waste 142
White 142
amplifier 142
ank 142
classroom 142
concludes 142
dered 142
developmental 142
elevated 142
exploring 142
focusing 142
inver@@ 142
ith 142
loid 142
nationality 142
ok 142
partially 142
pic@@ 142
practices 142
rant 142
refers 142
rele@@ 142
rence 142
sation 142
semi@@ 142
stenosis 142
til@@ 142
tran@@ 142
ude 142
Box 141
Crystal 141
DR@@ 141
Direc@@ 141
Object 141
Oper@@ 141
PEG 141
PU@@ 141
Pa 141
Recognition 141
Target 141
WC 141
^ 141
altern@@ 141
ament 141
amic 141
arrest 141
audio 141
blank 141
clones 141
dop@@ 141
emergence 141
gon@@ 141
happened 141
investigates 141
machines 141
mm@@ 141
nar@@ 141
native 141
not@@ 141
operators 141
pin@@ 141
precipit@@ 141
regime 141
rus@@ 141
thinks 141
tionally 141
tol@@ 141
ules 141
ulus 141
undergoing 141
unstable 141
69.@@ 140
83.@@ 140
Adaptive 140
Cerebral 140
Dam 140
Fa@@ 140
ICP 140
NG 140
Now 140
Population 140
RBC 140
Ret@@ 140
Roll 140
Sample 140
Screen 140
TI 140
Tibet 140
UM 140
Way 140
adap@@ 140
aring 140
bath 140
cli@@ 140
declined 140
dried 140
drinking 140
earlier 140
entr@@ 140
eral 140
execution 140
flora 140
flow@@ 140
hon@@ 140
ied 140
ign@@ 140
kPa 140
limb 140
locomotive 140
manufactured 140
money 140
orbit 140
ov@@ 140
plantation 140
rea 140
singular 140
structured 140
tide 140
till@@ 140
ASE 139
Being 139
Coating 139
Controlled 139
Cutting 139
FORMATION 139
LV@@ 139
Land@@ 139
MIS 139
Off@@ 139
Rule 139
Shock 139
Silver 139
USA 139
ags 139
arthro@@ 139
cent 139
complication 139
curved 139
cytometry 139
damaged 139
difficulties 139
embryos 139
int 139
interpolation 139
intrinsic 139
irregular 139
ka@@ 139
liber@@ 139
mac@@ 139
menting 139
mo 139
negatively 139
ofthe 139
olig@@ 139
omy@@ 139
passage 139
pumping 139
resisting 139
righ@@ 139
schizophrenia 139
sealing 139
shu@@ 139
styles 139
totally 139
ush 139
64.@@ 138
Apoptosis 138
Drawing 138
Grade 138
MAC 138
MR@@ 138
MU@@ 138
Mag@@ 138
Paper 138
SER@@ 138
acquire 138
bacterium 138
contraction 138
econom@@ 138
evaporation 138
excess 138
finish 138
geology 138
harmony 138
ich@@ 138
island 138
kin 138
manganese 138
marriage 138
median 138
mellitus 138
molding 138
nozzle 138
omy 138
orders 138
perfusion 138
pilot 138
pt 138
references 138
rhy@@ 138
scaling 138
sphere 138
worm 138
xia 138
yu 138
） 138
1β 137
2.2 137
220 137
46.@@ 137
47.@@ 137
Before 137
C2 137
Controller 137
Effective 137
FM 137
INTER@@ 137
Isolation 137
Ke@@ 137
LDL 137
Potential 137
Ps 137
RAPD 137
VI 137
Yu@@ 137
absorbing 137
actu@@ 137
anaerobic 137
ancing 137
anomaly 137
braking 137
causing 137
computational 137
des@@ 137
feeling 137
forced 137
gence 137
genomic 137
gly@@ 137
granul@@ 137
hydroly@@ 137
itting 137
losses 137
meal 137
na 137
photosynthetic 137
polluted 137
rap@@ 137
recognized 137
resolved 137
respects 137
ret@@ 137
rin 137
sort 137
stomach 137
stones 137
tration 137
wave@@ 137
（ 137
2.4 136
37@@ 136
Access 136
Aluminum 136
Ber@@ 136
C. 136
CD3 136
ET@@ 136
Fo@@ 136
Lung 136
Major 136
Mixed 136
Noise 136
Plateau 136
SG@@ 136
Simul@@ 136
Spectrum 136
aceae 136
adaptation 136
arily 136
ath 136
comm@@ 136
covering 136
currently 136
dissolution 136
dynamically 136
elimination 136
fertilization 136
flotation 136
fractal 136
ino@@ 136
instance 136
mos@@ 136
neuron 136
ord 136
participation 136
penetration 136
pigment 136
pollen 136
pt@@ 136
qing 136
researchers 136
see@@ 136
sit@@ 136
thoroughly 136
trauma 136
verification 136
102 135
33.@@ 135
7.0 135
BETWEEN 135
Black 135
Bre@@ 135
CHD 135
DB@@ 135
ML 135
Philosophy 135
Resolution 135
Sensor 135
administered 135
beds 135
bor 135
categories 135
certificate 135
ectin 135
ector 135
electro 135
gender 135
geologic 135
heater 135
infants 135
integrating 135
legi@@ 135
marks 135
matched 135
mathematic 135
matrices 135
myocardium 135
nec@@ 135
oth@@ 135
randomized 135
revolution@@ 135
rot 135
stere@@ 135
talent 135
tam@@ 135
thy@@ 135
ution 135
valent 135
valley 135
49.@@ 134
77@@ 134
8.0 134
ALL 134
Brief 134
Curriculum 134
Distributed 134
El@@ 134
Fl@@ 134
Full 134
Mul@@ 134
Qing@@ 134
Removal 134
alteration 134
aming 134
anding 134
arts 134
bile 134
camera 134
carbo@@ 134
com 134
correctly 134
cra@@ 134
eco 134
excessive 134
faster 134
genesis 134
gir@@ 134
grading 134
grating 134
loess 134
manual 134
nd 134
ovarian 134
pan@@ 134
plac@@ 134
planar 134
regarding 134
rejection 134
relapse 134
rely 134
scap@@ 134
sci@@ 134
scientifically 134
scopic 134
shield 134
stance 134
sucrose 134
tter 134
uranium 134
urgent 134
volunteers 134
1980 133
57.@@ 133
59.@@ 133
Au@@ 133
CCD 133
Cd@@ 133
Coefficient 133
Composition 133
Concept 133
Fas 133
HC 133
HE 133
Ion 133
Is 133
Microstructure 133
Old 133
Pre 133
Revolution 133
Shenzhen 133
Wavelet 133
adults 133
aperture 133
assisted 133
atom@@ 133
bled 133
bonds 133
conducting 133
corneal 133
counter@@ 133
crops 133
cus 133
decomp@@ 133
dering 133
dynamical 133
enrichment 133
feed@@ 133
implanted 133
innovative 133
layered 133
nanometer 133
nia 133
ories 133
persi@@ 133
primer 133
prior 133
regu@@ 133
replac@@ 133
sensors 133
served 133
sham 133
timing 133
tos@@ 133
usly 133
vortex 133
weak@@ 133
2nd 132
5.5 132
AO@@ 132
Asp@@ 132
Cast 132
Cause 132
Coupling 132
Mol@@ 132
Movement 132
Port 132
Pur@@ 132
Sig@@ 132
Trend 132
accelerated 132
acidic 132
adv@@ 132
ascen@@ 132
aster 132
attempts 132
cle 132
dislocation 132
duced 132
fu 132
idine 132
labeled 132
live 132
neigh@@ 132
pro 132
prob@@ 132
rene 132
renin 132
saved 132
stimulating 132
stocks 132
thor@@ 132
ts@@ 132
umin@@ 132
unified 132
whe@@ 132
-5 131
2B 131
2mm 131
43.@@ 131
66.@@ 131
77.@@ 131
ATM 131
April 131
Ari@@ 131
CAN 131
EA 131
Educational 131
HI 131
ISO@@ 131
Marxist 131
More 131
OX@@ 131
Plan 131
Retro@@ 131
Vol@@ 131
Zinc 131
ague 131
appe@@ 131
assumption 131
ba 131
battery 131
centre 131
cont@@ 131
derivative 131
differenti@@ 131
doping 131
eggs 131
epit@@ 131
esis 131
finger 131
genotypes 131
gl@@ 131
iler 131
leuk@@ 131
majority 131
med@@ 131
mun@@ 131
ograph 131
pot@@ 131
preservation 131
punishment 131
query 131
rating 131
rer 131
short@@ 131
supplemented 131
tain 131
tem 131
tetr@@ 131
worth 131
④ 131
108 130
3rd 130
600@@ 130
72.@@ 130
900 130
Be 130
CAT 130
Del@@ 130
Elastic 130
Left 130
Mobile 130
Nuclear 130
Oxygen 130
Sec@@ 130
Thoughts 130
Tissue 130
Transform 130
abil@@ 130
absorbed 130
apoptotic 130
arthritis 130
athletes 130
born 130
cum@@ 130
democratic 130
describing 130
dev@@ 130
eling 130
emphasizes 130
fin 130
firing 130
inevitable 130
lobe 130
meanings 130
ock 130
oilfield 130
ost 130
packing 130
places 130
poem 130
priority 130
probably 130
reaching 130
remark@@ 130
strand 130
tensi@@ 130
tility 130
today 130
uation 130
ω 130
63.@@ 129
64@@ 129
AI 129
Action 129
Ash@@ 129
Cat@@ 129
Colleges 129
Dimensional 129
Empirical 129
Fu 129
LED 129
Pul@@ 129
Regul@@ 129
Running 129
Strengthening 129
TER@@ 129
Tibetan 129
Tre@@ 129
Up@@ 129
Utilization 129
Voltage 129
What 129
ato 129
availability 129
belonging 129
bran@@ 129
broad@@ 129
call 129
chan@@ 129
characterization 129
columns 129
compressor 129
constraint 129
countryside 129
derivatives 129
dur@@ 129
encing 129
hemat@@ 129
incubation 129
intracellular 129
meets 129
microscopic 129
miner@@ 129
oids 129
oly@@ 129
onto 129
ound 129
person@@ 129
pot 129
pra@@ 129
pulsed 129
rs 129
sIL 129
sediments 129
shooting 129
smoke 129
tability 129
thel@@ 129
transferring 129
vities 129
ya 129
ρ 129
1st 128
2C 128
Age 128
Air@@ 128
Bro@@ 128
EEG 128
EM 128
Escherichia 128
Female 128
Fire 128
Ger@@ 128
Gre@@ 128
Highway 128
IU 128
Instrument 128
Motion 128
QoS 128
SLE 128
SN@@ 128
Sar@@ 128
Specific 128
Sym@@ 128
Wire 128
Working 128
basement 128
bits 128
cad@@ 128
clustering 128
colorectal 128
ct 128
currency 128
curvature 128
dip 128
ements 128
entering 128
ere@@ 128
falling 128
foil 128
glomer@@ 128
held 128
hypothesis 128
ited 128
kage 128
lying 128
mod@@ 128
og 128
omas 128
owing 128
primarily 128
quad@@ 128
refriger@@ 128
separating 128
sink 128
tains 128
tives 128
tot@@ 128
weather 128
τ 128
10,@@ 127
1993 127
2.1 127
3.1 127
44@@ 127
62.@@ 127
65.@@ 127
December 127
Diesel 127
Drug 127
Especially 127
Filter 127
Following 127
Gra@@ 127
ICAM 127
MAP 127
Olympic 127
Rb 127
Shape 127
VD 127
consist 127
didn 127
fluoro@@ 127
freezing 127
insertion 127
insulation 127
investigating 127
kou 127
lip@@ 127
logy 127
mother 127
obligation 127
observations 127
ocean 127
ority 127
pale@@ 127
paste 127
pose 127
pris@@ 127
recti@@ 127
replication 127
reward 127
scales 127
suppression 127
swe@@ 127
that@@ 127
usual 127
visco@@ 127
writers 127
A. 126
B1 126
Clas@@ 126
Fracture 126
Functions 126
GEN@@ 126
HBsAg 126
HR@@ 126
IPv6 126
PH 126
Pal@@ 126
Protocol 126
Receptor 126
Resin 126
Sustainable 126
aortic 126
apped 126
bolt 126
bridges 126
brown 126
carb@@ 126
conce@@ 126
confidence 126
customers 126
dense 126
ea 126
engine@@ 126
epoxy 126
explosive 126
hospitals 126
idation 126
inequality 126
injuries 126
intensi@@ 126
itic 126
mind 126
nat@@ 126
ord@@ 126
organizational 126
oted 126
overseas 126
planted 126
py 126
rationality 126
regulate 126
ron 126
scienti@@ 126
smoking 126
stressed 126
suggestion 126
tention 126
turbulence 126
vention 126
2.3 125
67.@@ 125
AMI 125
B2 125
Ban@@ 125
Damage 125
Designing 125
Dynamics 125
Feature 125
Fr@@ 125
G2 125
Heart 125
October 125
PF 125
Products 125
SMA 125
Sel@@ 125
Sodium 125
Stock 125
Suc@@ 125
TRA@@ 125
Thirdly 125
Vitro 125
architectural 125
ark 125
aromatic 125
cere@@ 125
collective 125
comfort 125
couple 125
enriched 125
extrac@@ 125
flows 125
grassland 125
hemo@@ 125
immediately 125
individu@@ 125
ist@@ 125
locus 125
omp@@ 125
opo@@ 125
phon@@ 125
ple@@ 125
pseudo 125
reac@@ 125
runs 125
si 125
slave 125
stabilized 125
tary 125
terior 125
ticism 125
ull 125
visi@@ 125
wil@@ 125
zi 125
1α 124
2A 124
75.@@ 124
AB 124
Bra@@ 124
Calculating 124
Critical 124
Dual 124
Fac@@ 124
HPV 124
HY@@ 124
LY@@ 124
Loss 124
Manufacturing 124
March 124
NaOH 124
ON@@ 124
PCI 124
Probe 124
Progress 124
Relations 124
Universities 124
Wh@@ 124
Zhang 124
accounts 124
ail@@ 124
atum 124
authentication 124
child 124
constrained 124
copy 124
cross@@ 124
dal 124
democracy 124
extra 124
fabrics 124
facts 124
flav@@ 124
founded 124
frequent 124
gluco@@ 124
governmental 124
independence 124
inflammation 124
ins@@ 124
irradiated 124
iterative 124
jump 124
mu 124
pa 124
parties 124
penalty 124
prepare 124
slot 124
substitute 124
supports 124
ticul@@ 124
travel 124
turing 124
ulcer 124
1989 123
250@@ 123
52.@@ 123
85@@ 123
AES 123
API 123
Ang@@ 123
Calcium 123
Depression 123
IA 123
MF 123
P1 123
PROPERTIES 123
Phen@@ 123
Price 123
Results@@ 123
Rules 123
STEEL 123
SV@@ 123
Studying 123
affinity 123
agg@@ 123
arranged 123
cellulose 123
charging 123
countermeasure 123
crucial 123
del@@ 123
dominated 123
don@@ 123
emulsi@@ 123
expan@@ 123
experimentally 123
far@@ 123
fluctu@@ 123
formaldehyde 123
fting 123
fulness 123
hidden 123
ible 123
integrate 123
itary 123
learn 123
lling 123
monoclonal 123
naph@@ 123
ocular 123
ogr@@ 123
ordered 123
part@@ 123
progressive 123
receive 123
relay 123
sandwich 123
scri@@ 123
serving 123
star 123
transitional 123
trap 123
versus 123
walls 123
09 122
450 122
53.@@ 122
79.@@ 122
B. 122
CB 122
Carlo 122
Compensation 122
Database 122
Each 122
Examination 122
HIGH 122
Ischemia 122
L1 122
Monte 122
Number 122
Oilfield 122
SO4 122
Seismic 122
Te 122
Upper 122
aching 122
alumina 122
assistant 122
borne 122
bovine 122
carbide 122
cular 122
desorption 122
dies 122
edema 122
excav@@ 122
ey@@ 122
inclined 122
initiation 122
involves 122
lin 122
lization 122
merits 122
molten 122
office 122
ologically 122
opes 122
ots 122
refractory 122
rel 122
reproductive 122
respective 122
rooting 122
ruling 122
scholar 122
sely 122
solubility 122
stated 122
synchronization 122
tomy 122
turbulent 122
und 122
vertebral 122
vul@@ 122
wine 122
φ 122
07 121
5mg 121
Ab 121
Bas@@ 121
Cost 121
Cultivation 121
Emission 121
Male 121
Random 121
Rights 121
Sheet 121
Zhong@@ 121
accidents 121
actively 121
alistic 121
antagonist 121
aspir@@ 121
biology 121
bling 121
corrected 121
emer@@ 121
expand 121
extracellular 121
faced 121
illustrated 121
ission 121
itor 121
laid 121
lized 121
locating 121
metallo@@ 121
muscles 121
ods 121
omic 121
ops 121
originated 121
ote 121
otomy 121
paddy 121
promising 121
regularly 121
relating 121
requi@@ 121
residues 121
reversible 121
saddle 121
sine 121
spike 121
star@@ 121
stom@@ 121
substances 121
template 121
turned 121
ucle@@ 121
ults 121
ump 121
Assi@@ 120
Gd 120
MATLAB 120
Nucle@@ 120
PM@@ 120
RAM 120
Rotor 120
Rs 120
Sn@@ 120
Spring 120
Tran@@ 120
antic@@ 120
besides 120
communications 120
deflection 120
depen@@ 120
discovery 120
dogs 120
emphasized 120
employing 120
farmers 120
flue 120
fs 120
head@@ 120
holder 120
ility 120
inated 120
infrastructure 120
irs 120
let@@ 120
lor@@ 120
monetary 120
omers 120
pers 120
ption 120
refining 120
strictly 120
surfactant 120
thetic 120
tural 120
uck 120
urs 120
vegetable 120
win@@ 120
wise 120
103 119
54.@@ 119
AI@@ 119
Architecture 119
Asphalt 119
Assembly 119
BU@@ 119
Curve 119
ITY 119
Joint 119
Maintenance 119
Particle 119
Post 119
Scal@@ 119
Such 119
Sy@@ 119
Wistar 119
XPS 119
adsor@@ 119
ance@@ 119
ather 119
centrifugal 119
chromosomes 119
compatible 119
deficient 119
denti@@ 119
diameters 119
efforts 119
glyco@@ 119
hard@@ 119
inventory 119
less@@ 119
oun@@ 119
quin@@ 119
sarco@@ 119
seeding 119
skeletal 119
substitution 119
tations 119
thousand 119
trait 119
truth 119
vate 119
2.6 118
ALS 118
Administrative 118
Advanced 118
Against 118
August 118
BC 118
CN 118
Containing 118
Contin@@ 118
Enzyme 118
Experience 118
Fre@@ 118
HYDRO@@ 118
Jin 118
LING 118
Marx 118
Medicine 118
Plastic 118
Protective 118
She@@ 118
Th 118
arsen@@ 118
attempt 118
auditing 118
author@@ 118
ban@@ 118
biggest 118
bore 118
buried 118
cap 118
chang@@ 118
clusters 118
connect 118
considers 118
cropping 118
electrolyte 118
ellip@@ 118
enhances 118
ens@@ 118
exchanger 118
exterior 118
hydr@@ 118
indicator 118
infinite 118
itter 118
latest 118
moun@@ 118
nal 118
nuclei 118
oming 118
partly 118
payment 118
peroxidase 118
potato 118
pression 118
proportional 118
protected 118
readers 118
require 118
resist@@ 118
retrospectively 118
rho@@ 118
shrimp 118
simultaneous 118
ske@@ 118
thereby 118
thoracic 118
uting 118
vals 118
1A 117
C3@@ 117
Characters 117
Corporation 117
Foc@@ 117
Fusion 117
GEN 117
Hor@@ 117
Jo@@ 117
Lead 117
M1 117
Pulse 117
RESEARCH 117
Rhiz@@ 117
Spatial 117
Ul@@ 117
VER@@ 117
Vacuum 117
Wind 117
ache 117
atten@@ 117
banking 117
basketball 117
crane 117
cyto@@ 117
differentiated 117
fts 117
has@@ 117
hence 117
hydrogenation 117
import 117
ingi@@ 117
lea@@ 117
lowing 117
nano@@ 117
ner@@ 117
ow 117
pla@@ 117
precursor 117
read 117
ref@@ 117
repairing 117
ression 117
robo@@ 117
satisfies 117
secre@@ 117
segmentation 117
signing 117
simpli@@ 117
solidification 117
spac@@ 117
specialty 117
spl@@ 117
spo@@ 117
themselves 117
thes@@ 117
va 117
vor@@ 117
zeolite 117
zyme 117
AF 116
Auto 116
Bed 116
COM 116
Commercial 116
Density 116
E2 116
EFFECTS 116
Fuel 116
GE@@ 116
Jud@@ 116
ML@@ 116
MO 116
Over 116
Pb@@ 116
Perspective 116
Sequ@@ 116
Tool 116
ampli@@ 116
analog 116
ane@@ 116
ato@@ 116
attached 116
backward 116
colon 116
command 116
continuity 116
distillation 116
emotional 116
enic 116
ested 116
extreme 116
firms 116
intention 116
ip 116
junction 116
materi@@ 116
offset 116
plateau 116
rectangular 116
releasing 116
servo 116
subsystem 116
taxation 116
tian 116
tices 116
ting@@ 116
topology 116
transl@@ 116
troph@@ 116
trouble 116
valuation 116
variant 116
10mg 115
1991 115
3.2 115
47@@ 115
Adjustment 115
Ancient 115
CV@@ 115
Confucian 115
EP@@ 115
Eco@@ 115
Gear 115
MIC 115
NO3 115
P2P 115
PL 115
Technological 115
Tong@@ 115
Various 115
beings 115
circul@@ 115
construc@@ 115
constructs 115
cubic 115
epi@@ 115
files 115
gency 115
gli@@ 115
handle 115
household 115
icul@@ 115
ier 115
imported 115
inate 115
incubated 115
injured 115
lat@@ 115
lun@@ 115
mai 115
nam@@ 115
ophil@@ 115
resol@@ 115
resting 115
ride 115
safeguard 115
sandy 115
seasonal 115
senior 115
severity 115
sintered 115
skid 115
soc@@ 115
stack 115
stand@@ 115
strike 115
surplus 115
then@@ 115
theses 115
transmitted 115
transmitting 115
tubular 115
wer 115
ype 115
&apos;an 114
0.75 114
1985 114
1mg 114
Auto@@ 114
Bri@@ 114
CHARACTERISTICS 114
Contact 114
Cycle 114
DF 114
Deng 114
Dy@@ 114
Enh@@ 114
Frac@@ 114
HEAT 114
HF@@ 114
IAA 114
IgM 114
Improved 114
Lu 114
MCU 114
Mes@@ 114
Ms 114
Recovery 114
Shan@@ 114
Tank 114
Transport 114
Xi 114
additives 114
agre@@ 114
aper 114
aris 114
bio 114
cAMP 114
cloud 114
coil 114
comb@@ 114
compressed 114
coordinated 114
coverage 114
dispersed 114
duction 114
ears 114
ferro@@ 114
fixing 114
frag@@ 114
fted 114
gasoline 114
gen 114
ght 114
glo@@ 114
granular 114
lag 114
oses 114
outlet 114
pig@@ 114
poten@@ 114
pressed 114
rupture 114
shorten 114
slowly 114
sp 114
tex@@ 114
thick@@ 114
thre@@ 114
tourist 114
tre 114
tted 114
vig@@ 114
wid@@ 114
82.@@ 113
Banach 113
Circular 113
Cop@@ 113
GDP 113
Geo@@ 113
H2O2 113
HD@@ 113
Hebei 113
Improve 113
Kar@@ 113
LATION 113
Lac@@ 113
OD 113
Sand@@ 113
Sti@@ 113
Thermo@@ 113
Transition 113
Underground 113
ago 113
alin 113
allele 113
arbitrary 113
aspiration 113
bet@@ 113
beyond 113
bo 113
cis@@ 113
commodity 113
communities 113
diode 113
doesn 113
ellular 113
entered 113
fever 113
gang@@ 113
hepatocellular 113
intrusion 113
investors 113
itability 113
locations 113
owner 113
paraffin 113
pation 113
polyester 113
polymers 113
prospecting 113
pursuit 113
reserves 113
reson@@ 113
rich@@ 113
sar@@ 113
similarities 113
sively 113
sted 113
stimul@@ 113
susceptibility 113
tec@@ 113
vap@@ 113
vas@@ 113
vastatin 113
walking 113
zine 113
χ 113
Back 112
COX 112
Component 112
Confucianism 112
DF@@ 112
DO 112
Die 112
District 112
Drilling 112
H.@@ 112
MAT@@ 112
Organization 112
RH 112
Room 112
S.@@ 112
Tor@@ 112
Tumor 112
Xiang@@ 112
alize 112
amping 112
asting 112
bean 112
boiling 112
consolidation 112
dit@@ 112
dized 112
dysfunction 112
equity 112
etary 112
every@@ 112
exactly 112
gri@@ 112
historic 112
inity 112
jected 112
lie 112
membranes 112
objectives 112
occurring 112
ocene 112
olite 112
olysis 112
osa 112
ous@@ 112
papers 112
parametric 112
particip@@ 112
patch 112
perturbation 112
portfolio 112
push 112
reasonably 112
renew@@ 112
responsi@@ 112
rone 112
sequ@@ 112
sheath 112
subsi@@ 112
substituted 112
sus 112
tice 112
ventricle 112
viation 112
zole 112
109 111
39@@ 111
73.@@ 111
Anhui 111
BR 111
Background 111
Contents 111
Criminal 111
GP 111
Recombinant 111
SQL 111
Six@@ 111
TN 111
TRAN@@ 111
across 111
ader 111
adren@@ 111
arin 111
atization 111
bag 111
bias 111
chaotic 111
clin@@ 111
coherent 111
compaction 111
computers 111
consumer 111
contour 111
desert 111
dom 111
dressing 111
eable 111
ener@@ 111
ential 111
entrance 111
eping 111
ex 111
flooding 111
fos@@ 111
linguistic 111
links 111
metho@@ 111
minor 111
mitochondria 111
ogen 111
ogenous 111
onate 111
plans 111
po 111
profiles 111
represen@@ 111
rid 111
salary 111
spectro@@ 111
spectrophotometry 111
suspended 111
tium 111
tracing 111
vent 111
1- 110
2.The 110
31@@ 110
74.@@ 110
Bus 110
CV 110
DETERMINATION 110
Fast 110
Flexible 110
Gansu 110
Hypo@@ 110
M. 110
Myocardial 110
Samples 110
Therapy 110
Though 110
Wal@@ 110
acu@@ 110
aided 110
arized 110
articular 110
biom@@ 110
blending 110
brow@@ 110
cardi@@ 110
cash 110
caus@@ 110
challenges 110
cope 110
cytokines 110
diastolic 110
dissipation 110
endogenous 110
flavor 110
idity 110
inquiry 110
intense 110
intervals 110
itable 110
jud@@ 110
latency 110
obe@@ 110
oscillation 110
ound@@ 110
pillar 110
pouring 110
rowing 110
shopping 110
six@@ 110
strati@@ 110
symmetrical 110
tablets 110
truck 110
welded 110
zes 110
Ⅴ 110
240 109
3- 109
350 109
67@@ 109
800@@ 109
Bal@@ 109
Breeding 109
CN@@ 109
CVD 109
Chin@@ 109
EG@@ 109
Films 109
ICA@@ 109
Influences 109
Levels 109
Microwave 109
Nanjing 109
OB@@ 109
Organ@@ 109
PU 109
Phosphorus 109
Poetry 109
R2 109
Seed 109
September 109
Tolerance 109
Tree 109
Ur@@ 109
Weight 109
Which 109
analog@@ 109
arities 109
biopsy 109
cirrhosis 109
conflicts 109
cooled 109
decide 109
decided 109
encryption 109
erv@@ 109
estimating 109
fibroblast 109
fis@@ 109
frozen 109
fused 109
graded 109
gy@@ 109
harm 109
homogen@@ 109
hope 109
icus 109
kiln 109
mV 109
purchase 109
reasoning 109
reconstructed 109
relate 109
remain 109
reper@@ 109
sector 109
simulator 109
som@@ 109
specialized 109
specially 109
stasis 109
steels 109
stent 109
stration 109
summary 109
tain@@ 109
tants 109
theorems 109
things 109
tment 109
ysis 109
χ2 109
210 108
Ac 108
Administration 108
C1 108
Choice 108
DI 108
Dri@@ 108
Fluorescence 108
Fol@@ 108
HU@@ 108
ICE 108
Lis@@ 108
ND@@ 108
NET 108
NG@@ 108
NI@@ 108
PWM 108
Path@@ 108
Py@@ 108
Qi 108
Sim@@ 108
Xu@@ 108
alignment 108
assembling 108
asymmetric 108
aten@@ 108
attained 108
attributes 108
aut@@ 108
boron 108
collect 108
developments 108
elec@@ 108
electrodes 108
embryonic 108
ensuring 108
exponent 108
extracts 108
fabrication 108
fru@@ 108
heterogeneous 108
hood 108
humanity 108
ish@@ 108
ity@@ 108
law@@ 108
lots 108
mortar 108
neutr@@ 108
parti@@ 108
patent 108
pathogenic 108
plasminogen 108
popularization 108
pper 108
prospects 108
restrain 108
rows 108
shaping 108
shared 108
shed 108
shoe 108
shrin@@ 108
silt 108
simplicity 108
sperm 108
stat@@ 108
terrain 108
textile 108
than@@ 108
thermodynamic 108
transduction 108
turb@@ 108
underwater 108
use@@ 108
yment 108
1987 107
2H 107
Adv@@ 107
Aro@@ 107
Atomic 107
Compounds 107
Coun@@ 107
D1 107
DN@@ 107
Diffusion 107
Earthquake 107
Emp@@ 107
Ethernet 107
FOR@@ 107
Face 107
Flo@@ 107
Games 107
Germany 107
Gran@@ 107
Graph@@ 107
Ig@@ 107
Infrared 107
Mongolia 107
PK@@ 107
Reconstruction 107
Rem@@ 107
Run@@ 107
Supp@@ 107
T4 107
Valve 107
acidity 107
acti@@ 107
actin 107
advoc@@ 107
alogue 107
alpha 107
anemia 107
assess@@ 107
assumed 107
brick 107
citizen 107
ck@@ 107
converted 107
cro@@ 107
diges@@ 107
divide 107
examining 107
impacts 107
impulse 107
injecting 107
interpre@@ 107
liz@@ 107
loose 107
mate 107
mutations 107
neop@@ 107
opposite 107
packaging 107
perfor@@ 107
photosynthesis 107
poisoning 107
pollutants 107
potentials 107
prote@@ 107
ptive 107
recl@@ 107
ressed 107
rib@@ 107
shareholders 107
simulations 107
sors 107
spots 107
stems 107
suggesting 107
symp@@ 107
ted@@ 107
teness 107
tism 107
tons 107
transplant 107
ult 107
vin@@ 107
1,1 106
1986 106
2.8 106
Amp@@ 106
CK@@ 106
CNC 106
Cri@@ 106
Em@@ 106
Heating 106
Heilongjiang 106
Hetero@@ 106
K562 106
L.@@ 106
M2 106
Microcomputer 106
Procedure 106
Programming 106
Radiation 106
SH 106
Services 106
Spirit 106
Transportation 106
achieves 106
any@@ 106
atin@@ 106
bloc@@ 106
budget 106
buds 106
calcul@@ 106
cer 106
coastal 106
constants 106
contribu@@ 106
cutaneous 106
deduc@@ 106
defines 106
descri@@ 106
digested 106
directed 106
dis 106
doing 106
embankment 106
entropy 106
enzymatic 106
ever 106
fix 106
grazing 106
homo@@ 106
hor@@ 106
lab 106
lasts 106
lives 106
manifestation 106
new@@ 106
nic@@ 106
parasi@@ 106
paying 106
peroxide 106
piston 106
ply 106
regulator 106
rim 106
spindle 106
thorough 106
tz 106
verify 106
viruses 106
warning 106
2h 105
96@@ 105
ANT 105
CPU 105
Cir@@ 105
Do@@ 105
Fine 105
IgA 105
Mut@@ 105
OP 105
SOLUTION 105
Sli@@ 105
T2 105
TYPE 105
Tal@@ 105
Volume 105
actor 105
actually 105
add@@ 105
arian 105
averaged 105
azine 105
bic 105
bid 105
border 105
bright 105
cathode 105
chemo@@ 105
concentr@@ 105
conformation 105
craft 105
cutter 105
destruction 105
eV 105
ei@@ 105
elled 105
exit 105
gastro@@ 105
group@@ 105
ich 105
instruc@@ 105
interactions 105
isol@@ 105
ket@@ 105
latent 105
lear@@ 105
masses 105
minority 105
moreover 105
neonatal 105
observing 105
oline 105
organisms 105
rain@@ 105
rectomy 105
scopy 105
shel@@ 105
signed 105
spine 105
substrates 105
tan 105
tuning 105
twin 105
uan 105
yro@@ 105
Δ 105
ASS 104
ATPase 104
Aero@@ 104
BF 104
COR@@ 104
Community 104
Credit 104
DIS@@ 104
Differentiation 104
Estim@@ 104
GH@@ 104
HT@@ 104
Hydrogen 104
IBA 104
Leaf 104
MSCs 104
Ocean 104
Phy@@ 104
Polymer 104
Precision 104
Rho@@ 104
SYNTHESIS 104
Screening 104
Secondary 104
Tian@@ 104
Wei 104
ZrO 104
ables 104
accompanied 104
alist 104
apple 104
atics 104
aug@@ 104
cyan@@ 104
effort 104
escence 104
evol@@ 104
faul@@ 104
fifth 104
fluoride 104
flying 104
gases 104
gged 104
heading 104
hydroxy 104
iller 104
jective 104
linearity 104
locking 104
lowered 104
modal 104
mus 104
num@@ 104
omatic 104
primitive 104
print 104
quantities 104
rati@@ 104
rays 104
relates 104
reputation 104
retaining 104
revised 104
rhetoric 104
rock@@ 104
root@@ 104
routin@@ 104
sICAM 104
scar 104
seawater 104
separ@@ 104
speaking 104
subunit 104
tene 104
timate 104
torsion 104
ues 104
uration 104
urbanization 104
ures 104
Ⅵ 104
2O@@ 103
Bar 103
Chip 103
Chronic 103
Competition 103
DESIGN 103
ENT 103
Gi@@ 103
Global 103
Grid 103
HDL 103
HSV 103
Inhibition 103
Lymph@@ 103
Mean 103
OBJECTIVE 103
Other 103
PAI 103
PCNA 103
Phosph@@ 103
RED 103
Stem 103
Video 103
Wear 103
analyzer 103
arid 103
bFGF 103
baseline 103
calc@@ 103
cav@@ 103
clock 103
consecutive 103
constraints 103
contamination 103
copolymer 103
cour@@ 103
crystal@@ 103
dating 103
decompression 103
degeneration 103
diplo@@ 103
drift 103
finds 103
fluids 103
formul@@ 103
formulae 103
goes 103
governments 103
ising 103
lap 103
lated 103
lifting 103
marginal 103
mercury 103
metabolic 103
meteorological 103
mud@@ 103
nail 103
predictive 103
progen@@ 103
prominent 103
reforms 103
relativity 103
runner 103
silicate 103
stron@@ 103
superoxide 103
sustained 103
tab@@ 103
tification 103
tra 103
traumatic 103
unknown 103
venture 103
wit@@ 103
xin 103
ze@@ 103
μl 103
3G 102
55.@@ 102
ABA 102
Ad 102
Areas 102
AutoCAD 102
BE 102
CPC 102
Ele@@ 102
Electrical 102
FR 102
GEO@@ 102
Hole 102
Hong@@ 102
Hu 102
ICAL 102
Induction 102
Length 102
Literary 102
Pos@@ 102
Release 102
Rot@@ 102
Shaanxi 102
Tourism 102
Treated 102
VP@@ 102
absorb@@ 102
acrylate 102
acrylic 102
act@@ 102
agging 102
ambient 102
amed 102
azole 102
cardiovascular 102
compres@@ 102
constitute 102
contracts 102
cru@@ 102
cus@@ 102
cylindrical 102
deck 102
discrimin@@ 102
extending 102
fibroblasts 102
geochemical 102
hepat@@ 102
hus@@ 102
hybri@@ 102
hydrochloride 102
ignition 102
infer@@ 102
inger 102
managers 102
mononuclear 102
ovirus 102
pB@@ 102
poetic 102
polyp@@ 102
potenti@@ 102
protec@@ 102
reservation 102
results@@ 102
rit@@ 102
shoul@@ 102
stud@@ 102
subsets 102
subsidence 102
susceptible 102
sweet 102
trans 102
tren@@ 102
unsaturated 102
weights 102
,000 101
0.03 101
ANG 101
Accounting 101
Accumulation 101
Ann@@ 101
CFU 101
Catalytic 101
Causes 101
Distance 101
Example 101
GRA@@ 101
Hal@@ 101
Integr@@ 101
LL 101
Mas@@ 101
OA 101
On@@ 101
Pop@@ 101
Rare 101
Roof 101
Round 101
Sem@@ 101
Simulated 101
Super 101
Theorem 101
Treating 101
VS 101
War@@ 101
accord 101
accordingly 101
activating 101
arouse 101
balancing 101
beta 101
bidding 101
bus@@ 101
cess@@ 101
conclude 101
demonstration 101
disappeared 101
distinguish 101
dos@@ 101
eal 101
eukaryotic 101
farmland 101
foli@@ 101
goat 101
gradual 101
hazard 101
hen 101
hil@@ 101
hull 101
inear 101
insul@@ 101
iton 101
kel@@ 101
keys 101
litter 101
lumin@@ 101
occupied 101
origin@@ 101
oxidi@@ 101
path@@ 101
phthal@@ 101
plasmids 101
propofol 101
radiotherapy 101
remission 101
reve@@ 101
scat@@ 101
shareholder 101
sided 101
slices 101
squamous 101
string 101
sures 101
systolic 101
topological 101
tou@@ 101
union 101
virtue 101
waveguide 101
xyl@@ 101
δ@@ 101
Arc 100
Aspergillus 100
Average 100
BASED 100
Constant 100
Correction 100
Cotton 100
DH 100
Equ@@ 100
Ham@@ 100
Ju@@ 100
Laboratory 100
Setting 100
Tianjin 100
UL@@ 100
Velocity 100
accelerating 100
actuality 100
adapted 100
agency 100
alarm 100
ards 100
centered 100
cephal@@ 100
checked 100
ci 100
cir@@ 100
cran@@ 100
dilution 100
dle 100
echo 100
estion 100
exhaust 100
fractions 100
gal 100
gauge 100
graphs 100
guinea 100
immunosorbent 100
incomplete 100
infectious 100
interferon 100
ious 100
kets 100
locate 100
lose 100
mA 100
microprocessor 100
mitted 100
mode@@ 100
orating 100
ounding 100
pass@@ 100
plication 100
responding 100
ressive 100
rested 100
rite 100
rus 100
selenium 100
semiconductor 100
she 100
supplement 100
surveillance 100
tionary 100
tomato 100
trunk 100
ury 100
venti@@ 100
want 100
waters 100
write 100
η 100
0.04 99
CC@@ 99
Ci 99
Cooling 99
Delta 99
Dig@@ 99
Displacement 99
Gaussian 99
Han@@ 99
Interference 99
Jiang 99
Jilin 99
LAR 99
MM@@ 99
Plain 99
Plane 99
Ple@@ 99
Regression 99
Russia 99
SBS 99
Sac@@ 99
Sensing 99
T3 99
Yang 99
absence 99
aps 99
autom@@ 99
berg 99
bular 99
competitiveness 99
consum@@ 99
desi@@ 99
dynasty 99
elaborates 99
elemental 99
flex@@ 99
from@@ 99
grew 99
helps 99
inclination 99
kHz 99
landslide 99
lement 99
liner 99
mang@@ 99
mediate 99
metastatic 99
mit 99
mped 99
nu@@ 99
odes 99
perception 99
perfecting 99
periodic@@ 99
posed 99
proce@@ 99
pseud@@ 99
rear 99
requests 99
samp@@ 99
shapes 99
sixty 99
there@@ 99
tified 99
transparent 99
tropical 99
ually 99
wax 99
went 99
ycin 99
∑ 99
-ATPase 98
4.6 98
ACTION 98
Algorithms 98
CG 98
CHINA 98
CMV 98
Construc@@ 98
DISTRIBUTION 98
Develop@@ 98
Eastern 98
Head 98
Imaging 98
Insurance 98
LH 98
LR 98
Loading 98
Mis@@ 98
Nano 98
PVA 98
Purpose 98
Reduction 98
Ric@@ 98
SCM 98
SPECT@@ 98
Spectrometry 98
Stabil@@ 98
Supported 98
VP 98
Vir@@ 98
Winter 98
ace@@ 98
agement 98
aine 98
bars 98
capture 98
chlorine 98
commun@@ 98
constantly 98
coordinates 98
detec@@ 98
diag@@ 98
distribute 98
empty 98
endo@@ 98
eptide 98
flexural 98
glycol 98
governing 98
hill 98
insi@@ 98
manifestations 98
mis 98
mitochondrial 98
nor 98
northeast 98
nose 98
ols 98
osphere 98
pg 98
premise 98
prices 98
refin@@ 98
respiration 98
resu@@ 98
retar@@ 98
salic@@ 98
seconds 98
shortened 98
solves 98
soon 98
standardization 98
subgrade 98
summarize 98
tiveness 98
tories 98
trained 98
uling 98
uniformity 98
vinyl 98
ycl@@ 98
σ@@ 98
$ 97
4.2 97
C2@@ 97
Catalyst 97
Department 97
Determining 97
Extrac@@ 97
GF 97
Geological 97
Hb 97
Jing@@ 97
LCD 97
Mixing 97
OP@@ 97
PAC 97
Profile 97
Reflection 97
Rhe@@ 97
SSR 97
Ultra@@ 97
Wu 97
Wushu 97
abstract 97
aesthe@@ 97
alb@@ 97
apparently 97
barley 97
birds 97
cell@@ 97
chron@@ 97
conformity 97
contribute 97
correlations 97
cot@@ 97
dex@@ 97
diets 97
discrimination 97
disper@@ 97
draws 97
exhibits 97
ference 97
fiction 97
frontal 97
hibi@@ 97
hyperplasia 97
influential 97
intra 97
ionization 97
kD 97
lean 97
lion 97
lithium 97
mankind 97
mobility 97
norm@@ 97
opinions 97
outlook 97
passed 97
pati@@ 97
peasants 97
players 97
poin@@ 97
process@@ 97
ree 97
register 97
ressing 97
sampled 97
savings 97
ses@@ 97
some@@ 97
sowing 97
splitting 97
superficial 97
supplied 97
toluene 97
yan 97
Φ@@ 97
1980s 96
97@@ 96
BD 96
Ben@@ 96
CMOS 96
Cle@@ 96
Communist 96
Contract 96
Degree 96
ESR 96
Electrode 96
End 96
Establishing 96
FLOW 96
Gin@@ 96
Gorges 96
IV@@ 96
Kong 96
Location 96
Por@@ 96
Prestressed 96
RD 96
Refl@@ 96
STR@@ 96
Salmonella 96
Solving 96
Supervision 96
Synthetic 96
Take 96
Wuhan 96
aning 96
assembled 96
atives 96
basing 96
behavioral 96
bilities 96
cher 96
clonal 96
clos@@ 96
colo@@ 96
constituents 96
consumers 96
counting 96
dat@@ 96
discover 96
ectivity 96
entity 96
evidently 96
exer@@ 96
fiers 96
filters 96
gia 96
harmful 96
incorporation 96
insect 96
ised 96
leadership 96
liter@@ 96
mW 96
metamorphic 96
neutron 96
pathology 96
pneumatic 96
polynomial 96
polyurethane 96
predominant 96
preventive 96
prime 96
proximal 96
raises 96
really 96
reflecting 96
respecti@@ 96
resul@@ 96
slit 96
stands 96
stra@@ 96
una 96
uniformly 96
win 96
ye 96
1,2,@@ 95
1,3 95
3.4 95
55@@ 95
Consi@@ 95
DATA 95
DSS 95
FA@@ 95
Grey 95
Inf@@ 95
Jiang@@ 95
Lab@@ 95
MM 95
Mao 95
Modification 95
Path 95
Physi@@ 95
Physiological 95
Predic@@ 95
Resistant 95
Rigid 95
Ris@@ 95
Seg@@ 95
Slo@@ 95
acceler@@ 95
adhe@@ 95
aeration 95
alt 95
amino@@ 95
assurance 95
centers 95
charges 95
chickens 95
clean@@ 95
conductive 95
contrary 95
culating 95
cyclohex@@ 95
dia 95
domains 95
duck 95
dyn@@ 95
encephal@@ 95
enjo@@ 95
executive 95
filler 95
fishing 95
gar 95
geography 95
inge 95
integer 95
investigations 95
isolate 95
learners 95
limbs 95
ok@@ 95
ologies 95
oms 95
organism 95
phil@@ 95
philosophical 95
poli@@ 95
ports 95
possessed 95
pressures 95
provinces 95
proxy 95
reproduc@@ 95
ress 95
retin@@ 95
rev@@ 95
roads 95
rosis 95
sh 95
sla@@ 95
sof 95
specifically 95
specifications 95
stru@@ 95
tai 95
taste 95
ternary 95
tight 95
vacc@@ 95
wel@@ 95
windows 95
woman 95
yers 95
&apos;S 94
128 94
3.3 94
49@@ 94
Array 94
Cluster 94
Diameter 94
EAR@@ 94
EE@@ 94
Electron 94
Explo@@ 94
FL@@ 94
Fil@@ 94
GF@@ 94
Hubei 94
Interpretation 94
Ls 94
Nb@@ 94
Nowadays 94
REM 94
Renal 94
Rose 94
Schwann 94
WE@@ 94
WS 94
Yu 94
agar 94
airway 94
amycin 94
auc@@ 94
bear 94
bred 94
caspase 94
classic 94
compute 94
contin@@ 94
datum 94
dele@@ 94
departments 94
domin@@ 94
earing 94
edges 94
ek 94
encour@@ 94
fem@@ 94
fluidized 94
greatest 94
histological 94
holders 94
houses 94
illustrate 94
inite 94
intersection 94
lity 94
mixtures 94
orted 94
otype 94
reversal 94
revolutionary 94
sate 94
satur@@ 94
statin 94
transmit 94
varies 94
vering 94
0.35 93
112 93
131 93
2a 93
ASA 93
Activities 93
Antibody 93
Axial 93
BP@@ 93
Basis 93
Belt 93
British 93
COMPOSI@@ 93
COPD 93
Contemporary 93
DL 93
Fertilizer 93
Hand@@ 93
INS 93
Insulin 93
J2EE 93
Jet 93
Korean 93
Lim@@ 93
McAb 93
Mel@@ 93
Mesozoic 93
Reactor 93
Rom@@ 93
SV 93
TED 93
Tai@@ 93
Tang@@ 93
Ze@@ 93
acqu@@ 93
advantageous 93
agit@@ 93
anion 93
anning 93
appreciation 93
asymptotic 93
avoiding 93
azol@@ 93
bot@@ 93
breakdown 93
bromide 93
cadherin 93
conjugate 93
coupl@@ 93
depend 93
ette 93
facility 93
gas@@ 93
gem@@ 93
gotten 93
hero@@ 93
hydrate 93
illumin@@ 93
implant 93
inary 93
infant 93
joining 93
lav@@ 93
libraries 93
ligation 93
linking 93
metabol@@ 93
monitored 93
nurses 93
olin 93
pesticide 93
portion 93
rated 93
research@@ 93
reser@@ 93
sanitary 93
sha@@ 93
sick 93
skull 93
stant 93
stimulate 93
stor@@ 93
systemati@@ 93
tex 93
thers 93
tible 93
tiny 93
titude 93
tro 93
uterine 93
vac@@ 93
vary 93
3.8 92
C3 92
Coll@@ 92
Components 92
EDTA 92
Existence 92
FU@@ 92
Forty 92
Glu@@ 92
Good 92
H1 92
Maize 92
NCE 92
Perio@@ 92
Psychological 92
Purification 92
SCC 92
Shaft 92
TEMPERATURE 92
TIMP 92
Tax 92
Tests 92
amp 92
anode 92
anomalies 92
antagon@@ 92
antisense 92
ascending 92
axle 92
basins 92
boring 92
carriers 92
coat 92
completion 92
congestion 92
counts 92
deletion 92
devi@@ 92
dominance 92
esthe@@ 92
ethical 92
ethnic 92
ew 92
exhibit 92
fro@@ 92
geometrical 92
graduates 92
hardening 92
ical@@ 92
identi@@ 92
ime 92
indic@@ 92
instar 92
junior 92
lays 92
len@@ 92
lifetime 92
limiting 92
monopoly 92
muscular 92
mutants 92
newborn 92
obstruction 92
obstructive 92
ode 92
orange 92
orous 92
otide 92
otypes 92
page 92
partition 92
pel@@ 92
pipes 92
plug 92
pop@@ 92
programme 92
programmed 92
psych@@ 92
pyro@@ 92
ration@@ 92
revis@@ 92
rons 92
rum@@ 92
sap@@ 92
sen 92
sharp 92
sleeping 92
smo@@ 92
spir@@ 92
subgroup 92
texts 92
tious 92
tis@@ 92
transplanted 92
uous 92
veins 92
ves@@ 92
vir@@ 92
volatile 92
170 91
1988 91
2000@@ 91
68@@ 91
AG 91
ARY 91
Acquisition 91
Adsorption 91
Aut@@ 91
Back@@ 91
CW 91
Calcul@@ 91
Collection 91
DY@@ 91
FLU@@ 91
GR@@ 91
Gel 91
Glass 91
Initial 91
Memory 91
Mil@@ 91
Mod@@ 91
P2 91
Parallel 91
Points 91
Post@@ 91
Pr 91
Quantity 91
RFLP 91
Rod 91
SL 91
Saving 91
Strip 91
abl@@ 91
accomplished 91
adequate 91
ades 91
angiography 91
answer 91
blocked 91
bounded 91
calculates 91
cartilage 91
ck 91
cloning 91
deepening 91
electrostatic 91
experts 91
forestry 91
gn@@ 91
guar@@ 91
gy 91
harmon@@ 91
identifying 91
iv 91
kW 91
kt 91
lers 91
mesenchymal 91
monomer 91
nod@@ 91
oplasty 91
orph@@ 91
ounded 91
oxidized 91
plex@@ 91
practic@@ 91
pred@@ 91
profession 91
psycho@@ 91
recover 91
recur@@ 91
regurg@@ 91
relation@@ 91
round@@ 91
satisfying 91
stry 91
tained 91
telephone 91
tend 91
tom 91
tric 91
weakness 91
1.3@@ 90
12.5 90
121 90
1990s 90
3.6 90
42@@ 90
ANTI@@ 90
ARQ 90
ATED 90
Aden@@ 90
DTA 90
Dalian 90
Er 90
Eu@@ 90
FD 90
Formula 90
Gal@@ 90
Glo@@ 90
Hum@@ 90
Immune 90
Inhibit@@ 90
Kind 90
LN 90
LOGICAL 90
Log@@ 90
NAL 90
Ne 90
Neu@@ 90
OV@@ 90
POLY@@ 90
Reading 90
SU 90
Tox@@ 90
Up 90
abol@@ 90
absorb 90
abstr@@ 90
abundance 90
acceptance 90
activ@@ 90
alternative 90
alumin@@ 90
assays 90
ated@@ 90
blotting 90
carefully 90
claim 90
cles 90
compu@@ 90
conceptual 90
contaminated 90
cores 90
corner 90
cros@@ 90
custom 90
dipine 90
disco@@ 90
elded 90
elite 90
energies 90
enz@@ 90
evident 90
examinations 90
exponential 90
fungus 90
goals 90
grasp 90
hun@@ 90
hydro 90
indicators 90
killed 90
lasted 90
litigation 90
looking 90
manipulation 90
method@@ 90
nic 90
normally 90
obtains 90
ox 90
pathologic 90
peanut 90
quo 90
ram 90
ril 90
rivers 90
sclerosis 90
signaling 90
simp@@ 90
sm 90
successive 90
synthase 90
theastern 90
title 90
transferase 90
umatic 90
well@@ 90
workflow 90
107 89
1mm 89
2m 89
3O 89
750 89
Adap@@ 89
Arch 89
BMI 89
Book 89
Bor@@ 89
Coupled 89
Detec@@ 89
Dust 89
GD 89
GL@@ 89
German 89
Gol@@ 89
Grinding 89
Hepatitis 89
Ku@@ 89
MAN@@ 89
Morph@@ 89
OT 89
Ox@@ 89
Rol@@ 89
SY@@ 89
Shift 89
Statistical 89
Stri@@ 89
Stu@@ 89
TR 89
Th2 89
UK 89
Xiaoping 89
Zhu@@ 89
ailing 89
antibiotic 89
architec@@ 89
atures 89
band@@ 89
bene@@ 89
berry 89
caving 89
cd 89
chel@@ 89
complement 89
continued 89
corporations 89
cry@@ 89
decoction 89
disorders 89
draw@@ 89
drum 89
elaborated 89
eliminated 89
ete 89
exert 89
expres@@ 89
extensively 89
figures 89
furthermore 89
geographical 89
glycoprotein 89
ilers 89
lip 89
listening 89
mechan@@ 89
mobil@@ 89
momentum 89
nitri@@ 89
numerically 89
oles@@ 89
omer 89
orbital 89
orial 89
passi@@ 89
peasant 89
pedicle 89
percentages 89
peritoneal 89
pier 89
preference 89
prescription 89
qualification 89
refined 89
refractive 89
regi@@ 89
resonator 89
retain 89
salts 89
smelting 89
stac@@ 89
stors 89
substitu@@ 89
suction 89
taining 89
technics 89
tru@@ 89
umbilical 89
vocal 89
worse 89
1.The 88
Acoustic 88
Bacteri@@ 88
CONTROL 88
Chi@@ 88
Chris@@ 88
Cros@@ 88
DD 88
Delay 88
Dry 88
EXPERIMENTAL 88
Excavation 88
Groups 88
ITE 88
Im@@ 88
Korea 88
Mic@@ 88
MnO 88
Nickel 88
O4 88
PG 88
Piles 88
RAN@@ 88
Ray 88
Silk 88
Standards 88
TB 88
Tarim 88
Tun@@ 88
Web@@ 88
Wheel 88
Xia@@ 88
accumul@@ 88
acity 88
amen@@ 88
anic 88
asted 88
asynchronous 88
basi@@ 88
belief 88
break@@ 88
capacitance 88
chromat@@ 88
circumference 88
cla@@ 88
cycl@@ 88
decay 88
determines 88
fing 88
garden 88
gla@@ 88
granule 88
hr 88
humanism 88
inc@@ 88
ind 88
jia 88
lactic 88
linear@@ 88
lon@@ 88
massive 88
penetrating 88
pep@@ 88
pod 88
polymorphic 88
powers 88
presenting 88
pull 88
recep@@ 88
remin@@ 88
reporting 88
reuse 88
robustness 88
roll@@ 88
rooms 88
rop@@ 88
routes 88
rub@@ 88
sauce 88
set@@ 88
steri@@ 88
sulph@@ 88
suspen@@ 88
swing 88
tate 88
temporary 88
tester 88
therm@@ 88
throughout 88
typ@@ 88
udes 88
uplift 88
veri@@ 88
vibrating 88
wa 88
wr@@ 88
-- 87
135 87
3N 87
550 87
7.2 87
88@@ 87
Adopting 87
CAI 87
Chen 87
Chlor@@ 87
Comple@@ 87
Consumption 87
DM@@ 87
Det@@ 87
Discharge 87
Domestic 87
House 87
Jiangxi 87
Jurassic 87
KD 87
Methods@@ 87
Mixture 87
Mot@@ 87
NH@@ 87
Oriented 87
Output 87
Oxidation 87
PER 87
Photo@@ 87
RIA 87
Range 87
Schools 87
Selective 87
Skill 87
TICAL 87
Tower 87
Ven@@ 87
Volleyball 87
abortion 87
argu@@ 87
arrival 87
cheng 87
clari@@ 87
combin@@ 87
compar@@ 87
convenience 87
cushion 87
desulfurization 87
differen@@ 87
drag 87
ductile 87
elast@@ 87
emul@@ 87
enforcement 87
epidural 87
equi@@ 87
exon 87
falls 87
fle@@ 87
flocculation 87
fluor@@ 87
func@@ 87
grou@@ 87
hippocampal 87
hot@@ 87
icial 87
icin 87
illary 87
interfero@@ 87
isothermal 87
mating 87
metic 87
missions 87
narration 87
nmol 87
official 87
olytic 87
omorph@@ 87
oting 87
oxidative 87
polyacrylamide 87
popul@@ 87
programmable 87
recombination 87
registration 87
renewable 87
representing 87
resili@@ 87
sal 87
scenario 87
segregation 87
shou@@ 87
shut 87
sit 87
soaking 87
spin@@ 87
squ@@ 87
sulfide 87
supervis@@ 87
tech@@ 87
throughput 87
tite 87
traveling 87
uted 87
wri@@ 87
4.8 86
Accuracy 86
Aci@@ 86
Ampli@@ 86
Arrangement 86
Assem@@ 86
Bacillus 86
Cam@@ 86
Cha@@ 86
Chang 86
Computation 86
Cretaceous 86
Daqing 86
GR 86
Horizontal 86
INFLUENCE 86
Integral 86
KT 86
Lines 86
MAPK 86
MeV 86
Mouse 86
OC 86
Producing 86
Prospect 86
Repair 86
Representation 86
Republic 86
Route 86
SIT 86
SK@@ 86
STI@@ 86
Shi 86
Swe@@ 86
TD 86
TY 86
Xing@@ 86
Years 86
ablation 86
abnormality 86
abrasion 86
algae 86
assure 86
cattle 86
chaos 86
ctomy 86
deli@@ 86
diagnosing 86
dial 86
dividing 86
ented 86
expenditure 86
faith 86
fate 86
gamma 86
glutathione 86
graphics 86
humanistic 86
idate 86
ification 86
illumination 86
imag@@ 86
ison 86
killing 86
lasting 86
len 86
lysis 86
matters 86
metaph@@ 86
mmHg 86
neg@@ 86
neu@@ 86
o- 86
osting 86
parame@@ 86
pas@@ 86
rectal 86
regards 86
rescu@@ 86
resolving 86
restrained 86
sensory 86
shuttle 86
speciality 86
specified 86
stuff 86
supplier 86
tele@@ 86
testi@@ 86
ug 86
vement 86
0.08 85
12h 85
3mm 85
8.5 85
9,@@ 85
AO 85
Act 85
Analytical 85
Basing 85
Bt 85
COMPO@@ 85
Constructing 85
Conver@@ 85
Dynasties 85
EB@@ 85
EO@@ 85
Expert 85
Far@@ 85
Hangzhou 85
KE 85
MICRO@@ 85
Media 85
Negative 85
Out 85
RM 85
RSV 85
Radi@@ 85
Reasons 85
Repe@@ 85
Researches 85
Robot 85
Run 85
Russian 85
SPEC@@ 85
SSCP 85
Simil@@ 85
Square 85
Tao@@ 85
VER 85
Within 85
Work@@ 85
Zhou 85
adenocarcinoma 85
adenovirus 85
affir@@ 85
aqu@@ 85
arrhythmia 85
assessing 85
audi@@ 85
bei 85
blades 85
cadmium 85
calibr@@ 85
capable 85
ces@@ 85
chi 85
chief 85
comprehension 85
conservative 85
constituent 85
constitutional 85
covers 85
differ 85
din@@ 85
encies 85
enh@@ 85
explicit 85
factor@@ 85
fibro@@ 85
fits 85
friendly 85
grounds 85
hybrids 85
immobilized 85
implication 85
ingly 85
innov@@ 85
inqu@@ 85
institute 85
intercellular 85
issued 85
judging 85
keeps 85
launch 85
logistic 85
losing 85
lowering 85
microbial 85
modify 85
multicast 85
nanoparticles 85
need@@ 85
never 85
open@@ 85
opic 85
opping 85
osteob@@ 85
oxin 85
presentation 85
promotes 85
pulses 85
pus 85
reci@@ 85
responsibilities 85
rheological 85
rob@@ 85
rotational 85
sacchar@@ 85
scre@@ 85
secret 85
sification 85
sim@@ 85
ski 85
slopes 85
sorts 85
steering 85
stick 85
sums 85
tent 85
till 85
trache@@ 85
trading 85
trains 85
transducer 85
transfer@@ 85
ung 85
visit 85
weapon 85
1978 84
ABS 84
Another 84
Ash 84
Assay 84
BB 84
BIO@@ 84
BMP 84
BN 84
CARBON 84
CTION 84
Cable 84
Cas@@ 84
Ceramic 84
Cl2 84
Clo@@ 84
DER 84
DYNAMIC 84
E1 84
EGF 84
External 84
French 84
Having 84
IAL 84
Kunming 84
LOW 84
Loop 84
NH3 84
Nursing 84
Plants 84
Propagation 84
RO 84
Rough 84
Roux 84
SHO@@ 84
SN 84
Shap@@ 84
Shot 84
Theories 84
Titanium 84
Yb 84
Yi 84
Yi@@ 84
acetone 84
ada 84
admin@@ 84
autumn 84
bage 84
believed 84
breathing 84
catheter 84
centralized 84
chinese 84
circles 84
citric 84
clusion 84
conduc@@ 84
convection 84
converting 84
correspon@@ 84
crow@@ 84
cyst 84
cystic 84
deb@@ 84
densities 84
dish 84
disposition 84
doc@@ 84
dot 84
ef 84
emphasize 84
excited 84
feng 84
formulated 84
fragmentation 84
generalization 84
hearing 84
him 84
hur@@ 84
icular 84
implements 84
inclusions 84
lengths 84
ligand 84
lite 84
mainstream 84
mann 84
melon 84
microstructures 84
modem 84
nervous 84
nodules 84
osynthesis 84
outline 84
performing 84
pointing 84
polarity 84
polyethylene 84
prece@@ 84
prolong 84
rag@@ 84
reader 84
referred 84
reta@@ 84
roadway 84
scanner 84
sem@@ 84
stly 84
subcutaneous 84
switched 84
tage 84
thin@@ 84
tomography 84
tryp@@ 84
validation 84
wake 84
weakly 84
worker 84
yard 84
zh@@ 84
1h 83
2.9 83
3.5@@ 83
3.The 83
30min 83
5.3 83
98@@ 83
ACS 83
Arthro@@ 83
CAP 83
Ci@@ 83
Concerning 83
Embry@@ 83
Expressway 83
Friction 83
IUM 83
Investig@@ 83
Kinds 83
Logistic 83
MAS 83
Mathematics 83
Moral 83
NH4 83
Ore 83
PBMC 83
Partial 83
Quantum 83
RATION 83
Resear@@ 83
SES 83
Semi 83
Sheng@@ 83
Sliding 83
Strategic 83
Sun 83
Transient 83
Wo@@ 83
Zr@@ 83
aker 83
anes 83
ape 83
arrive 83
attachment 83
bec@@ 83
bel 83
bend 83
calori@@ 83
charac@@ 83
clus@@ 83
cobalt 83
cytoplasm 83
disse@@ 83
drill@@ 83
eliminating 83
enable 83
evalu@@ 83
farming 83
fra@@ 83
frames 83
gastrointestinal 83
geographic 83
grad@@ 83
grape 83
guide@@ 83
hypertrophy 83
infiltr@@ 83
inven@@ 83
isms 83
itude 83
japonica 83
jing 83
lessons 83
lings 83
macroscopic 83
mix@@ 83
morphine 83
mountainous 83
nets 83
obesity 83
occupational 83
opportunities 83
ousness 83
p16 83
paint 83
piezoelectric 83
pixel 83
plant@@ 83
quadratic 83
remedy 83
rese@@ 83
respec@@ 83
ritis 83
senile 83
shut@@ 83
siz@@ 83
sizing 83
survi@@ 83
tensive 83
ticity 83
transf@@ 83
turns 83
1.2@@ 82
41.@@ 82
AZ@@ 82
Afric@@ 82
Approxim@@ 82
Bel@@ 82
Board 82
Composites 82
Cro@@ 82
EL 82
EMS 82
FR@@ 82
Fun@@ 82
Gastric 82
Generalized 82
Hydropower 82
IDS 82
Jun@@ 82
LF@@ 82
Nd@@ 82
Operating 82
RESISTANCE 82
Regulations 82
Residual 82
SCL 82
SK 82
Silic@@ 82
Slab 82
Stre@@ 82
Table 82
Th1 82
Those 82
TiC 82
Types 82
accep@@ 82
aggra@@ 82
alleles 82
alveolar 82
anastomosis 82
arms 82
aroma 82
arrange 82
asthmatic 82
bis 82
bubble 82
butyl 82
candidate 82
capit@@ 82
constructive 82
dangerous 82
decoding 82
dging 82
dismutase 82
eli@@ 82
ellar 82
emic 82
enced 82
epidemic 82
equipped 82
estim@@ 82
failed 82
fermented 82
folds 82
forging 82
gains 82
gene@@ 82
generative 82
greenhouse 82
hydration 82
ig 82
inine 82
intestine 82
ishment 82
judgement 82
kil@@ 82
literatures 82
monthly 82
mps 82
myc 82
nership 82
nom@@ 82
ocarcinoma 82
opened 82
oping 82
organizing 82
pad 82
pow@@ 82
preoperative 82
proton 82
purchasing 82
rang@@ 82
regn@@ 82
relatives 82
resses 82
restored 82
rum 82
sam@@ 82
sat@@ 82
setup 82
shor@@ 82
splen@@ 82
stirring 82
supplying 82
tour@@ 82
transform@@ 82
transpiration 82
triangle 82
ua 82
uncertain 82
unloading 82
yielding 82
1.8@@ 81
Agriculture 81
Balance 81
Complexes 81
Converter 81
Deposit 81
Ds 81
EF@@ 81
Embedded 81
FIL@@ 81
Feed 81
Framework 81
Fres@@ 81
Kalman 81
Liaoning 81
Men 81
Microsoft 81
Mineral 81
Nec@@ 81
OFDM 81
R1 81
Restric@@ 81
SHR 81
SINGLE 81
SPECT 81
SURFACE 81
Spac@@ 81
TF@@ 81
Theore@@ 81
USING 81
VPN 81
ZATION 81
ab 81
alysis 81
ameli@@ 81
amylase 81
assemblage 81
asts 81
aths 81
aton 81
bank@@ 81
bate 81
blan@@ 81
chromati@@ 81
circum@@ 81
confined 81
constitu@@ 81
conve@@ 81
correcting 81
cucumber 81
cyte 81
depic@@ 81
depositional 81
dispute 81
distinguishing 81
draft 81
dropped 81
effic@@ 81
electrolysis 81
emo@@ 81
enlarged 81
erythro@@ 81
essor 81
eved 81
expenses 81
filament 81
fix@@ 81
function@@ 81
gaining 81
granules 81
gravel 81
groove 81
gross 81
ham@@ 81
induces 81
installed 81
intact 81
izations 81
largely 81
leptin 81
mini@@ 81
mucosal 81
ney 81
nowadays 81
occup@@ 81
oscill@@ 81
oside 81
ove 81
perfection 81
perspectives 81
polymorphisms 81
possibly 81
quick@@ 81
recoveries 81
rig 81
roph@@ 81
saw@@ 81
scoring 81
sinking 81
slaugh@@ 81
stein 81
storing 81
suffering 81
sulphur 81
sun 81
television 81
terized 81
trajectory 81
uding 81
valence 81
vements 81
viscous 81
ween 81
wet@@ 81
】 81
0.005 80
100mg 80
Aimed 80
All@@ 80
Animal 80
Auth@@ 80
BSA 80
CALCULATION 80
Dem@@ 80
Detecting 80
Display 80
Huang 80
Inverse 80
MN 80
Main@@ 80
Markov 80
Metabolism 80
PAR@@ 80
PIC@@ 80
Produc@@ 80
SOME 80
STA@@ 80
Stro@@ 80
UP 80
ager 80
aissance 80
anatomy 80
assayed 80
assistance 80
aters 80
builds 80
cake 80
chains 80
cm3 80
confir@@ 80
danger 80
diffuse 80
distinctive 80
downstream 80
eigen@@ 80
ervation 80
esting 80
expound 80
fasting 80
fibrin@@ 80
fici@@ 80
filtr@@ 80
generations 80
girls 80
hemorrhagic 80
hui 80
hydropower 80
implicit 80
information@@ 80
interfaces 80
interfacial 80
intubation 80
inverter 80
ja@@ 80
lipoprotein 80
manure 80
mg@@ 80
mista@@ 80
mp 80
nerves 80
numerous 80
oblig@@ 80
offic@@ 80
oscillator 80
pension 80
placement 80
profits 80
progression 80
regenerated 80
relax@@ 80
repaired 80
rests 80
retained 80
road@@ 80
ronic 80
roti@@ 80
s. 80
sab@@ 80
shrink 80
slime 80
song 80
spacing 80
spectrophot@@ 80
spun 80
substation 80
surveying 80
tioned 80
translated 80
trip 80
turbidity 80
uded 80
ul 80
usal 80
velling 80
yst@@ 80
【 80
! 79
3d 79
43@@ 79
6h 79
ANG@@ 79
Basketball 79
Bet@@ 79
Conduc@@ 79
DEPO@@ 79
Diab@@ 79
FIELD 79
Fields 79
Gly@@ 79
IgE 79
Increasing 79
Indic@@ 79
Logic 79
MPEG 79
Maximum 79
Mit@@ 79
Mode@@ 79
Mountains 79
Moving 79
Ning@@ 79
Oral 79
Parts 79
Relationships 79
Song@@ 79
Supporting 79
Symp@@ 79
Union 79
WDM 79
Zhang@@ 79
accomplish 79
acetyl@@ 79
ante@@ 79
antibacterial 79
arrhyth@@ 79
asphal@@ 79
atch 79
au 79
cage 79
comprehen@@ 79
confron@@ 79
cumulative 79
dehydrogenase 79
digestive 79
durability 79
elliptic 79
ene@@ 79
enlarge 79
equality 79
erec@@ 79
fired 79
found@@ 79
fre@@ 79
frost 79
giant 79
grouped 79
hao 79
hear@@ 79
home@@ 79
huang 79
icillin 79
ided 79
imit@@ 79
iner@@ 79
inher@@ 79
kit 79
limitations 79
mass@@ 79
mess@@ 79
milli@@ 79
mous 79
ordering 79
ordinate 79
organized 79
orting 79
osine 79
overlap 79
pick@@ 79
planned 79
poverty 79
preserved 79
proline 79
promp@@ 79
proofing 79
radio@@ 79
repetition 79
replen@@ 79
retino@@ 79
rhyth@@ 79
rul@@ 79
rupt 79
sag 79
scin@@ 79
seems 79
sending 79
sequenced 79
skew 79
solute 79
starts 79
stretching 79
synthesize 79
tandem 79
wee@@ 79
yal 79
1.6@@ 78
20mg 78
3C 78
48h 78
7.4 78
AK 78
Article 78
Blast 78
Cardiac 78
Comment 78
Eight 78
Fig@@ 78
Flood 78
H. 78
HSP70 78
Here 78
ICA 78
Idea 78
Interest 78
MECHANISM 78
Manufacture 78
Music 78
NTIAL 78
Neuro@@ 78
Oxide 78
PLA 78
Petroleum 78
Professional 78
Pseud@@ 78
Pun@@ 78
Put 78
Ru 78
STR 78
Same 78
Seedling 78
Strong 78
TN@@ 78
Tab@@ 78
Thickness 78
Young 78
achieving 78
administr@@ 78
adoption 78
affection 78
ange 78
arte@@ 78
beautiful 78
benzo@@ 78
bleaching 78
bronchial 78
calci@@ 78
capsules 78
cascade 78
chang 78
climatic 78
concre@@ 78
congenital 78
cortico@@ 78
decol@@ 78
detachment 78
dian 78
doctrine 78
ducing 78
epithelium 78
ergic 78
erythrocyte 78
eving 78
fairly 78
flaps 78
flour 78
futures 78
hap@@ 78
homology 78
hydrodynamic 78
influent 78
inning 78
involvement 78
iteration 78
lastic 78
leather 78
mini 78
mounted 78
nis 78
occur@@ 78
ores 78
ori 78
ozone 78
plots 78
privacy 78
pyrolysis 78
recognize 78
recycling 78
rema@@ 78
resins 78
resonant 78
restore 78
resur@@ 78
ribos@@ 78
rinse 78
ruled 78
segmental 78
sequential 78
sian 78
simpl@@ 78
sligh@@ 78
standar@@ 78
stressing 78
styrene 78
supervising 78
synthe@@ 78
tha@@ 78
thwestern 78
tried 78
unsteady 78
utilizes 78
vascul@@ 78
veness 78
vill@@ 78
wetland 78
zoic 78
0.05@@ 77
1500 77
2.7 77
50mg 77
74@@ 77
79@@ 77
87@@ 77
AHP 77
Athle@@ 77
Band 77
Bending 77
CAPP 77
CUR@@ 77
Card 77
Changing 77
Compression 77
Countermeasure 77
DEVELOPMENT 77
DUCTION 77
DV 77
Eff@@ 77
Fv 77
Game 77
HV 77
High@@ 77
Hist@@ 77
IES 77
Love 77
MJ 77
Means 77
N1 77
NPC 77
Ningxia 77
PROCESS 77
Pharmac@@ 77
Ping@@ 77
Processes 77
Recently 77
SCO@@ 77
Span 77
Spectra 77
Sta@@ 77
Suspension 77
Ta 77
Technologies 77
Trac@@ 77
UNDER 77
Weak 77
Wor@@ 77
YL 77
ZO@@ 77
ag 77
ageing 77
agglomer@@ 77
ames 77
anda 77
angina 77
aniline 77
annealed 77
annular 77
antici@@ 77
avo@@ 77
bat@@ 77
begin 77
begins 77
breath 77
bringing 77
ception 77
chinensis 77
chromatographic 77
cladding 77
cleavage 77
closing 77
collector 77
commit@@ 77
condition@@ 77
conductance 77
cultivar 77
damages 77
descending 77
displaying 77
dyes 77
employees 77
equivalence 77
exceed 77
feat@@ 77
follic@@ 77
forec@@ 77
genous 77
govern@@ 77
harvest 77
hop@@ 77
icle 77
illegal 77
immer@@ 77
immunized 77
initiated 77
inno@@ 77
instantaneous 77
insufficiency 77
int@@ 77
join 77
juvenile 77
leveling 77
mitral 77
mole 77
motors 77
narr@@ 77
orally 77
phone 77
propylene 77
qiao 77
react 77
recogn@@ 77
recommen@@ 77
rein 77
reinforce 77
resem@@ 77
returned 77
scien@@ 77
scratch 77
shifting 77
siRNA 77
slides 77
spro@@ 77
strep@@ 77
sudden 77
teric 77
tribu@@ 77
trophic 77
tumour 77
uk@@ 77
ventional 77
vitality 77
1200 76
46@@ 76
7th 76
Aesthetic 76
Appro@@ 76
Associated 76
Biom@@ 76
CMC 76
CMS 76
CORBA 76
Car 76
Changjiang 76
Circulation 76
DCS 76
Da 76
Discussing 76
Efficacy 76
FSH 76
Forecast 76
Generator 76
Grouting 76
Isol@@ 76
Ker@@ 76
LF 76
Lig@@ 76
Loess 76
MEAS@@ 76
Mapping 76
Mos@@ 76
Origin 76
Peripheral 76
Personality 76
Polym@@ 76
Radix 76
SEA 76
SO2 76
Saf@@ 76
Sol 76
Sub 76
Team 76
Whole 76
Win@@ 76
ack@@ 76
advancement 76
allu@@ 76
antigens 76
arri@@ 76
arum 76
azo 76
brac@@ 76
bronch@@ 76
chance 76
chromatic 76
coinci@@ 76
connections 76
conv@@ 76
cool 76
cortical 76
cr 76
creativity 76
desc@@ 76
disadvantage 76
donors 76
edition 76
efficiencies 76
eigh@@ 76
engines 76
etching 76
eting 76
existent 76
expectation 76
farm 76
ferrite 76
fitness 76
gently 76
gin 76
hypoxic 76
immediate 76
independently 76
insert 76
insufficient 76
ital 76
jection 76
kary@@ 76
likely 76
lum 76
lus 76
matics 76
mi 76
nation@@ 76
notion 76
nucleic 76
obstacles 76
olic 76
orig@@ 76
osus 76
participate 76
penetr@@ 76
peroxidation 76
photo 76
pleural 76
pollutant 76
pores 76
precisely 76
prog@@ 76
ptions 76
ral@@ 76
recru@@ 76
reject 76
ricul@@ 76
rif@@ 76
router 76
sclero@@ 76
scor@@ 76
sme@@ 76
stator 76
submerged 76
succession 76
tactic 76
tence 76
terol 76
tracheal 76
undergone 76
united 76
visualization 76
wealth 76
welfare 76
worldwide 76
xen@@ 76
3S 75
485 75
56@@ 75
ADR 75
Achie@@ 75
Arsen@@ 75
Axis 75
BT 75
Bond 75
C5@@ 75
Consideration 75
Correc@@ 75
Differences 75
Dong 75
ERS 75
Emul@@ 75
Eng@@ 75
Hainan 75
IEEE 75
L2 75
MAGE 75
Mental 75
November 75
PO4 75
Press 75
Promo@@ 75
Qin 75
RELATIONSHIP 75
Radio 75
Rus@@ 75
SING 75
Sheep 75
TRI@@ 75
Tb 75
Ther@@ 75
Train 75
alle@@ 75
aorta 75
applic@@ 75
arth@@ 75
atorial 75
autonomous 75
bench 75
blast@@ 75
blowing 75
cally 75
cam@@ 75
cave 75
citation 75
clamp 75
cm@@ 75
comb 75
consuming 75
copyright 75
damine 75
denat@@ 75
dipole 75
enium 75
erization 75
eth 75
etting 75
evapor@@ 75
excit@@ 75
faction 75
fal@@ 75
fo 75
freeze 75
graduate 75
hered@@ 75
hig@@ 75
hm@@ 75
hotel 75
iding 75
impairment 75
infections 75
inference 75
instru@@ 75
intracranial 75
ires 75
ived 75
lawsuit 75
linearly 75
luminescence 75
mandibular 75
maps 75
maybe 75
missi@@ 75
modeled 75
monot@@ 75
monsoon 75
multidrug 75
nucleation 75
obstacle 75
pathogen 75
phenotype 75
porphy@@ 75
practi@@ 75
quan 75
rationally 75
remn@@ 75
restor@@ 75
rift 75
rowed 75
rush 75
sed@@ 75
shares 75
shot@@ 75
signif@@ 75
spline 75
stay 75
stic@@ 75
structuring 75
sty@@ 75
tablet 75
thly 75
tinal 75
tragedy 75
trials 75
ultra@@ 75
underlying 75
uria 75
versi@@ 75
vil@@ 75
wearing 75
0.10 74
0.5mg 74
1a 74
232 74
2mg 74
4h 74
6th 74
Acet@@ 74
C6 74
CEA 74
COMPLE@@ 74
Constitution 74
Dot 74
EVA 74
Economics 74
FD@@ 74
Frag@@ 74
Fro@@ 74
Fruit 74
GAS 74
INE@@ 74
ION 74
Ideological 74
Important 74
Landscape 74
MW@@ 74
NIT@@ 74
PAN 74
PHA 74
PHASE 74
Pit 74
Proliferation 74
RN@@ 74
RV 74
Recent 74
Simultaneous 74
Soci@@ 74
Soybean 74
TF 74
anchorage 74
anger 74
anism 74
antibiotics 74
arrays 74
articul@@ 74
ask 74
austenite 74
avi@@ 74
bble 74
binder 74
chips 74
coagul@@ 74
considerable 74
corruption 74
cribed 74
deman@@ 74
dency 74
director 74
eld@@ 74
ended 74
ert 74
extra@@ 74
fet@@ 74
ffle 74
fir@@ 74
fiscal 74
gated 74
gel@@ 74
gon 74
herb 74
ills 74
imple@@ 74
indication 74
inhibitors 74
initiative 74
ive 74
ix 74
ligament 74
loro@@ 74
managed 74
managerial 74
mines 74
moder@@ 74
municipal 74
nude 74
ocytic 74
oplastic 74
orth@@ 74
ory@@ 74
owners 74
oxidase 74
oxides 74
plex 74
polypropylene 74
porcelain 74
port@@ 74
presen@@ 74
probed 74
proposal 74
proposals 74
recommend@@ 74
reinfor@@ 74
sent 74
solu@@ 74
stalk 74
stence 74
supervisory 74
suppressed 74
sured 74
suture 74
swimming 74
tend@@ 74
tern 74
thered 74
tology 74
topography 74
ultrasonography 74
velocities 74
verb 74
viewed 74
volatility 74
wedge 74
wei 74
wrong 74
0.99@@ 73
10.0 73
123 73
280 73
3,4 73
360 73
4.1 73
5.6 73
5th 73
650 73
Branch 73
CHEMICAL 73
Carrier 73
Chamber 73
Coding 73
Complete 73
Computing 73
Concentr@@ 73
Criticism 73
DH@@ 73
Dom@@ 73
ENCE 73
Eli@@ 73
Feng@@ 73
Fri@@ 73
GT 73
Gly 73
Mem@@ 73
Mus@@ 73
NN 73
OM 73
Pig@@ 73
Port@@ 73
Potassium 73
Regular 73
Reperfusion 73
STRESS 73
Scanning 73
Separ@@ 73
Seven 73
Step 73
Tan@@ 73
Tim@@ 73
Writing 73
actic 73
aer@@ 73
ahead 73
amus 73
announ@@ 73
applicability 73
argues 73
asia 73
ateral 73
autonomy 73
ayer 73
bos@@ 73
brittle 73
bron@@ 73
bypass 73
cam 73
consequence 73
crank 73
dendritic 73
dimension@@ 73
displays 73
diversion 73
drip 73
embodies 73
emerged 73
endow@@ 73
epidermal 73
esters 73
ficantly 73
fining 73
glutamate 73
grafted 73
grafts 73
guaranteed 73
gym@@ 73
heng 73
hierarchy 73
histo@@ 73
ida 73
immunore@@ 73
inheritance 73
ino 73
intro@@ 73
isn 73
itors 73
japon@@ 73
lex@@ 73
line@@ 73
maneu@@ 73
melan@@ 73
morbidity 73
movements 73
offering 73
oric 73
oy@@ 73
pharmac@@ 73
phosphatase 73
pond 73
precondition 73
pup@@ 73
qua@@ 73
recycle 73
reporter 73
rhG 73
seng 73
shir@@ 73
simplex 73
sky@@ 73
stoc@@ 73
thinning 73
tose 73
trun@@ 73
unchanged 73
untreated 73
virulent 73
waveform 73
za 73
0.06 72
126 72
190 72
320 72
AX@@ 72
Amino 72
Arteri@@ 72
Asi@@ 72
Blade 72
CAL 72
COS 72
Caused 72
Contrac@@ 72
Cracking 72
Cu2 72
Cyclo@@ 72
DES 72
Dev@@ 72
Discus@@ 72
Endo@@ 72
Es@@ 72
Evaluating 72
FTIR 72
Filling 72
Flame 72
Food 72
Girder 72
Hard 72
Hi@@ 72
I. 72
Inci@@ 72
Inspection 72
Intensity 72
Iso@@ 72
Map 72
Net@@ 72
Opening 72
Oscill@@ 72
PCA 72
PLAS@@ 72
Probability 72
Reducing 72
Residue 72
Responses 72
Rid@@ 72
Roc@@ 72
Sau@@ 72
Schem@@ 72
Screw 72
Shang@@ 72
Sl@@ 72
Sph@@ 72
Student 72
Sup@@ 72
TLC 72
Tar@@ 72
Transi@@ 72
Triassic 72
Ve@@ 72
advice 72
ains 72
assum@@ 72
asth@@ 72
attacks 72
belonged 72
bow 72
carcin@@ 72
carp 72
cataly@@ 72
catalyzed 72
characteri@@ 72
complex@@ 72
concave 72
conserv@@ 72
consul@@ 72
controll@@ 72
crete 72
critici@@ 72
crypt@@ 72
dendr@@ 72
desire 72
distor@@ 72
districts 72
dt 72
ech 72
elt 72
encountered 72
epilepsy 72
fabric@@ 72
flocculant 72
foaming 72
four@@ 72
free@@ 72
hydrox@@ 72
hygi@@ 72
interstitial 72
key@@ 72
kill 72
leak 72
lighting 72
manpower 72
modelling 72
musical 72
mycel@@ 72
neph@@ 72
niqu@@ 72
none 72
omb 72
ophen@@ 72
oti@@ 72
paths 72
pede@@ 72
peptides 72
pituitary 72
plen@@ 72
polysaccharide 72
prokaryotic 72
proliferative 72
public@@ 72
redness 72
renewal 72
respir@@ 72
retrac@@ 72
ripening 72
severely 72
sheets 72
shifted 72
siveness 72
slu@@ 72
stretch 72
sweep 72
thorac@@ 72
tillation 72
tongue 72
tradi@@ 72
truss 72
ture@@ 72
ud 72
unn@@ 72
vil 72
wan 72
widespread 72
wounds 72
youth 72
ys@@ 72
1.25 71
20,@@ 71
A3 71
ASEAN 71
Alzheimer 71
Arti@@ 71
Automobile 71
BOD 71
Bureau 71
Camp@@ 71
Committee 71
Creation 71
Edge 71
Eigh@@ 71
Equilibrium 71
Fem@@ 71
Glu 71
Hon@@ 71
Identi@@ 71
Images 71
Infection 71
Interleukin 71
LY 71
Lateral 71
MCP 71
NIC 71
Optim@@ 71
Ori@@ 71
P53 71
Principal 71
Pulmonary 71
Rational 71
Reference 71
Road@@ 71
SIMULATION 71
STRA@@ 71
Sat@@ 71
Scheduling 71
She 71
Shen@@ 71
Soviet 71
Taiyuan 71
UT 71
WAVE 71
Yan 71
abled 71
artan 71
athle@@ 71
atric 71
attain 71
ays 71
bearings 71
bed@@ 71
belts 71
bt 71
competi@@ 71
dam@@ 71
deser@@ 71
dissociation 71
dization 71
dol@@ 71
drops 71
eld 71
excretion 71
fog 71
fractured 71
gears 71
gul@@ 71
had@@ 71
hardly 71
hos@@ 71
icar@@ 71
immersion 71
improvements 71
insp@@ 71
intim@@ 71
invol@@ 71
ishan 71
kinematics 71
lacking 71
legislative 71
leng@@ 71
lia 71
maj@@ 71
medullary 71
nanotubes 71
neglected 71
nutritional 71
oblique 71
oct@@ 71
odd 71
ontology 71
ony@@ 71
orization 71
orum 71
oven 71
packed 71
packets 71
perme@@ 71
polar@@ 71
qu 71
quenched 71
replacing 71
reserved 71
ribbon 71
ris 71
rough@@ 71
roughly 71
scram@@ 71
sectional 71
sha 71
shortest 71
sick@@ 71
silent 71
solvents 71
sper@@ 71
standardized 71
steadily 71
straigh@@ 71
subsequent 71
tends 71
thy 71
transfection 71
trusion 71
uce 71
uo 71
volumes 71
ε@@ 71
1979 70
19th 70
201 70
240@@ 70
6.4 70
AFP 70
ASI@@ 70
Aluminium 70
Ammonia 70
Ani@@ 70
Artistic 70
BALB 70
Buddhism 70
Clin@@ 70
Constitu@@ 70
Cooperation 70
DING 70
Deposi@@ 70
Driving 70
EN 70
Feasibility 70
Free@@ 70
Influ@@ 70
Is@@ 70
Kinetics 70
LINE 70
Leuk@@ 70
Machining 70
Marine 70
Me 70
Multimedia 70
ND 70
PB 70
Petri 70
Pipeline 70
RMS 70
RON 70
Relevant 70
Rub@@ 70
Sc 70
Sediment 70
Shield 70
TEST 70
Transcri@@ 70
URAL 70
Vitamin 70
WD 70
abnorm@@ 70
accept 70
adsorbed 70
amy@@ 70
analysi@@ 70
ande@@ 70
appearing 70
arbitr@@ 70
assign@@ 70
assimil@@ 70
attributed 70
bal 70
bay 70
breakthrough 70
bundle 70
catch 70
chrome 70
clarify 70
coast 70
communicate 70
conden@@ 70
dimethyl 70
dog 70
e.g. 70
embedding 70
encoded 70
enormous 70
erical 70
ero 70
estimates 70
expense 70
extends 70
flash 70
flowering 70
flowers 70
folding 70
gens 70
get@@ 70
guard 70
homologous 70
i.@@ 70
idazole 70
ilian 70
inhalation 70
integrates 70
ints 70
ius 70
karst 70
lactate 70
lined 70
lipi@@ 70
lubrication 70
mark@@ 70
mir@@ 70
moid 70
multiplication 70
nested 70
orption 70
ortho@@ 70
osyn@@ 70
otropic 70
oxy 70
pancreas 70
percutaneous 70
physiology 70
plaque 70
plastics 70
preliminarily 70
preserving 70
purple 70
put@@ 70
questionnaires 70
recovering 70
repudi@@ 70
respond 70
restrict 70
revol@@ 70
rist 70
rit 70
safeguar@@ 70
satis@@ 70
selling 70
seven@@ 70
sex@@ 70
shade 70
simulates 70
speeds 70
sterilization 70
stratigraphic 70
supernatant 70
supp@@ 70
synchron@@ 70
taneously 70
telomerase 70
tempering 70
tended 70
tendon 70
thrombo@@ 70
tiary 70
transcrip@@ 70
vised 70
walled 70
wider 70
worms 70
xiang 70
zz@@ 70
zzle 70
μs 70
0.25@@ 69
1.7@@ 69
1.9 69
115 69
198@@ 69
1g 69
3.7 69
6.2 69
Apo@@ 69
Aqu@@ 69
Bon@@ 69
C4 69
CONC@@ 69
Conversion 69
Cultiv@@ 69
DB 69
Epo@@ 69
FDI 69
FFT 69
Facing 69
France 69
Fur@@ 69
GABA 69
GP@@ 69
HL@@ 69
Human@@ 69
Indian 69
Infarction 69
LT 69
Molec@@ 69
NSI@@ 69
Observ@@ 69
Oste@@ 69
Ow@@ 69
PAM 69
PAR 69
Phenomen@@ 69
Private 69
Reason 69
SCH@@ 69
SOIL 69
Seas@@ 69
Shan 69
Spectrophotometric 69
Speech 69
Teacher 69
UR 69
acr@@ 69
admission 69
anese 69
aromatics 69
asymmetry 69
ati 69
atri@@ 69
aur@@ 69
brid@@ 69
buckling 69
cars 69
cfu 69
characterize 69
chil@@ 69
collap@@ 69
compens@@ 69
consequently 69
constituted 69
continue 69
counted 69
credi@@ 69
cyclin 69
decomposed 69
destroyed 69
divi@@ 69
divides 69
drama 69
eless 69
emissions 69
eutectic 69
expressway 69
fen@@ 69
fraction@@ 69
fulfill 69
gam@@ 69
glut@@ 69
goats 69
hospitalization 69
hydrocarbons 69
hydroxide 69
icide 69
impro@@ 69
indica 69
inging 69
languages 69
leader 69
lesson 69
metro@@ 69
modifying 69
neither 69
occupation 69
olar 69
ont@@ 69
osph@@ 69
ounds 69
patri@@ 69
phosphor@@ 69
piglets 69
plasticity 69
pragmatic 69
prerequisite 69
prospective 69
protease 69
quar@@ 69
radioimmunoassay 69
reconstruct 69
residu@@ 69
reti@@ 69
ries 69
roadbed 69
sales@@ 69
settling 69
sleeve 69
spectrometer 69
spore 69
stabil@@ 69
subtype 69
supplies 69
synthetically 69
toler@@ 69
transactions 69
transit 69
uch 69
unilateral 69
uter@@ 69
vis 69
vs. 69
xian 69
113 68
118 68
1982 68
2.4@@ 68
7.8 68
9.0 68
Arte@@ 68
Buil@@ 68
CPB 68
Drive 68
Emplo@@ 68
Enlightenment 68
Future 68
God 68
Harbin 68
HepG2 68
LV 68
Lon@@ 68
MAR@@ 68
MH 68
Mun@@ 68
Newton 68
Orientation 68
Rotation 68
SAP 68
SNR 68
Safe 68
Scattering 68
Shen 68
Strategies 68
Tax@@ 68
Tension 68
Top 68
Top@@ 68
Ty@@ 68
VL@@ 68
Vascular 68
Village 68
Wave@@ 68
absorp@@ 68
adapting 68
allergic 68
alter@@ 68
andthe 68
ascites 68
astigmatism 68
boundaries 68
breed 68
capac@@ 68
cial 68
cluded 68
cohesion 68
colli@@ 68
conf@@ 68
consultation 68
diagnose 68
dinger 68
dissolving 68
dumping 68
dun@@ 68
easier 68
embodied 68
endosco@@ 68
endothelin 68
endurance 68
enthusiasm 68
entrepren@@ 68
evolvement 68
feudal 68
fingerprint 68
flat@@ 68
floxacin 68
fos 68
foundations 68
frequ@@ 68
gall@@ 68
gation 68
gest 68
glioma 68
gypsum 68
helical 68
helicopter 68
heterogeneity 68
hierarchical 68
igh 68
impl@@ 68
impul@@ 68
inertia 68
initially 68
intension 68
isot@@ 68
kling 68
ladder 68
latex 68
limestone 68
localized 68
magnetism 68
mail 68
manifold 68
manipul@@ 68
mechanized 68
modulator 68
normalized 68
oils 68
oles 68
pace 68
patho@@ 68
persistent 68
phage 68
pione@@ 68
pois@@ 68
polaro@@ 68
pple 68
previously 68
propi@@ 68
reacted 68
reco@@ 68
reformed 68
reliably 68
rescence 68
retardant 68
returns 68
ropivacaine 68
rota@@ 68
rubbish 68
saponins 68
shortcoming 68
smooth@@ 68
sociology 68
sole 68
soul 68
submarine 68
sulfuric 68
syste@@ 68
textual 68
thirty 68
thrombin 68
tie 68
tier 68
tog@@ 68
transcriptase 68
transporting 68
treat@@ 68
trigger 68
tungsten 68
ush@@ 68
valves 68
vegetables 68
visu@@ 68
warding 68
wares 68
workshop 68
ylase 68
zen 68
〔 68
＋ 68
-7 67
0.000 67
0.20 67
12,@@ 67
4.7 67
5.2 67
6.1 67
61.@@ 67
9.5 67
ATING 67
Alloys 67
Analysing 67
Arg 67
Bac@@ 67
Bohai 67
CATALY@@ 67
CRM 67
Carrying 67
Cavity 67
Customer 67
DQ@@ 67
DT@@ 67
Demo@@ 67
Disper@@ 67
EF 67
ELECT@@ 67
Enhanced 67
Experi@@ 67
Fan 67
Fis@@ 67
Hydrocarbon 67
IF 67
Intra@@ 67
KA 67
Kinetic 67
MAL 67
MCS 67
MEMS 67
Made 67
NPV 67
Nar@@ 67
Not 67
Park 67
Passenger 67
Provi@@ 67
RAS 67
Reas@@ 67
Responsibility 67
Rotating 67
SED 67
Scen@@ 67
Sex 67
Simp@@ 67
Sino 67
Slag 67
Stone 67
Substitu@@ 67
TES 67
THE@@ 67
Tobacco 67
Ts 67
Wa@@ 67
Wireless 67
allows 67
altered 67
ambig@@ 67
anate 67
ani@@ 67
apon@@ 67
arginine 67
ascertain 67
ash@@ 67
bark 67
bifurcation 67
bium 67
cents 67
certain@@ 67
check@@ 67
chemicals 67
clients 67
coincidence 67
complementary 67
conditional 67
conductor 67
consisten@@ 67
creates 67
customs 67
dated 67
dehydration 67
dimethyl@@ 67
dings 67
eas@@ 67
eg@@ 67
eled 67
embolization 67
emplo@@ 67
eror 67
even@@ 67
evolutionary 67
expresses 67
feelings 67
feren@@ 67
fissure 67
fistula 67
freight 67
fungal 67
ghness 67
gram@@ 67
igen@@ 67
intensities 67
intermittent 67
iosis 67
itis 67
itted 67
labour 67
libr@@ 67
lubric@@ 67
lymphoma 67
macrophage 67
max@@ 67
methylation 67
mitting 67
morals 67
mortgage 67
nity 67
olip@@ 67
oshan 67
osition 67
outdoor 67
park 67
passes 67
planes 67
premature 67
procedural 67
prose 67
pumps 67
radicals 67
rehabilit@@ 67
rein@@ 67
reorganization 67
rounds 67
schizophren@@ 67
secondly 67
shaking 67
shun@@ 67
sph@@ 67
ss 67
stories 67
striking 67
struction 67
tase 67
tibility 67
ticle 67
timber 67
titer 67
tl@@ 67
touch 67
type@@ 67
undertaken 67
upstream 67
usi@@ 67
valu@@ 67
viewpoints 67
vulcan@@ 67
wind@@ 67
xylic 67
yi@@ 67
100g 66
4- 66
4.3 66
4H 66
6.7 66
66@@ 66
95@@ 66
Adding 66
Autonomous 66
CG@@ 66
CRYST@@ 66
Chengdu 66
Corn 66
Coronary 66
Criterion 66
Depth 66
Domain 66
ELL 66
End@@ 66
Erosion 66
Existing 66
Fir@@ 66
Formul@@ 66
Fusarium 66
GPa 66
Grad@@ 66
Gro@@ 66
HBeAg 66
HV@@ 66
Hua 66
IZATION 66
Independent 66
Irrigation 66
Island 66
KCl 66
Kidney 66
Limit 66
Liu@@ 66
MATER@@ 66
MIC@@ 66
Orig@@ 66
Orthogonal 66
PROTE@@ 66
Patterns 66
Prof@@ 66
RSA 66
Residential 66
Rh 66
Sedi@@ 66
Simulating 66
Sleep 66
Sum@@ 66
TIVITY 66
TNFα 66
Transplantation 66
WO 66
Xu 66
acceptable 66
adjustable 66
adjuvant 66
aerodynamic 66
aldosterone 66
alloying 66
amo@@ 66
angiogenesis 66
angu@@ 66
ary@@ 66
bent 66
blends 66
blow@@ 66
breaks 66
buc@@ 66
cab@@ 66
cated 66
ceptual 66
concerns 66
conference 66
constitutive 66
cyclone 66
dams 66
deci@@ 66
dge 66
diluted 66
disasters 66
docu@@ 66
dox 66
dramatically 66
enta 66
erent 66
exhibi@@ 66
explants 66
facilitate 66
fam@@ 66
farmer 66
fig@@ 66
fire@@ 66
float 66
fractional 66
gol@@ 66
guides 66
gut 66
hou 66
immature 66
influenza 66
initiator 66
inthe 66
intu@@ 66
isotopic 66
itoneal 66
jin 66
know@@ 66
labeling 66
liances 66
litho@@ 66
lum@@ 66
magnet 66
medication 66
midd@@ 66
mium 66
mon 66
mplasm 66
nan 66
nastics 66
note 66
noun@@ 66
nut 66
older 66
orate 66
ose@@ 66
oth 66
permeation 66
phosphoric 66
precur@@ 66
prostate 66
qi@@ 66
quer@@ 66
raction 66
recipients 66
reflex 66
refrigeration 66
relational 66
relaxed 66
rella 66
risk@@ 66
row@@ 66
safely 66
satisfactorily 66
sausage 66
sec 66
soy 66
squares 66
stably 66
stal 66
street 66
successively 66
surge 66
system@@ 66
threat 66
threate@@ 66
tiation 66
towns 66
translocation 66
traps 66
trus@@ 66
urb@@ 66
ureth@@ 66
vag@@ 66
variational 66
vated 66
velop@@ 66
volleyball 66
walk 66
xim@@ 66
yin 66
λ@@ 66
抯 66
0.00 65
0.12 65
1983 65
1984 65
2N 65
3A 65
5.4 65
8mm 65
ACK 65
AX 65
BZ 65
Binding 65
Can 65
Cyto@@ 65
Depen@@ 65
Der@@ 65
Feedback 65
Four@@ 65
GENE@@ 65
Hel@@ 65
IG@@ 65
LPG 65
MENTS 65
MUL@@ 65
Methodology 65
Ministry 65
PN 65
Polymorphism 65
Prac@@ 65
Pricing 65
Principles 65
Protec@@ 65
QT@@ 65
Qin@@ 65
Qingdao 65
REG@@ 65
RESI@@ 65
RP@@ 65
Reality 65
Rho 65
SAS 65
Steri@@ 65
Tracking 65
Trial 65
V.@@ 65
VR 65
Veget@@ 65
Wil@@ 65
Xiao 65
Zheng@@ 65
ZrO2 65
aband@@ 65
absor@@ 65
acul@@ 65
alty 65
anal 65
ans@@ 65
arthroplasty 65
articulation 65
assembl@@ 65
assume 65
automotive 65
aux@@ 65
bacteri@@ 65
beef 65
blended 65
boys 65
broilers 65
burn@@ 65
capabilities 65
carcinomas 65
chiefly 65
colored 65
compiled 65
compliance 65
compulsory 65
contributions 65
cytokine 65
decre@@ 65
design@@ 65
differentiate 65
digit@@ 65
dispatching 65
dissection 65
dodec@@ 65
ease 65
echanical 65
elabor@@ 65
electrolytic 65
enlargement 65
ensured 65
entirely 65
evidences 65
exceeds 65
favor 65
fered 65
fluo@@ 65
fluorine 65
forage 65
hab@@ 65
hemoglobin 65
himself 65
hormones 65
idly 65
ile@@ 65
ingredient 65
interesting 65
involve 65
jus@@ 65
kages 65
keting 65
lae 65
lightning 65
lium 65
lived 65
mAh 65
magmatic 65
maternal 65
metastases 65
modernism 65
nium 65
oling 65
otypic 65
ovari@@ 65
pancreatitis 65
phr@@ 65
pneumonia 65
printed 65
pu 65
radiative 65
reason@@ 65
ret 65
retirement 65
retrie@@ 65
revision 65
right@@ 65
rt 65
sav@@ 65
scanned 65
senoside 65
shale 65
shunt 65
singularity 65
spores 65
sputtering 65
stances 65
struggle 65
subtypes 65
succe@@ 65
susp@@ 65
tane@@ 65
teenth 65
termination 65
text@@ 65
tigation 65
trying 65
tum@@ 65
twelve 65
upgrade 65
wal@@ 65
weed 65
whi@@ 65
xane 65
133 64
1981 64
220@@ 64
5.8 64
5.The 64
9000 64
AU@@ 64
Benefit 64
Blasting 64
Breast 64
Buddhist 64
CD34 64
CYP@@ 64
Chromosome 64
Cleaning 64
Compar@@ 64
Cryst@@ 64
DCT 64
Diag@@ 64
Dimension 64
Every 64
Exercise 64
Exp@@ 64
Exploitation 64
GST 64
HRP 64
Kg 64
LAN 64
Nutri@@ 64
Ou@@ 64
Pinus 64
Proteins 64
Rail 64
Roman@@ 64
Scene 64
Serv@@ 64
Silica 64
Task 64
Therapeutic 64
Times 64
Transgenic 64
Tru@@ 64
Visco@@ 64
ZE 64
adder 64
appliance 64
apse 64
arbitration 64
asses 64
ayed 64
aze@@ 64
bran 64
capacities 64
cardiomy@@ 64
catalysis 64
cellul@@ 64
cloth 64
codon 64
coking 64
compensate 64
conserved 64
controllers 64
custom@@ 64
day@@ 64
decades 64
deri@@ 64
destroy 64
destructive 64
deter@@ 64
diagrams 64
diarrhea 64
dimin@@ 64
distances 64
dropping 64
eluc@@ 64
enables 64
endoscopic 64
ery@@ 64
ethic 64
etho@@ 64
evoked 64
exerted 64
fading 64
ga 64
gp 64
hang 64
iang 64
ights 64
immunization 64
inder 64
institu@@ 64
intercal@@ 64
isting 64
itro@@ 64
lev@@ 64
liabilities 64
ling@@ 64
merely 64
nitrite 64
nur@@ 64
occupy 64
omycin 64
pedi@@ 64
peer 64
pelvic 64
plenty 64
propeller 64
propri@@ 64
publishing 64
purposes 64
pursue 64
pylori 64
reland 64
relap@@ 64
researcher 64
restricts 64
result@@ 64
retired 64
rhetor@@ 64
rom 64
sake 64
salv@@ 64
schedul@@ 64
sentences 64
sightseeing 64
simplify 64
socialization 64
spect 64
stabilizer 64
stal@@ 64
stripping 64
summed 64
surveyed 64
tap@@ 64
thrombosis 64
transmitter 64
triangular 64
trough 64
uri@@ 64
ushing 64
violet 64
warming 64
zhuang 64
-0 63
0.45 63
1m 63
3h 63
5μm 63
ADM 63
ALLOY 63
Activated 63
Antigen 63
Artemisia 63
Astragal@@ 63
BLE 63
BO 63
Ball 63
Bat@@ 63
CONDI@@ 63
Cenozoic 63
Classical 63
Client 63
Conden@@ 63
Dat@@ 63
Death 63
Diagnostic 63
Dil@@ 63
Docu@@ 63
Down 63
FE 63
Fabric 63
Feng 63
GSM 63
HPV@@ 63
Hui 63
Individual 63
Induc@@ 63
Ini@@ 63
Intelligence 63
Lar@@ 63
MMA 63
MV@@ 63
Machinery 63
Medi@@ 63
Module 63
Mort@@ 63
Muscle 63
Na2@@ 63
OIL 63
PAP 63
Permian 63
ROS 63
Reinforcement 63
Resol@@ 63
Rocket 63
Sc@@ 63
Simpli@@ 63
Suggestions 63
THER@@ 63
TL@@ 63
TURE 63
Typical 63
Understanding 63
Utilizing 63
VO 63
Word 63
abs@@ 63
adec@@ 63
analgesia 63
analgesic 63
anus 63
assured 63
avoidance 63
beverage 63
blu@@ 63
brightness 63
buff@@ 63
camp@@ 63
cancel@@ 63
capacitor 63
carcass 63
career 63
cationic 63
centric 63
cigarette 63
clim@@ 63
collo@@ 63
consol@@ 63
coping 63
cranial 63
crimes 63
deeper 63
degrad@@ 63
diene 63
disclosure 63
eating 63
entero@@ 63
exchang@@ 63
exogenous 63
explor@@ 63
expos@@ 63
fee 63
ficant 63
fresh@@ 63
gallbladder 63
good@@ 63
gradation 63
habit@@ 63
harvested 63
hedr@@ 63
heigh@@ 63
his@@ 63
hn 63
hs 63
infused 63
inia 63
inocul@@ 63
instant 63
intellectu@@ 63
jamming 63
km2 63
knife 63
legs 63
lign@@ 63
lik@@ 63
manned 63
mentality 63
microorganism 63
murine 63
notch 63
ogene 63
omorphic 63
ophosph@@ 63
organize 63
osteo@@ 63
otides 63
ovary 63
philic 63
pictures 63
pland 63
rad 63
reflux 63
relevance 63
relieve 63
respectiv@@ 63
rism 63
rival@@ 63
rying 63
sP 63
scle@@ 63
seis@@ 63
separator 63
signer 63
silkworm 63
silo@@ 63
skeleton 63
skins 63
smoothly 63
something 63
state@@ 63
substantial 63
thermo 63
titudes 63
tob@@ 63
tually 63
unable 63
uss 63
uti@@ 63
vanadium 63
viewing 63
warehouse 63
wered 63
wk 63
ycle 63
μL 63
Ⅰ.@@ 63
-8 62
1. 62
145 62
230 62
6mm 62
850 62
8th 62
Activation 62
Agg@@ 62
Army 62
Australia 62
Bai@@ 62
Blo@@ 62
Blue 62
But@@ 62
C18 62
Calibration 62
Configuration 62
DY 62
Defects 62
Dou@@ 62
Ep@@ 62
Expansion 62
Factory 62
GENER@@ 62
Gar@@ 62
Hypertension 62
INVESTIGATION 62
Implement 62
Input 62
Issues 62
K1 62
LIN@@ 62
Ltd 62
Morphology 62
Myco@@ 62
Nationality 62
PF@@ 62
PKC 62
Paleozoic 62
Poisson 62
Posi@@ 62
Prec@@ 62
Quaternary 62
RH@@ 62
Rich 62
Rotary 62
SB 62
SBP 62
Sab@@ 62
Search 62
SnO 62
Spray 62
Strep@@ 62
Track 62
Turb@@ 62
Ultrasonic 62
VaR 62
Vaccine 62
WT5 62
Xun 62
Ying@@ 62
accommod@@ 62
aceous 62
allocated 62
ankle 62
arer 62
arranging 62
artificially 62
atings 62
aud@@ 62
auditory 62
avoided 62
broadband 62
buil@@ 62
catal@@ 62
challeng@@ 62
charged 62
contain@@ 62
contamin@@ 62
coordin@@ 62
cytotoxicity 62
denitrification 62
designers 62
dialysis 62
dize 62
eddy 62
electronics 62
enem@@ 62
envelope 62
equally 62
esp@@ 62
expatiates 62
ferric 62
ficiency 62
flas@@ 62
forcing 62
funda@@ 62
genicity 62
geothermal 62
globulin 62
habit 62
hong 62
hrs 62
illed 62
illustr@@ 62
impurity 62
innovations 62
investig@@ 62
ior 62
latitude 62
lignin 62
locked 62
logarith@@ 62
malfunction 62
martensite 62
melted 62
mentally 62
merit 62
metallogenic 62
nas@@ 62
nion 62
ogenetic 62
opa@@ 62
ora 62
ordin@@ 62
pepper 62
placing 62
plugging 62
popular@@ 62
porting 62
program@@ 62
propellant 62
rab@@ 62
rants 62
realm 62
restrictions 62
retic@@ 62
reticulum 62
says 62
scattered 62
seper@@ 62
session 62
sett@@ 62
shops 62
sieve 62
single@@ 62
sister 62
sium 62
slaughter 62
sometimes 62
stepwise 62
stero@@ 62
supercritical 62
syll@@ 62
sympa@@ 62
tidine 62
tillage 62
triple 62
trou@@ 62
uminescence 62
vents 62
vigor 62
wash 62
wel 62
≠ 62
｜ 62
1,4 61
137 61
1R 61
57@@ 61
5g 61
7.1 61
AA@@ 61
Agrobacterium 61
Aircraft 61
Analyze 61
B7 61
CFD 61
CHAN@@ 61
Chemistry 61
Collagen 61
DDP 61
DIF@@ 61
FCM 61
Fabrication 61
Front 61
Gan@@ 61
Gauss 61
HIF 61
IPv4 61
LDPE 61
MG@@ 61
Metallo@@ 61
Navigation 61
Objectives 61
Ordos 61
Owing 61
Police 61
Precipitation 61
Pseudomonas 61
Reynolds 61
SST 61
SY 61
Sales 61
Sound 61
Spectral 61
THERMAL 61
Ten 61
Wei@@ 61
ZY 61
Zedong 61
adequ@@ 61
adver@@ 61
agon 61
alkal@@ 61
aneous 61
appropri@@ 61
aviation 61
axes 61
chair 61
chiral 61
chuan 61
clothing 61
composi@@ 61
configur@@ 61
correspondence 61
coty@@ 61
counties 61
crustal 61
debris 61
depending 61
derivation 61
digi@@ 61
distilled 61
drain 61
esterase 61
estradiol 61
fashion 61
fav@@ 61
fentanyl 61
fila@@ 61
folia 61
fri@@ 61
gathering 61
gement 61
general@@ 61
gest@@ 61
hammer 61
heav@@ 61
hyd@@ 61
ibility 61
incorporated 61
indispensable 61
inflation 61
intelli@@ 61
interpreted 61
jec@@ 61
karyotype 61
laryngeal 61
launching 61
llo@@ 61
ln@@ 61
magma 61
maker 61
mamm@@ 61
mammary 61
marking 61
microsatellite 61
mour 61
negotiation 61
nels 61
ness@@ 61
nesses 61
nest 61
nothing 61
ocar@@ 61
osclerosis 61
osensi@@ 61
panicle 61
paper@@ 61
pathways 61
period@@ 61
phere 61
pling 61
portable 61
projectile 61
psoriasis 61
pushing 61
radioactive 61
reactivity 61
referen@@ 61
regimen 61
renovation 61
restoring 61
rive@@ 61
rounding 61
ruler 61
sarcoma 61
schem@@ 61
schistos@@ 61
scr@@ 61
shoes 61
sic@@ 61
sinensis 61
spor@@ 61
sprayed 61
strips 61
sure@@ 61
synthetical 61
tall 61
taxes 61
this@@ 61
tian@@ 61
tica 61
tiles 61
tow@@ 61
trap@@ 61
tray 61
twist 61
uan@@ 61
undergraduate 61
unreasonable 61
vern@@ 61
vine 61
vocation 61
wheels 61
wires 61
workpiece 61
zo 61
ˉ@@ 61
π@@ 61
〕 61
0.18@@ 60
0.55 60
13C 60
2. 60
3000 60
5cm 60
6.8 60
6H 60
AK@@ 60
Academic 60
Allo@@ 60
Anchor 60
BMD 60
BR@@ 60
CGRP 60
Chec@@ 60
Chloro@@ 60
Condi@@ 60
Courses 60
FP@@ 60
Fixed 60
Floating 60
Forward 60
GROWTH 60
Generally 60
Hence 60
Hepatic 60
IMP@@ 60
KS 60
LC@@ 60
Lanzhou 60
Lip@@ 60
Lith@@ 60
Longitudinal 60
MAGNE@@ 60
Magne@@ 60
Matlab 60
PARTI@@ 60
PHY@@ 60
PKI 60
PLAN@@ 60
Pat@@ 60
Phosphate 60
Prog@@ 60
Promoting 60
Rayleigh 60
S3 60
SAN@@ 60
SERV@@ 60
STD 60
STE@@ 60
San 60
Should 60
Sulfur 60
TW@@ 60
Tea 60
Telec@@ 60
Terminal 60
URES 60
Vision 60
Vit@@ 60
Waves 60
Ways 60
Whe@@ 60
activate 60
agers 60
agon@@ 60
allowed 60
alu@@ 60
anci@@ 60
artifact 60
astro@@ 60
atherosclerosis 60
bind 60
bored 60
bra 60
citizens 60
committee 60
conform 60
cooking 60
correspond 60
corro@@ 60
cosmic 60
cows 60
cycling 60
cylind@@ 60
default 60
deformity 60
dences 60
derive 60
dew 60
diploid 60
discount 60
diverse 60
eded 60
eme 60
emerging 60
enlightenment 60
eptic 60
ergy 60
erial 60
exam@@ 60
exper@@ 60
fat@@ 60
fe 60
fection 60
firm@@ 60
games 60
gateway 60
grained 60
grap@@ 60
gum 60
gyro@@ 60
hands 60
hepatoma 60
hypothal@@ 60
ials 60
ik@@ 60
illness 60
imposed 60
infarct 60
inqui@@ 60
interacting 60
invari@@ 60
itage 60
kDa 60
kid@@ 60
lane 60
lasers 60
looks 60
mach@@ 60
macrophages 60
masters 60
mone 60
nutrients 60
nylon 60
obser@@ 60
occured 60
oce@@ 60
oocytes 60
oxidant 60
pharmaceutical 60
placebo 60
ples 60
progressively 60
provision 60
ratic 60
realism 60
refl@@ 60
regressed 60
relocation 60
resultant 60
rival 60
ruption 60
seasons 60
seat 60
silane 60
silting 60
sketch 60
slic@@ 60
sn@@ 60
snow 60
spar 60
spectively 60
stic 60
stromal 60
syno@@ 60
teams 60
tel 60
terization 60
tern@@ 60
thermia 60
transfusion 60
tropic 60
tz@@ 60
uclear 60
unification 60
update 60
urium 60
va@@ 60
vertebra 60
■ 60
&apos;s@@ 59
0.07 59
0.The 59
124 59
153 59
165 59
304 59
4mm 59
5m 59
802.@@ 59
ACID 59
Accident 59
Adult 59
Ala 59
Allocation 59
Architec@@ 59
Asp 59
Bud@@ 59
CAS 59
Catalysts 59
Cho@@ 59
Connection 59
DIFFERE@@ 59
DT 59
Diagram 59
Discuss 59
Distribu@@ 59
Drought 59
EGFP 59
ENERGY 59
EST 59
Edi@@ 59
Eg@@ 59
Elementary 59
FU 59
Flight 59
H2@@ 59
Harmon@@ 59
Hex@@ 59
Ig 59
Kil@@ 59
Leaves 59
Ling@@ 59
Make 59
Master 59
Measurements 59
Military 59
NUMERICAL 59
Northwest 59
OPTI@@ 59
PAN@@ 59
Panel 59
Politics 59
Preventing 59
RCC 59
Radio@@ 59
Reformation 59
Rejection 59
Requirement 59
S3@@ 59
SVM 59
SW 59
Sam@@ 59
Sampling 59
Sensitivity 59
Sign 59
Slide 59
Stainless 59
Summer 59
Varieties 59
Ventricular 59
Vibr@@ 59
Whether 59
YS 59
Yuan@@ 59
absorber 59
adj@@ 59
adju@@ 59
adle 59
aerosol 59
agic 59
alliance 59
amal@@ 59
anisotropic 59
antioxidant 59
ark@@ 59
assemble 59
attach 59
beer 59
biliary 59
bour@@ 59
brit@@ 59
cadres 59
canopy 59
cantilever 59
chim@@ 59
colori@@ 59
condenser 59
confirmation 59
conscious 59
creati@@ 59
cue 59
cytoplasmic 59
dant 59
dealt 59
descen@@ 59
designer 59
deton@@ 59
dialect 59
dichloro@@ 59
distinguished 59
diver@@ 59
dizing 59
ductility 59
earth@@ 59
endoplasmic 59
epoch 59
estr@@ 59
fera 59
flexion 59
frictional 59
fund@@ 59
gelatin 59
hPa 59
hydrochloric 59
hydroxyl 59
immunofluorescence 59
insectici@@ 59
installing 59
interview 59
inve@@ 59
ises 59
iter@@ 59
knowled@@ 59
les@@ 59
lination 59
listic 59
lo 59
magneto@@ 59
manufacturers 59
meta 59
microcontroller 59
mulching 59
mutagen@@ 59
nar 59
naturally 59
normal@@ 59
notable 59
noted 59
occa@@ 59
oic 59
osin 59
osp@@ 59
pack 59
pathy 59
pear@@ 59
pec@@ 59
pest 59
phen 59
pical 59
polishing 59
poplar 59
posture 59
preparations 59
prevented 59
proceed 59
publication 59
pursuing 59
pyridine 59
read@@ 59
recor@@ 59
reh@@ 59
rejuven@@ 59
ren 59
reply 59
repro@@ 59
ropy 59
roughing 59
sage 59
scarce 59
schema 59
sciatic 59
shi 59
sigh@@ 59
sp. 59
spend 59
stag@@ 59
stars 59
stores 59
stra 59
su 59
survived 59
tedly 59
tell@@ 59
tigh@@ 59
titis 59
transplanting 59
trich@@ 59
upgrading 59
vered 59
vocabulary 59
weathering 59
zircon@@ 59
＞ 59
08@@ 58
122 58
132 58
196 58
3K 58
7721 58
86@@ 58
8h 58
ARM 58
Absor@@ 58
Aromatic 58
Assess@@ 58
Author 58
Ax@@ 58
Bei@@ 58
Benz@@ 58
Bol@@ 58
Buc@@ 58
Complicated 58
Conception 58
Consciousness 58
Cut 58
DN 58
DSA 58
Direction 58
ELEMENT 58
EQU@@ 58
Electromagnetic 58
Ellip@@ 58
Era 58
FeO 58
HB 58
HER@@ 58
HO 58
Helic@@ 58
IBM 58
Ideas 58
Influencing 58
LI 58
Lam@@ 58
Like 58
M3 58
Moisture 58
NGF 58
Narrative 58
PARAME@@ 58
PROBLEMS 58
Passive 58
Patho@@ 58
RICE 58
ROCK 58
Resp@@ 58
Retrieval 58
Rhy@@ 58
Shallow 58
Signals 58
Spiral 58
Star@@ 58
Stokes 58
Surg@@ 58
TY@@ 58
Tel@@ 58
Vapor 58
Zheng 58
abdomen 58
ade@@ 58
airborne 58
alanine 58
alfalfa 58
alian 58
amoun@@ 58
approxim@@ 58
arbo@@ 58
arision 58
assem@@ 58
asy 58
broadcasting 58
bub@@ 58
calculus 58
cali@@ 58
carbur@@ 58
centrifu@@ 58
composing 58
conju@@ 58
consider@@ 58
conten@@ 58
cos@@ 58
cough 58
crossed 58
cytos@@ 58
decisions 58
dementia 58
dike 58
din 58
discharging 58
disperse 58
edible 58
effected 58
ejection 58
electrocardi@@ 58
ells 58
endometrial 58
epilep@@ 58
extremity 58
father 58
favourable 58
femur 58
floccul@@ 58
foreground 58
forests 58
furn@@ 58
gered 58
germin@@ 58
gp@@ 58
harden@@ 58
heads 58
horizon 58
idae 58
ignored 58
inertial 58
integrative 58
inters 58
investor 58
journal 58
labor@@ 58
laminated 58
lasm 58
level@@ 58
logenetic 58
looked 58
manifested 58
mat 58
matical 58
maturation 58
maxillary 58
medicinal 58
mens 58
metap@@ 58
micron@@ 58
mite 58
neonates 58
neuronal 58
nificantly 58
oil@@ 58
orrh@@ 58
orts 58
pes@@ 58
pet@@ 58
phar@@ 58
pharmacokinetics 58
pic 58
pools 58
potent 58
prosperity 58
proven 58
rDNA 58
recei@@ 58
ror 58
sac 58
satellites 58
shower 58
sigma 58
sinus@@ 58
sives 58
ski@@ 58
slen@@ 58
spermat@@ 58
squeezing 58
stabilizing 58
statement 58
sticking 58
stopping 58
summarizing 58
survive 58
swine 58
symbol@@ 58
synap@@ 58
targeting 58
technic 58
thes 58
thyro@@ 58
tific 58
tit@@ 58
toe 58
tral 58
trics 58
ura 58
variability 58
velop 58
virulence 58
volcan@@ 58
watershed 58
wl 58
0.33 57
1.00 57
175 57
2O4 57
33.3 57
333 57
4.4 57
4C 57
99m 57
Buildings 57
CUL@@ 57
CaCO 57
Chro@@ 57
Clay 57
Cob@@ 57
Communic@@ 57
Conference 57
Contrast 57
DEM 57
Decoction 57
England 57
FIB@@ 57
GFP 57
GMP 57
Gate 57
Gl@@ 57
Guide 57
Gym@@ 57
HRT 57
HSP@@ 57
Hamilton 57
IDE 57
INING 57
Institutional 57
K2 57
LPO 57
MAL@@ 57
MAP@@ 57
MN@@ 57
Mechanics 57
Men@@ 57
Mutation 57
My 57
NING 57
Novels 57
PDA 57
PSK 57
Perme@@ 57
Pig 57
REACTION 57
Ram@@ 57
Regions 57
Represen@@ 57
Requirements 57
SOURCES 57
Satis@@ 57
Selecting 57
Sensitive 57
Shrin@@ 57
Sj@@ 57
Solar 57
Southeast 57
Spe@@ 57
Steady 57
Synthe@@ 57
THEORY 57
TK 57
There@@ 57
Thick 57
Tren@@ 57
Vessel 57
WER 57
Year 57
aber@@ 57
acid@@ 57
actuator 57
advertisement 57
agonist 57
ails 57
alcohol@@ 57
anal@@ 57
aneurysm 57
aquatic 57
arouses 57
artic@@ 57
artist 57
asymp@@ 57
atio 57
barrel 57
believe 57
braided 57
bud@@ 57
business@@ 57
buty@@ 57
buyer 57
carbohydrate 57
carbox@@ 57
cataract 57
cluding 57
coloring 57
comments 57
contributed 57
corpus 57
cryp@@ 57
currents 57
dance 57
decon@@ 57
defen@@ 57
dem@@ 57
deplo@@ 57
deprivation 57
dermal 57
deviations 57
discharged 57
eccentric 57
effecting 57
effusion 57
employee 57
enia 57
erb@@ 57
estuary 57
eve 57
eves 57
exceeded 57
exception 57
expon@@ 57
extern@@ 57
extinction 57
fif@@ 57
flask 57
foster 57
foun@@ 57
gue 57
ham 57
huang@@ 57
iNOS 57
icum 57
iens 57
intermedi@@ 57
invariant 57
issu@@ 57
itance 57
itive 57
izhou 57
jac@@ 57
jurisdiction 57
leave 57
leu@@ 57
metalloproteinase 57
metrical 57
minal 57
molybdenum 57
motility 57
needing 57
newsp@@ 57
nin@@ 57
odi@@ 57
ody 57
onical 57
options 57
orer 57
orities 57
ought 57
pharmacokinetic 57
preciation 57
providers 57
queue 57
rape 57
reagents 57
referring 57
refuse 57
reviewing 57
ri 57
ribs 57
ripe 57
robots 57
rolls 57
rooted 57
sciences 57
sep@@ 57
sharply 57
shielding 57
slabs 57
spective 57
sterility 57
subjectivity 57
teral 57
torial 57
try@@ 57
vane 57
vert 57
vertex 57
waterproof 57
wu 57
yle@@ 57
zhi 57
-10 56
15,@@ 56
5.1 56
8.8 56
ABC 56
AE@@ 56
ALLO@@ 56
BL 56
Bam@@ 56
Bit 56
Bul@@ 56
CHF 56
CLE@@ 56
Charge 56
Child 56
Clu@@ 56
Cognitive 56
Competitive 56
Coordination 56
Cr2@@ 56
Cul@@ 56
D. 56
DBP 56
Demand 56
Elec@@ 56
Equivalent 56
FCC 56
Fe2O3 56
GHT 56
Gener@@ 56
Guidance 56
HDPE 56
Hen@@ 56
Hom@@ 56
Imple@@ 56
Instruction 56
Intrac@@ 56
Ji 56
Ka@@ 56
Lamin@@ 56
Laws 56
MSC 56
Minimum 56
Modulation 56
Mono@@ 56
Neutral 56
ORE 56
ObjectiveTo 56
PHO@@ 56
PY@@ 56
Peak 56
Pot@@ 56
Proce@@ 56
RG@@ 56
Regularity 56
Reh@@ 56
Religious 56
Restoration 56
Reta@@ 56
SUB@@ 56
Songs 56
Sus@@ 56
TECHNOLOGY 56
TGF@@ 56
TREATMENT 56
TWO 56
TXB 56
Talk 56
Tro@@ 56
VT 56
WA 56
Wet 56
X2 56
Xin 56
Yun@@ 56
acci@@ 56
advocated 56
af 56
aggreg@@ 56
assaul@@ 56
assign 56
ateri@@ 56
attemp@@ 56
attracted 56
aval 56
best@@ 56
bog@@ 56
cale 56
capitalism 56
choices 56
clad 56
clinically 56
coccus 56
coded 56
comman@@ 56
comparable 56
compensating 56
con- 56
conceptions 56
confi@@ 56
continent 56
contradictions 56
conveniently 56
culturing 56
cyanide 56
cyste@@ 56
definitions 56
degraded 56
demo@@ 56
depres@@ 56
depths 56
diagen@@ 56
disputes 56
dwarf 56
ece 56
endothelium 56
enlarging 56
enteric 56
excision 56
experimentation 56
fairness 56
felt 56
fibrillation 56
field@@ 56
fish@@ 56
flour@@ 56
fracturing 56
gers 56
grouping 56
idase 56
illa 56
incremental 56
inducible 56
insulator 56
intering 56
intern@@ 56
interpersonal 56
itant 56
itz 56
ject 56
liquidity 56
local@@ 56
mend@@ 56
mers 56
metallurgical 56
monol@@ 56
mood 56
motorcycle 56
nations 56
near@@ 56
neo@@ 56
neur@@ 56
nonlinearity 56
norms 56
northwest 56
oked 56
oneself 56
opera 56
optics 56
osmotic 56
osper@@ 56
palae@@ 56
perce@@ 56
piv@@ 56
plantlets 56
pneum@@ 56
postoperatively 56
preferred 56
propor@@ 56
puncture 56
rebuilding 56
redundant 56
resisti@@ 56
restrictive 56
ringing 56
rud@@ 56
ruth@@ 56
salmon 56
sect 56
semic@@ 56
seri@@ 56
settle 56
shifts 56
shortening 56
silo 56
sinter 56
soft@@ 56
sovere@@ 56
steep 56
stepping 56
stipul@@ 56
straining 56
sulfon@@ 56
suppress 56
talented 56
tangent 56
tempered 56
tential 56
tery@@ 56
thickening 56
timely 56
titan@@ 56
typed 56
usive 56
vaginal 56
verbal 56
vere 56
versal 56
vious 56
vulner@@ 56
weaving 56
x2 56
yar@@ 56
ypical 56
-N 55
0.13 55
117 55
134 55
139 55
188 55
1970 55
330 55
52@@ 55
A549 55
AFM 55
APP 55
ATIONS 55
Aesthetics 55
Artery 55
Asset 55
BI 55
Bir@@ 55
Britain 55
C57BL 55
CAE 55
CHRO@@ 55
Carbon@@ 55
Cervical 55
Cheng@@ 55
Conve@@ 55
Corporate 55
CuO 55
DUC@@ 55
Dan@@ 55
Derivatives 55
Diseases 55
Dy 55
EH 55
Ear@@ 55
Estuary 55
Et@@ 55
Euler 55
Eur@@ 55
Event 55
Feeding 55
Fermentation 55
Finance 55
Folk 55
GI 55
GPRS 55
Guan@@ 55
Homo@@ 55
IM 55
Inher@@ 55
Institu@@ 55
King@@ 55
LAR@@ 55
Labor 55
Liao@@ 55
MCF 55
MET@@ 55
MFC 55
MRP 55
Mach@@ 55
Mc@@ 55
Meaning 55
Medic@@ 55
Mg2 55
Monitor 55
Num@@ 55
ORK 55
Os@@ 55
PGF 55
PRESSION 55
PW@@ 55
Pas@@ 55
Pic@@ 55
Pip@@ 55
Polymorph@@ 55
Prop@@ 55
Prospects 55
Quasi 55
RATE 55
RIS@@ 55
Rating 55
Reinforcing 55
Repairing 55
Replacement 55
Respon@@ 55
Sher@@ 55
Smith 55
Spectroscopy 55
Spot 55
Stand@@ 55
Subject 55
TIME 55
Totally 55
Tric@@ 55
U.S. 55
UE 55
UML 55
Vie@@ 55
WT 55
Without 55
abo@@ 55
advancing 55
alleviate 55
aly 55
analogue 55
anine 55
ano 55
apnea 55
apprais@@ 55
arrives 55
arse 55
artis@@ 55
attenuated 55
attribu@@ 55
bill 55
blow 55
boards 55
boat 55
bones 55
cann@@ 55
cel 55
che 55
chondro@@ 55
chun 55
cia 55
clearing 55
color@@ 55
concurrent 55
conditioned 55
config@@ 55
consci@@ 55
constructions 55
convert 55
conveying 55
courseware 55
cytochrome 55
decoder 55
decor@@ 55
demonstr@@ 55
depressed 55
destro@@ 55
dialectical 55
distinctly 55
dram@@ 55
e- 55
echan@@ 55
eder 55
edly 55
emitting 55
endonucle@@ 55
entially 55
eren@@ 55
exploiting 55
fect 55
ferroelectric 55
foods 55
fore 55
gaps 55
gastritis 55
glue 55
herence 55
homogeneity 55
honey@@ 55
ian@@ 55
icious 55
iliac 55
iliated 55
illus 55
instructional 55
interlayer 55
isother@@ 55
kang 55
kinson 55
lacks 55
landfill 55
lever 55
mM 55
movie 55
networking 55
opol@@ 55
orium 55
orly 55
otox@@ 55
outcomes 55
own@@ 55
perennial 55
perforation 55
polarized 55
precau@@ 55
pretreated 55
provider 55
punc@@ 55
pyrite 55
quinone 55
ras 55
reacts 55
redundancy 55
religi@@ 55
restaurant 55
restric@@ 55
retreat 55
sacrifice 55
saliva 55
sandstones 55
sapon@@ 55
scientific@@ 55
shortages 55
sitting 55
slicing 55
squee@@ 55
tainment 55
telecommunication 55
thelial 55
tol 55
tour 55
township 55
tracer 55
transmit@@ 55
triglycer@@ 55
tunneling 55
ultrastructure 55
urity 55
vacu@@ 55
vesi@@ 55
ylon 55
yun 55
zygo@@ 55
0.30 54
125@@ 54
160@@ 54
256 54
3B 54
8m 54
ACH@@ 54
ALP 54
ANN 54
Alkal@@ 54
Arc@@ 54
Archi@@ 54
Att@@ 54
BM 54
Behaviour 54
Brow@@ 54
CH4 54
CNTs 54
CaCl2 54
Cad@@ 54
Chicken 54
Cla@@ 54
Conclu@@ 54
Dop@@ 54
ELECTRO@@ 54
EPO 54
EXTR@@ 54
Efficient 54
Evidence 54
FINITE 54
FRP 54
Fifty 54
Fluor@@ 54
Garden 54
Gray 54
HU 54
Half 54
Hep@@ 54
Hepat@@ 54
Hi 54
IPC 54
ISM 54
Intranet 54
Jing 54
Link 54
MCM 54
METAL 54
MIP 54
MOS 54
MPLS 54
Mang@@ 54
NONLINEAR 54
OG@@ 54
Personal 54
Pollu@@ 54
Prin@@ 54
Program@@ 54
Psychology 54
Ra 54
Reser@@ 54
Respiratory 54
SAP@@ 54
STO@@ 54
Satur@@ 54
Schol@@ 54
Serial 54
Settlement 54
Spectro@@ 54
Sport 54
Stable 54
Statistics 54
Tak@@ 54
Town 54
VARI@@ 54
VCAM 54
Wood 54
aberration 54
accoun@@ 54
acetonitrile 54
agarose 54
allow@@ 54
anase 54
aneurysms 54
anolic 54
antitumor 54
aroused 54
astr@@ 54
atable 54
auth@@ 54
beat 54
bird 54
bite 54
bun@@ 54
burned 54
buta@@ 54
chloroform 54
cis 54
cisplatin 54
connec@@ 54
considerably 54
correc@@ 54
creatinine 54
debugging 54
deformed 54
del 54
desired 54
deterioration 54
dise@@ 54
disinf@@ 54
dit 54
dolom@@ 54
domes@@ 54
enter@@ 54
essenti@@ 54
esterification 54
etics 54
eties 54
evap@@ 54
expansive 54
ferrous 54
fertiliz@@ 54
fewer 54
fil 54
floc@@ 54
foci 54
fum@@ 54
glac@@ 54
glasses 54
grammar 54
haem@@ 54
horiz@@ 54
icant 54
immunological 54
import@@ 54
indirectly 54
initis 54
inserting 54
intends 54
itri@@ 54
later@@ 54
leaders 54
loader 54
locally 54
mainland 54
mete@@ 54
moved 54
nap@@ 54
negl@@ 54
nephropathy 54
noble 54
nurse 54
obium 54
ocardi@@ 54
ologous 54
originally 54
overload 54
ovi@@ 54
peculiar 54
pedagog@@ 54
phosphor 54
platinum 54
poet 54
probing 54
protein@@ 54
ps@@ 54
pulling 54
pyri@@ 54
raph@@ 54
reacting 54
saves 54
scul@@ 54
sealed 54
secti@@ 54
seizure 54
send 54
sensiti@@ 54
shrub 54
sil 54
silk@@ 54
splenic 54
stap@@ 54
stranded 54
stuff@@ 54
subsequently 54
subtropical 54
sulphate 54
suring 54
sym@@ 54
symbols 54
thermodynamics 54
tivism 54
toph@@ 54
transceiver 54
twisting 54
typh@@ 54
ucli@@ 54
uity 54
uniqueness 54
updating 54
ushan 54
vable 54
vincial 54
0.18 53
0.22 53
0.50 53
0.53 53
110@@ 53
116 53
2,2 53
204 53
270 53
3.9 53
301 53
5.0@@ 53
51.@@ 53
58@@ 53
6.3 53
60s 53
66.7 53
71.@@ 53
8.1 53
8.7 53
ACH 53
ADC 53
AW@@ 53
Antarc@@ 53
Arm 53
Av@@ 53
Beams 53
Beginning 53
Bottom 53
Brassica 53
CY 53
Care 53
Closed 53
Container 53
Crac@@ 53
DIFFERENT 53
Deposition 53
Ech@@ 53
Eco 53
Effectiveness 53
Electrochemical 53
Es 53
F3 53
FN 53
Fe3 53
Fibro@@ 53
Flat 53
GRO@@ 53
GST@@ 53
Ho 53
Hp 53
Imag@@ 53
Jia@@ 53
Joints 53
Journal 53
LM 53
Len@@ 53
Lit@@ 53
MCAO 53
MCs 53
MECHAN@@ 53
Marrow 53
Matching 53
Modernization 53
NW 53
Nin@@ 53
OL 53
OpenGL 53
Optimizing 53
PGE 53
PHOTO@@ 53
PRESSURE 53
Pu 53
Rise 53
SIGN@@ 53
STRUCT@@ 53
STS 53
Scho@@ 53
Seven@@ 53
Shenyang 53
Shipping 53
Simultaneously 53
Situ@@ 53
Term 53
Tom@@ 53
UND@@ 53
Upon 53
Xiamen 53
aboration 53
abutment 53
affective 53
akage 53
algebras 53
alit@@ 53
alkyl 53
allowable 53
ally@@ 53
alternating 53
anox@@ 53
apatite 53
argon 53
ascend 53
azone 53
ballo@@ 53
bax 53
brilli@@ 53
caro@@ 53
cess 53
cine 53
classify 53
coc@@ 53
common@@ 53
compressible 53
correctness 53
crushing 53
dead@@ 53
ded@@ 53
diaphragm 53
diathesis 53
ding@@ 53
dissip@@ 53
distress 53
dn 53
doma 53
drivers 53
dys@@ 53
ectors 53
ei 53
electrons 53
eller 53
emph@@ 53
emphasizing 53
enrolled 53
epider@@ 53
erection 53
esophagus 53
etin 53
evaluates 53
examines 53
exci@@ 53
exercis@@ 53
fab@@ 53
ffer 53
flange 53
ghts 53
horse 53
hydride 53
hydrological 53
ice@@ 53
industri@@ 53
insects 53
interrupt 53
itations 53
ite@@ 53
junc@@ 53
kA 53
kno@@ 53
launched 53
ligated 53
liquefaction 53
lubricating 53
lus@@ 53
macy 53
market@@ 53
medy 53
membered 53
metallurgy 53
minimize 53
modernity 53
modular 53
nee 53
objectively 53
oes 53
oglobulin 53
oplas@@ 53
orderly 53
ored 53
osco@@ 53
oscopic 53
parental 53
perfectly 53
performs 53
permeable 53
pero@@ 53
posal 53
pseudo@@ 53
qin 53
rapeseed 53
reas@@ 53
reflective 53
refraction 53
relieving 53
rendering 53
renew 53
repu@@ 53
reside 53
resume 53
retailer 53
revo@@ 53
ridor 53
rigidi@@ 53
sadness 53
sands 53
scientists 53
secreted 53
self@@ 53
semigroup 53
shen 53
signal@@ 53
significant@@ 53
singl@@ 53
spite 53
stments 53
stratified 53
subcutaneously 53
subgroups 53
synthesizing 53
tape 53
tear 53
thir@@ 53
topics 53
transcri@@ 53
translating 53
ulae 53
uly 53
umbar 53
utting 53
vast 53
volun@@ 53
wea@@ 53
wisdom 53
won 53
yalty 53
ylate 53
ylated 53
yma 53
zircon 53
1.4@@ 52
2,3 52
2,4,@@ 52
2,6 52
350@@ 52
5- 52
7.6 52
81.@@ 52
ACT@@ 52
Af@@ 52
BUN 52
BW 52
Bamboo 52
Bragg 52
C6@@ 52
CA1 52
Candida 52
Capability 52
Companies 52
Consequently 52
Cooperative 52
D2 52
Description 52
Dynam@@ 52
EPDM 52
FER@@ 52
Fourth 52
GOLD 52
Gram 52
Hai@@ 52
Hall 52
Hand 52
Home 52
Hous@@ 52
Hun@@ 52
IQ 52
Inno@@ 52
Inquiry 52
Inv@@ 52
Issue 52
JI@@ 52
Jur@@ 52
King 52
Lagrange 52
Last 52
Liu 52
METR@@ 52
MINE 52
MVD 52
MY@@ 52
Modern@@ 52
NF@@ 52
Nine 52
P2@@ 52
P3 52
PAL 52
PCM 52
PDM 52
PLE 52
Plan@@ 52
Pow@@ 52
Rabbit 52
Reactive 52
Relief 52
Removing 52
Restriction 52
Roles 52
SAT 52
SMS 52
Significant 52
Son@@ 52
St 52
Switch 52
Syste@@ 52
TIONAL 52
TSP 52
Text 52
Thi@@ 52
Tooth 52
Ultra 52
Ventilation 52
Zhuang 52
absorbent 52
abuse 52
accomplishment 52
accords 52
accumulating 52
alling 52
amyloid 52
animation 52
anomalous 52
antim@@ 52
aristoc@@ 52
armo@@ 52
assimilation 52
assist 52
aves 52
azim@@ 52
boilers 52
bolting 52
bottle 52
careful 52
cargo 52
cef@@ 52
cementation 52
chored 52
cology 52
colors 52
communicating 52
consolidated 52
contradic@@ 52
conveyor 52
coron@@ 52
correspondingly 52
creditor 52
cruc@@ 52
cysts 52
defl@@ 52
deform@@ 52
degenerate 52
deteri@@ 52
disclos@@ 52
dispers@@ 52
diversified 52
drop@@ 52
droplet 52
dyl@@ 52
election 52
embolism 52
ence@@ 52
epic@@ 52
estrogen 52
exam 52
exercises 52
fa 52
fail 52
ferences 52
fibri@@ 52
fibrous 52
fly@@ 52
founding 52
freely 52
gang 52
gasification 52
gels 52
geochemistry 52
grams 52
graphical 52
hatching 52
hemor@@ 52
hep@@ 52
herent 52
hit 52
hypertrophic 52
inbred 52
infringement 52
irrigated 52
ishes 52
king@@ 52
labelled 52
laparoscopic 52
lyco@@ 52
mar 52
mas 52
mask 52
matism 52
meantime 52
medic@@ 52
menis@@ 52
mor 52
mort@@ 52
mutually 52
myopia 52
nasopharyngeal 52
nationalities 52
neous 52
neutroph@@ 52
nific@@ 52
non- 52
observ@@ 52
occupies 52
onous 52
operatively 52
osteoporosis 52
outh 52
parallel@@ 52
periodical 52
phosphorylation 52
plications 52
prag@@ 52
premium 52
proj@@ 52
protop@@ 52
pub@@ 52
queu@@ 52
quotient 52
reflectivity 52
remedi@@ 52
repen@@ 52
report@@ 52
rheumatoid 52
rifamp@@ 52
roentgen@@ 52
rub 52
scheduled 52
securitization 52
seismo@@ 52
senti@@ 52
shar@@ 52
shoo@@ 52
solder 52
staglandin 52
stants 52
sters 52
stness 52
subset 52
supplementary 52
tides 52
tune 52
ulmonary 52
ultr@@ 52
urge 52
wood@@ 52
0.17 51
260 51
3m 51
6.6 51
700@@ 51
AAS 51
ACK@@ 51
Accor@@ 51
Associ@@ 51
Bax 51
Behaviors 51
Bene@@ 51
Bil@@ 51
Brown 51
Bu 51
C4@@ 51
CELL 51
CHO 51
Cover 51
Cultured 51
Descri@@ 51
Dic@@ 51
Division 51
Epi@@ 51
FBG 51
FLA@@ 51
Fore@@ 51
Forecasting 51
Fran@@ 51
Gluco@@ 51
Guang@@ 51
HCMV 51
IEN@@ 51
INT 51
ISI 51
Ideology 51
Invol@@ 51
Ko@@ 51
LAN@@ 51
Logistics 51
M.@@ 51
MER@@ 51
MRA 51
Map@@ 51
Moment 51
Mongolian 51
Mr@@ 51
NBR 51
NC@@ 51
Nerve 51
PMMA 51
Poems 51
Prote@@ 51
RAL 51
Rabbits 51
Resonance 51
Revenue 51
S7 51
SIV 51
Shoot 51
Slip 51
Socialist 51
Sou@@ 51
Spl@@ 51
Strengthen 51
Summary 51
Transduction 51
Vehicles 51
WHO 51
acceptor 51
acetyl 51
adow 51
ales 51
allow 51
ancer 51
anhydride 51
anthrop@@ 51
apart 51
appraise 51
ascorbic 51
assumptions 51
atell@@ 51
atical 51
atories 51
automated 51
bankruptcy 51
cabbage 51
case@@ 51
cept 51
chemically 51
coagulant 51
compactness 51
crushed 51
dao 51
databases 51
defining 51
dens 51
detectable 51
dg@@ 51
diagn@@ 51
dialdehyde 51
dii 51
dipping 51
dul@@ 51
duodenal 51
eigenvalue 51
embody 51
employs 51
encourage 51
enrich 51
essentially 51
excell@@ 51
exclusive 51
excre@@ 51
fare 51
fell 51
fetus 51
flam@@ 51
frac@@ 51
generalize 51
gi 51
glob@@ 51
gluc@@ 51
glycine 51
granularity 51
habitat 51
haul 51
helping 51
herbal 51
hospitalized 51
ht 51
immunos@@ 51
incre@@ 51
inevitably 51
inium 51
inland 51
interrup@@ 51
intervertebral 51
isted 51
kappa 51
keV 51
ketone 51
lem@@ 51
lex 51
lieren 51
lump 51
lysine 51
marri@@ 51
metaphor 51
mobilization 51
mosaic 51
moti@@ 51
myco@@ 51
nes@@ 51
niture 51
olus 51
omagnetic 51
pathogens 51
paving 51
peculi@@ 51
pellet 51
pesticides 51
pests 51
philosoph@@ 51
phoon 51
piano 51
player 51
practicality 51
proceeding 51
proteinase 51
quarter 51
races 51
reciprocal 51
rectification 51
recycled 51
reductase 51
relics 51
reline 51
repeats 51
repres@@ 51
returning 51
ristics 51
rubbing 51
rumen 51
salting 51
saphenous 51
sat 51
scored 51
scrap 51
shake 51
showed@@ 51
significantly@@ 51
silence 51
simple@@ 51
sities 51
smallest 51
songs 51
soph@@ 51
sour@@ 51
stroph@@ 51
sufficiently 51
suited 51
suits 51
superposition 51
tables 51
terminals 51
terro@@ 51
tetrac@@ 51
throm@@ 51
time@@ 51
tiness 51
trade@@ 51
tribution 51
trol 51
udation 51
veling 51
vi 51
website 51
ylo@@ 51
zi@@ 51
α1 51
Ⅰand 51
0.11 50
0.999 50
10mm 50
1976 50
2CO 50
3,5 50
4A 50
59@@ 50
62@@ 50
72h 50
AH 50
ATRA 50
Agreement 50
Analyse 50
Assignment 50
BASIN 50
BCG 50
BEHAVI@@ 50
BLO@@ 50
BOUNDARY 50
Beer 50
Brake 50
CHANG@@ 50
COL@@ 50
Carboniferous 50
Cardi@@ 50
Chu 50
Contr@@ 50
Crop 50
Cylindrical 50
DUCED 50
Def@@ 50
Desert 50
Drainage 50
Du 50
Dun@@ 50
February 50
Filled 50
Floor 50
GROUND 50
HFC 50
IB 50
ISA 50
ISP 50
ITO 50
Institution 50
Inver@@ 50
Isot@@ 50
Jump 50
LIQUID 50
LVE@@ 50
Lag@@ 50
Lewis 50
MDR 50
METH@@ 50
Metast@@ 50
Milk 50
Missile 50
Mold 50
NETW@@ 50
Neo 50
Ns 50
Nutrition 50
ORS 50
Os 50
PBS 50
Pap@@ 50
Pass 50
Pole 50
R. 50
RELATION 50
Retaining 50
Rit@@ 50
SAR@@ 50
SCI 50
Scan 50
Schedule 50
Sco@@ 50
Sets 50
Sewage 50
Sun@@ 50
Tendency 50
Tou@@ 50
Transformer 50
WBC 50
Zhen@@ 50
absc@@ 50
accessing 50
aceful 50
acryl@@ 50
adenoma 50
adventitious 50
afer 50
algebraic 50
aline 50
amid@@ 50
andering 50
arn 50
artesian 50
beach 50
bedding 50
billion 50
biodegrad@@ 50
bir@@ 50
bottleneck 50
bread@@ 50
breakage 50
capitalist 50
cardiop@@ 50
cards 50
castings 50
cavitation 50
cession 50
cher@@ 50
choline 50
classifying 50
code@@ 50
coder 50
combat 50
comfortable 50
condensed 50
conducts 50
conjugated 50
conjunc@@ 50
cornea 50
cou@@ 50
cript 50
crosses 50
deepen 50
deficit 50
descent 50
designated 50
detailedly 50
distant 50
divergence 50
editing 50
ee@@ 50
ele 50
elle 50
emulation 50
erebral 50
exceeding 50
explant 50
exual 50
facilit@@ 50
flan@@ 50
flavonoids 50
fluence 50
foot@@ 50
fron@@ 50
gaseous 50
geny 50
gestational 50
gium 50
gor@@ 50
gravimetric 50
hosted 50
hydrophobic 50
hysi@@ 50
iliary 50
imagination 50
impaired 50
inequalities 50
ingot 50
ingredients 50
inhal@@ 50
intended 50
interpret 50
interven@@ 50
intraper@@ 50
intravenously 50
inus 50
invest 50
isom@@ 50
jects 50
jejun@@ 50
kinematic 50
knot 50
landing 50
lay@@ 50
life@@ 50
limation 50
literacy 50
ln 50
manufacturer 50
mechanic 50
meta@@ 50
metac@@ 50
mically 50
micron 50
mill@@ 50
motions 50
multin@@ 50
neys 50
nm23 50
novel@@ 50
obstruc@@ 50
ograph@@ 50
oking 50
orifice 50
oupl@@ 50
overhead 50
oxygenation 50
parench@@ 50
pcDNA3.1 50
phenols 50
photocatalytic 50
pm 50
poetics 50
porcine 50
power@@ 50
practicability 50
practicable 50
princip@@ 50
promo@@ 50
proposition 50
propyl 50
purch@@ 50
pyrid@@ 50
rafts 50
random@@ 50
recrystallization 50
relapsing 50
remain@@ 50
remember 50
repor@@ 50
resis@@ 50
respectivel@@ 50
respondents 50
resuscitation 50
retina 50
retrograde 50
reversing 50
rotic 50
rox@@ 50
rs@@ 50
sativa 50
scenery 50
scep@@ 50
schol@@ 50
selects 50
signifi@@ 50
slan@@ 50
sof@@ 50
soldiers 50
stimulus 50
stock@@ 50
strength@@ 50
succeeded 50
surveys 50
tach@@ 50
tam 50
tels 50
tensor 50
tera 50
terpen@@ 50
tha 50
tonic 50
trail 50
trapping 50
tunnels 50
uctu@@ 50
utter 50
vise 50
washed 50
watering 50
week@@ 50
wetting 50
wic@@ 50
zhong 50
zona 50
zygous 50
Ⅱ.@@ 50
-0.@@ 49
0.16 49
10cm 49
156 49
205 49
53@@ 49
63@@ 49
72@@ 49
76@@ 49
89C51 49
ACT 49
AV 49
AngⅡ 49
Apprais@@ 49
Asn 49
Big 49
Blu@@ 49
Break@@ 49
Bron@@ 49
Bulk 49
COP@@ 49
Chem@@ 49
Confuc@@ 49
Crude 49
Derived 49
ECM 49
Ed@@ 49
Excel 49
Exha@@ 49
Expressions 49
FL 49
Forces 49
GO 49
Hilbert 49
IZ@@ 49
Income 49
Isl@@ 49
Layout 49
Liquor 49
Lyapunov 49
MMP@@ 49
Moun@@ 49
Nation@@ 49
Ordovician 49
PAHs 49
PCB 49
Person@@ 49
Projects 49
Qinling 49
Recti@@ 49
Regarding 49
Relev@@ 49
Resul@@ 49
SIL 49
SIP 49
SIR 49
SUPER@@ 49
Semic@@ 49
Sheng 49
Shigella 49
TUNEL 49
Tele@@ 49
Tit@@ 49
WM 49
Wavelength 49
Wild 49
ZY@@ 49
Zi@@ 49
Zn2 49
abbre@@ 49
adol@@ 49
aerial 49
aeruginosa 49
amen 49
anisot@@ 49
apex 49
apical 49
archives 49
ard@@ 49
athlete 49
atically 49
ativity 49
authorities 49
averagely 49
bai 49
ball@@ 49
balls 49
barium 49
batteries 49
believes 49
biotic 49
bituminous 49
borehole 49
breeds 49
brine 49
brush 49
categ@@ 49
cau@@ 49
certainty 49
cham@@ 49
chen 49
collateral 49
communicative 49
compensated 49
congestive 49
congru@@ 49
connects 49
cooler 49
cosine 49
dairy 49
damp 49
damp@@ 49
deration 49
dil@@ 49
dilat@@ 49
dispersing 49
dong 49
dosages 49
duplic@@ 49
dwelling 49
elihood 49
endotoxin 49
engaged 49
enric@@ 49
entation 49
enviro@@ 49
escape 49
estnut 49
etes 49
eto@@ 49
expati@@ 49
feet 49
flexi@@ 49
fluidity 49
fuze 49
geted 49
grids 49
guarantees 49
haplo@@ 49
health@@ 49
hemodialysis 49
herbs 49
humor 49
hysteresis 49
ight@@ 49
ild 49
imagery 49
in- 49
inders 49
individually 49
inherited 49
inhibits 49
inspecting 49
investing 49
irments 49
jecti@@ 49
jejunostomy 49
ki@@ 49
kne@@ 49
leisure 49
lithology 49
manif@@ 49
manipulator 49
mantics 49
masonry 49
math 49
meas@@ 49
meshing 49
metamorphism 49
modernized 49
moments 49
morning 49
moulding 49
movable 49
multilayer 49
multiplic@@ 49
negoti@@ 49
neurological 49
officials 49
omat@@ 49
ond 49
opy@@ 49
parin 49
participants 49
periphery 49
pits 49
polymer@@ 49
precious 49
proving 49
reas 49
rece@@ 49
regres@@ 49
repeatedly 49
replicating 49
req@@ 49
resembl@@ 49
resistence 49
resuscit@@ 49
retrospective 49
riage 49
rugated 49
sack 49
scaffold 49
scavenging 49
scouring 49
seg@@ 49
serves 49
shocked 49
shu 49
shutter 49
sidase 49
sketched 49
sp.@@ 49
straint 49
supplementation 49
symbolic 49
telecom 49
thous@@ 49
tia 49
tibial 49
toll 49
tomatic 49
understood 49
univers@@ 49
vian 49
vulgaris 49
weaker 49
weave 49
weighing 49
which@@ 49
wo 49
yr 49
ystyrene 49
Φ 49
ψ 49
----@@ 48
0.95 48
100ml 48
11.1 48
138 48
147 48
151 48
164 48
166 48
16S 48
199 48
2.8@@ 48
203 48
290 48
293 48
4.5@@ 48
5.7 48
7901 48
8.9 48
9.6 48
ALI 48
AQ@@ 48
ASI 48
ATA 48
AUC 48
Alcohol 48
Amount 48
Atmospheric 48
BGP 48
CELLS 48
CPE 48
Colli@@ 48
Conservation 48
Crime 48
DMEM 48
Defect 48
Discrete 48
Dra@@ 48
Driven 48
ELE@@ 48
ENG@@ 48
EU 48
Engine@@ 48
Establish 48
Foot@@ 48
Freedom 48
G0 48
HZ 48
HeLa 48
Hybri@@ 48
Incre@@ 48
India 48
Introduces 48
It@@ 48
Lang@@ 48
Living 48
MATION 48
MAX@@ 48
NAT@@ 48
NOx 48
Near 48
ONS 48
Online 48
Option 48
PZT 48
Pearl 48
Pi 48
Prepared 48
Pure 48
ROI 48
Recon@@ 48
Recur@@ 48
Regeneration 48
Relaxation 48
Rele@@ 48
Remo@@ 48
Return 48
Rever@@ 48
SOC 48
Sharing 48
Shooting 48
Sit@@ 48
Skills 48
Slurry 48
Spd 48
Spectrophotometry 48
Spi@@ 48
Stim@@ 48
Story 48
Sugar 48
TGA 48
TNF@@ 48
TRAIL 48
TRANS@@ 48
Turbo 48
VHDL 48
Var@@ 48
View@@ 48
Was@@ 48
Xiao@@ 48
ZSM 48
abdom@@ 48
abilistic 48
acia 48
acidification 48
acteri@@ 48
acuity 48
adic@@ 48
admixture 48
advertising 48
agronomic 48
alties 48
amethasone 48
amming 48
amphi@@ 48
antimicrobial 48
aren@@ 48
argument 48
armed 48
arriving 48
asce@@ 48
ascertained 48
asm 48
asphyxia 48
astroph@@ 48
ationof 48
atonin 48
attenu@@ 48
bach 48
backup 48
bad@@ 48
bation 48
bery 48
between@@ 48
billet 48
biore@@ 48
bowel 48
brach@@ 48
breaker 48
calling 48
cancerous 48
cerebrovascular 48
certification 48
cha@@ 48
changeable 48
chose 48
cin 48
cise 48
coal@@ 48
cocoon 48
copies 48
couldn 48
cow 48
curtain 48
dates 48
decade 48
deduction 48
deno@@ 48
depletion 48
depri@@ 48
desulfur@@ 48
discipl@@ 48
discrep@@ 48
distill@@ 48
duoden@@ 48
edy 48
endoc@@ 48
essive 48
exploit 48
fang 48
fel@@ 48
fighting 48
finger@@ 48
firewall 48
flag 48
flushing 48
fouling 48
getic 48
gging 48
globin 48
granulation 48
ground@@ 48
grounding 48
grow@@ 48
gyro 48
hemisphere 48
hesive 48
horn 48
hosts 48
house@@ 48
hydrolyzed 48
icing 48
icol@@ 48
ifying 48
immunocyto@@ 48
impossible 48
inic 48
interfere 48
intramus@@ 48
iso 48
isotropic 48
istem@@ 48
journals 48
lemma 48
liberation 48
loos@@ 48
malon@@ 48
measu@@ 48
merged 48
mitogen 48
mits 48
modernist 48
mycin 48
nanocrystalline 48
nephro@@ 48
niche 48
observational 48
oman 48
opathic 48
opathological 48
osmosis 48
oster 48
ours 48
ov 48
oxid@@ 48
pU@@ 48
particulate 48
past@@ 48
pay@@ 48
pays 48
perpendicular 48
pi 48
prognostic 48
prolifer@@ 48
propyl@@ 48
provisions 48
purifying 48
quit@@ 48
rap 48
reposi@@ 48
retard@@ 48
ried 48
rubble 48
sacrificed 48
sell 48
shop@@ 48
simplifies 48
siph@@ 48
sixteen 48
smear 48
sorting 48
sory 48
spiration 48
sputum 48
sta 48
starter 48
steroid 48
stol@@ 48
stopped 48
sulphuric 48
summar@@ 48
supposed 48
supr@@ 48
survivin 48
suspected 48
tatives 48
tenosis 48
territ@@ 48
tibia 48
tobacillus 48
trab@@ 48
treas@@ 48
tri 48
tum 48
ulating 48
urement 48
urethane 48
ushed 48
validate 48
validated 48
vice 48
vo 48
worthy 48
Σ 48
μC 48
0.34 47
0.36 47
0.40 47
1,2,4 47
114 47
14th 47
158 47
180@@ 47
1949 47
1C 47
1D 47
225 47
480 47
54@@ 47
78@@ 47
8.2 47
8.3 47
9.1 47
ACC 47
Ach@@ 47
Adhesion 47
Amorphous 47
BASIC 47
Bai 47
Binary 47
CONSTRUCTION 47
CRF 47
CTAB 47
CTL 47
CTX 47
Cab@@ 47
Cheng 47
Commerce 47
Conflict 47
Court 47
CsA 47
D3 47
DMA 47
Diversity 47
Don@@ 47
Dro@@ 47
Duc@@ 47
EQUATION 47
ESTI@@ 47
EVALUATION 47
Errors 47
FACTORS 47
FICATION 47
FUNCTION 47
FasL 47
Fly 47
Fundamental 47
Gel@@ 47
Granger 47
HP@@ 47
Healthy 47
IEC 47
Immuno@@ 47
Introduc@@ 47
Iter@@ 47
Job 47
LEC@@ 47
Liber@@ 47
Lining 47
MES 47
MMSE 47
MTX 47
Members 47
Metro 47
NSCLC 47
Objects 47
PPAR@@ 47
PRELIMINARY 47
PSA 47
Planting 47
Px 47
Quanti@@ 47
RAY 47
RING 47
Recor@@ 47
Reduc@@ 47
Regulatory 47
Richards 47
Rig@@ 47
Rocks 47
Routing 47
SINS 47
SQ@@ 47
Schwar@@ 47
Score 47
Sites 47
Squ@@ 47
T2WI 47
U.S.@@ 47
Vc 47
Wan@@ 47
Yong@@ 47
Yor@@ 47
Zealand 47
Zhu 47
aca 47
acces@@ 47
access@@ 47
accor@@ 47
aders 47
adsorbent 47
ady 47
agglutination 47
aint 47
aion 47
aked 47
angial 47
anim@@ 47
anol@@ 47
aphy@@ 47
arean 47
arising 47
arose 47
arousal 47
aspart@@ 47
astragal@@ 47
atro@@ 47
atrophy 47
aureus 47
ave 47
bandry 47
beet 47
biofilm 47
brian 47
cables 47
care@@ 47
cate@@ 47
cementing 47
charts 47
chooses 47
cil 47
clastic 47
clauses 47
comment 47
competing 47
compress 47
concentrating 47
continual 47
contrasting 47
cool@@ 47
corresponds 47
defence 47
denture 47
depended 47
dialec@@ 47
diction 47
dimen@@ 47
dingly 47
directors 47
disciplinary 47
disinfection 47
distin@@ 47
diversification 47
dm 47
doctors 47
dylo@@ 47
earnings 47
ec 47
echip 47
elbow 47
embry@@ 47
enthalpy 47
eus 47
eventually 47
ever@@ 47
exchanging 47
exciting 47
exis@@ 47
ext 47
ferential 47
fifty 47
filed 47
fir 47
fluxes 47
football 47
frontier 47
genetics 47
geophysical 47
gover@@ 47
happen 47
haz@@ 47
hepatocyte 47
herni@@ 47
humane 47
icians 47
iliation 47
imperfect 47
incorpor@@ 47
internation@@ 47
interrelated 47
iru@@ 47
ki 47
lamina 47
lati@@ 47
light@@ 47
linguistics 47
llation 47
m. 47
mand 47
maneuvering 47
measur@@ 47
medicines 47
merging 47
meridi@@ 47
minu@@ 47
missing 47
ml@@ 47
modulated 47
moves 47
multiplex 47
nea 47
neis@@ 47
noises 47
nosis 47
ologists 47
onian 47
onomic 47
opus 47
orna@@ 47
oscope 47
overcoming 47
palladium 47
peace 47
pear 47
pelvis 47
peridone 47
perovskite 47
pipelines 47
pots 47
preci@@ 47
preme 47
progesterone 47
proportions 47
prosthesis 47
proven@@ 47
purify 47
quota 47
relies 47
renov@@ 47
require@@ 47
resolves 47
resumed 47
retarded 47
revolving 47
rhizomes 47
rised 47
rounded 47
scholar@@ 47
sensibility 47
shadow 47
shells 47
shine 47
simpler 47
solidified 47
solids 47
solitary 47
solvable 47
sounding 47
spirits 47
stagnation 47
strate 47
structur@@ 47
tangential 47
tar 47
tch 47
tectonics 47
tender 47
tened 47
tens 47
thecon@@ 47
therap@@ 47
thromb@@ 47
thym@@ 47
thymus 47
tilt 47
toplankton 47
transc@@ 47
tremendous 47
tubercul@@ 47
turbed 47
turnover 47
typing 47
unt 47
usting 47
utation 47
utions 47
vegetative 47
viability 47
vising 47
vival 47
vivid 47
wastes 47
wavelengths 47
weighting 47
zapine 47
0.31 46
0.38 46
03@@ 46
1.9@@ 46
14.5 46
140@@ 46
157 46
1970s 46
226 46
263 46
4mg 46
91.@@ 46
ADAMS 46
ALB 46
ART 46
Altern@@ 46
Ammon@@ 46
Beauty 46
CCK 46
CCP 46
CHAR@@ 46
CPLD 46
Circulating 46
Clus@@ 46
Colour 46
Comb@@ 46
Comments 46
Consolidation 46
Cp 46
Cup 46
DIC@@ 46
Daily 46
Defense 46
Deter@@ 46
Disk 46
EFFIC@@ 46
ENVIRON@@ 46
EPS 46
Econom@@ 46
Extension 46
FDG 46
FGF 46
FI 46
Fe2 46
Fibre 46
Fif@@ 46
Filtering 46
Fish 46
Flux 46
Forestry 46
Fox@@ 46
Gd@@ 46
Given 46
Gradient 46
Gri@@ 46
Gs 46
H7 46
Ice 46
Inter 46
Introduce 46
Kinem@@ 46
LAYER 46
Legis@@ 46
Lie 46
Ln 46
MATIC 46
MENT@@ 46
MK@@ 46
Migration 46
Milling 46
Mould 46
Mpa 46
Mu 46
N2O 46
NOR@@ 46
O157 46
Overall 46
PERFORMANCE 46
Proof 46
RBAC 46
RNAs 46
Reson@@ 46
Roots 46
SAL@@ 46
SET 46
SMMC 46
STABILITY 46
Sandy 46
Scholar 46
Securities 46
Seedlings 46
Sign@@ 46
Skel@@ 46
Sor@@ 46
Spread 46
Switching 46
TCR 46
TP@@ 46
TRO@@ 46
TiN 46
Tol@@ 46
Tow@@ 46
Variety 46
Wide 46
Words 46
XI@@ 46
Zero 46
Zi 46
abrasive 46
accessory 46
acchar@@ 46
acious 46
acqui@@ 46
addle 46
administrated 46
ammon@@ 46
antennas 46
anthrac@@ 46
appreci@@ 46
arbital 46
ares 46
ari 46
arians 46
arma@@ 46
artifacts 46
asion 46
aspartic 46
assa@@ 46
assimilated 46
associative 46
atability 46
atching 46
atico@@ 46
atrium 46
attacking 46
augh@@ 46
battle 46
bulb 46
calcined 46
causality 46
cerebel@@ 46
childhood 46
colon@@ 46
coma 46
compartment 46
comprised 46
conjec@@ 46
conjunction 46
crac@@ 46
cryop@@ 46
damper 46
declining 46
demodulation 46
deployment 46
deposi@@ 46
detectors 46
dich@@ 46
disappearance 46
dispatch 46
disturbed 46
diurnal 46
dl 46
doctor 46
dress 46
effec@@ 46
elder 46
elective 46
elevator 46
emulsification 46
encryp@@ 46
epage 46
epidemiological 46
epo@@ 46
eps 46
etus 46
exin 46
explaining 46
eye@@ 46
failures 46
femin@@ 46
ferri@@ 46
fide 46
follow@@ 46
g. 46
glaucoma 46
gras@@ 46
handed 46
hanging 46
hazards 46
helium 46
here@@ 46
hernia 46
hexagonal 46
honesty 46
hyperbolic 46
ient 46
immobil@@ 46
impeller 46
incl@@ 46
inductive 46
inking 46
inspiration 46
insulating 46
interpreting 46
introduc@@ 46
istocene 46
je@@ 46
jie 46
label 46
larva 46
last@@ 46
lessness 46
lethal 46
longest 46
lytic 46
mand@@ 46
maritime 46
meaningful 46
metering 46
methoxy@@ 46
mined 46
missible 46
myocardi@@ 46
nate 46
newborns 46
ni 46
nian 46
nutri@@ 46
obenz@@ 46
omal@@ 46
onable 46
oncogene 46
onia 46
onin 46
ophthal@@ 46
opsis 46
orchard 46
origins 46
oscillating 46
oso@@ 46
otation 46
overexpression 46
overlapping 46
oxal@@ 46
oxygenase 46
pcDNA3 46
pector@@ 46
periodon@@ 46
pers@@ 46
ph 46
pharyngeal 46
phenolic 46
plexing 46
ply@@ 46
popularity 46
promis@@ 46
pron@@ 46
pros@@ 46
prosecution 46
pulverized 46
qualit@@ 46
ques 46
rect@@ 46
reflectance 46
relax 46
rental 46
resc@@ 46
rescent 46
responded 46
restrial 46
retri@@ 46
rogation 46
romantic 46
rug@@ 46
saying 46
scl@@ 46
shortens 46
smart 46
soda 46
softening 46
sounds 46
staging 46
stripe 46
surroundings 46
t- 46
t1 46
tachycardia 46
tactical 46
teach 46
tetrap@@ 46
thyroidism 46
tific@@ 46
tonite 46
tough@@ 46
ulder 46
uth 46
ux 46
ventral 46
vine@@ 46
vistic 46
wasting 46
ylic 46
younger 46
zon@@ 46
zymes 46
zzles 46
≈ 46
0.14 45
0.24 45
0.98 45
141 45
171 45
18th 45
1B 45
202 45
2b 45
4.0@@ 45
450@@ 45
5000 45
Academy 45
Acupuncture 45
Adjusting 45
Advance 45
Atmosphere 45
BER 45
Breaking 45
Check 45
Chromium 45
Cl3 45
Compressor 45
Congress 45
Counter 45
Crane 45
DISCUSSION 45
DX@@ 45
De 45
Delphi 45
EM@@ 45
ERK 45
Epidemi@@ 45
Fuzhou 45
GA3 45
GaN 45
GenBank 45
Geometric 45
Guarante@@ 45
HUMAN 45
IE 45
IG 45
II@@ 45
Immunohistochemical 45
Increase 45
Installation 45
Jan@@ 45
Jinan 45
K2@@ 45
K2O 45
LATED 45
LB 45
Leading 45
Limited 45
Lubr@@ 45
MIMO 45
MMC 45
Macro@@ 45
Mess@@ 45
Mir@@ 45
NP@@ 45
NSITY 45
Notes 45
PIC 45
PROCES@@ 45
PTFE 45
Painting 45
Particles 45
Petrochemical 45
Pn 45
Polymerase 45
QT 45
Questionnaire 45
Quick 45
RBF 45
RES 45
RL 45
ROLLING 45
Radial 45
Religion 45
Retino@@ 45
SCF 45
SG 45
SORPTION 45
SPF 45
STRENGTH 45
Sacchar@@ 45
Seam 45
Shiga 45
Sla@@ 45
Sle@@ 45
Sludge 45
Spec@@ 45
Spra@@ 45
Substation 45
THEIR 45
TIG 45
TS@@ 45
Talking 45
Tour@@ 45
Trou@@ 45
ZL@@ 45
accumulate 45
agree 45
airplane 45
aking 45
aller@@ 45
allograft 45
anatomical 45
anions 45
antigenic 45
arith@@ 45
arsenate 45
assault 45
avian 45
banding 45
barriers 45
basket 45
bears 45
bitumen 45
bronectin 45
bucket 45
bure@@ 45
butanol 45
campa@@ 45
cancers 45
characteris@@ 45
chicks 45
choke 45
chronous 45
circadian 45
clause 45
cohesive 45
commerci@@ 45
comparisons 45
complic@@ 45
concer@@ 45
confocal 45
conform@@ 45
constitutes 45
consume 45
contacting 45
continuing 45
corrosive 45
crankshaft 45
cuts 45
cv 45
cyclodextrin 45
decoration 45
defici@@ 45
degrading 45
depressive 45
detergent 45
dges 45
dial@@ 45
differently 45
disability 45
diss@@ 45
dopamine 45
doubling 45
dying 45
echocardiography 45
electr@@ 45
elong@@ 45
elve 45
embodiment 45
encapsul@@ 45
equals 45
evacuation 45
exemp@@ 45
exhausted 45
expatiated 45
fertile 45
fertilizers 45
fight 45
fles@@ 45
fossil 45
gather 45
globe 45
gyn@@ 45
heal@@ 45
hedral 45
hibition 45
hydra@@ 45
idden 45
ified 45
imitation 45
implications 45
improper 45
increas@@ 45
inted 45
inting 45
intraperitoneally 45
iry 45
isation 45
izable 45
kable 45
leachate 45
liposome 45
llec@@ 45
magnetization 45
manage@@ 45
matches 45
microspheres 45
multic@@ 45
multilevel 45
oblastic 45
oflo@@ 45
ofs 45
ogenicity 45
ographs 45
oluminescence 45
ostomy 45
otherwise 45
paired 45
particularity 45
plasmic 45
polysaccharides 45
practically 45
prolonging 45
promin@@ 45
promul@@ 45
quali@@ 45
re- 45
reflector 45
regressive 45
rements 45
renaming 45
retainer 45
retains 45
retinopathy 45
retrieved 45
reversi@@ 45
rifting 45
roasted 45
sable 45
saccharide 45
sangu@@ 45
sawing 45
scalable 45
scent 45
sel 45
shortly 45
shrimps 45
sical 45
sified 45
slack 45
stayed 45
stipulated 45
stir@@ 45
stle 45
storey 45
strained 45
suppliers 45
surg@@ 45
tailings 45
tap 45
tells 45
testified 45
testosterone 45
thres@@ 45
thromycin 45
tillery 45
tmorillonite 45
tou 45
tragic 45
transcen@@ 45
transforms 45
triceps 45
uction 45
uli@@ 45
ultrafine 45
unbalance 45
usability 45
vaccination 45
velation 45
victim 45
virtu@@ 45
vom@@ 45
yping 45
β2 45
-9 44
0.2mg 44
0.37 44
0.65 44
10th 44
11.3 44
13.5 44
130@@ 44
254 44
2g 44
401 44
51@@ 44
69@@ 44
80nm 44
ADO 44
ANCE 44
APPL@@ 44
ARE 44
AREA 44
ARP 44
ASD 44
Arrhenius 44
Arthur 44
Assets 44
Audi@@ 44
Autom@@ 44
Bolt 44
Bonding 44
Broad@@ 44
Builder 44
CAG 44
CO3 44
CSP 44
CYP2@@ 44
Compu@@ 44
Cyclic 44
Decomposition 44
Defin@@ 44
Estate 44
Except 44
Exec@@ 44
Exploring 44
Fab@@ 44
Fully 44
Generating 44
Graph 44
HMW 44
Hamiltonian 44
Harmonious 44
Hepatocellular 44
Hopf 44
INTE@@ 44
Inde@@ 44
Indu@@ 44
Introduced 44
Jiu@@ 44
Kinase 44
Lan@@ 44
MAN 44
MORPHO@@ 44
Mainland 44
Mean@@ 44
Mechan@@ 44
Med@@ 44
NaH@@ 44
O. 44
ORGAN@@ 44
Oryza 44
Poly 44
Porous 44
Probing 44
Programmable 44
QUALITY 44
Qian@@ 44
RADIATION 44
RD@@ 44
Rad@@ 44
Refrig@@ 44
Represents 44
SIMPLE 44
SOI 44
SYST@@ 44
Sciences 44
Sephadex 44
Shri@@ 44
Sm@@ 44
Specification 44
Spir@@ 44
Su 44
Surrounding 44
TCD 44
TECHNIQUE 44
TRANSFER 44
Tactics 44
Today 44
UF 44
V. 44
Vis 44
YL@@ 44
ZnS 44
ableness 44
absolutely 44
adic 44
ah 44
airflow 44
alcoholic 44
algin@@ 44
alienation 44
alkalinity 44
amation 44
amer 44
amolecular 44
anced 44
ancement 44
angio@@ 44
ani 44
aper@@ 44
appings 44
aqui@@ 44
arise 44
arrangements 44
artical 44
artific@@ 44
asal 44
aspirated 44
ator@@ 44
attentions 44
attract 44
ballistic 44
bee 44
beneath 44
biop@@ 44
boost 44
cGMP 44
canine 44
captured 44
carriage 44
cations 44
certainties 44
chapters 44
clon@@ 44
closer 44
clud@@ 44
clutch 44
collaborative 44
collagen@@ 44
colonies 44
competent 44
conc@@ 44
condu@@ 44
continually 44
cor 44
coronal 44
crimin@@ 44
cuttings 44
cytotoxic 44
decisive 44
deer 44
definitely 44
delivered 44
destination 44
desulphurization 44
digging 44
digit 44
dilute 44
discussions 44
disturbances 44
drawbacks 44
electroless 44
embol@@ 44
emed 44
encapsulation 44
endemic 44
endothel@@ 44
erate 44
especi@@ 44
exhaus@@ 44
extre@@ 44
familiar 44
filtered 44
fingers 44
flurane 44
gage 44
gan 44
germ 44
glyce@@ 44
guarante@@ 44
habits 44
hair@@ 44
hematopoietic 44
holographic 44
humic 44
ignty 44
ilation 44
illi 44
illu@@ 44
imide 44
incis@@ 44
intermediary 44
internationalization 44
iral 44
isoenzyme 44
judic@@ 44
kaging 44
kit@@ 44
lating 44
leware 44
lier 44
makers 44
mapped 44
matri@@ 44
maze 44
mediation 44
methylene 44
monopol@@ 44
morphic 44
morphogenetic 44
mount 44
mulberry 44
multivariate 44
navig@@ 44
negli@@ 44
nification 44
nitride 44
nitrification 44
notation 44
notice 44
oblast 44
obta@@ 44
oligonucle@@ 44
olitic 44
onitrile 44
ophi@@ 44
orestation 44
osarcoma 44
p. 44
pET 44
pal 44
particul@@ 44
partner 44
pent@@ 44
platelets 44
pods 44
polymeric 44
poss@@ 44
preferable 44
preferential 44
presi@@ 44
privile@@ 44
ras@@ 44
rectangle 44
refrac@@ 44
regularities 44
reimbursement 44
remediation 44
rement 44
resour@@ 44
restricting 44
retardation 44
rinsed 44
salmon@@ 44
sapphire 44
scatter 44
searched 44
seed@@ 44
shan@@ 44
shocks 44
simulative 44
singer 44
slipping 44
socio 44
spacecraft 44
spinel 44
springs 44
stead 44
strian 44
structive 44
sty 44
subunits 44
switches 44
synergistic 44
tempor@@ 44
thering 44
thrombolytic 44
tightly 44
titu@@ 44
transparen@@ 44
tres 44
tricity 44
trimethyl@@ 44
tyrosine 44
ulin 44
uneven 44
unpreceden@@ 44
verbs 44
verte@@ 44
watermarking 44
weft 44
whol@@ 44
worst 44
xacin 44
xanth@@ 44
xis 44
é@@ 44
ζ 44
一@@ 44
-di@@ 43
0.28 43
0.48 43
0.54 43
0.57 43
108@@ 43
119 43
142 43
144 43
152 43
186 43
1s 43
2WI 43
4.9 43
4.The 43
6.0@@ 43
ADL 43
ASO@@ 43
Atten@@ 43
Australian 43
B6 43
Bis@@ 43
Bq 43
CONTE@@ 43
Cao 43
Capsule 43
Climate 43
Consum@@ 43
Countries 43
Cultivating 43
Currently 43
DL@@ 43
DURING 43
Degradation 43
Discovery 43
Dram@@ 43
Dream 43
E.coli 43
E7 43
ERN 43
ERO@@ 43
Electro 43
Emergency 43
Ess@@ 43
Essential 43
Even 43
Explanation 43
FAULT 43
FORM 43
FRA@@ 43
Flying 43
GENE 43
Gravity 43
Ground@@ 43
HM@@ 43
Haz@@ 43
IC50 43
IMPRO@@ 43
ISH 43
Il@@ 43
Inventory 43
Jacob@@ 43
Kan@@ 43
Ki@@ 43
Kun@@ 43
Less@@ 43
LiNbO 43
Liang 43
MAH 43
MCA 43
MF@@ 43
MIL@@ 43
Melting 43
News 43
OF@@ 43
OL@@ 43
PEG@@ 43
PREPARATION 43
Pale@@ 43
Pene@@ 43
Perox@@ 43
Phili@@ 43
Picture 43
Pilot 43
Porcine 43
RER 43
RESP@@ 43
RSS 43
Realize 43
Renew@@ 43
ResultsThe 43
Reversed 43
Richard 43
Roman 43
SCE 43
SEL@@ 43
SMC 43
Scenario 43
Shijiazhuang 43
Shore 43
Similar 43
Soluble 43
Southwest 43
Systematic 43
T. 43
TERS 43
TSH 43
TX@@ 43
Valley 43
Values 43
Verification 43
Wang@@ 43
Wen 43
Width 43
Xian@@ 43
Yin 43
ZT 43
accountant 43
addresses 43
adian 43
aggregates 43
ailed 43
amel 43
anastom@@ 43
anesthetized 43
annu@@ 43
approaching 43
ardous 43
arianism 43
arming 43
arrived 43
arthroscopy 43
ashes 43
asked 43
asparaginase 43
asphy@@ 43
awak@@ 43
axillary 43
bead 43
benzyl 43
big@@ 43
bli@@ 43
bracket 43
calli 43
catenin 43
cathe@@ 43
cene 43
centrifugation 43
centro@@ 43
centuries 43
cerebrospinal 43
chant 43
chers 43
cholecyste@@ 43
chromo@@ 43
chromos@@ 43
clarified 43
clinker 43
coherence 43
compan@@ 43
compe@@ 43
compose 43
condensate 43
consumed 43
cortisol 43
crosslinking 43
cryst@@ 43
crystallin@@ 43
cut@@ 43
dal@@ 43
dan@@ 43
debate 43
discri@@ 43
dividend 43
dye@@ 43
effici@@ 43
ellul@@ 43
elucidated 43
endometrium 43
entertainment 43
episode 43
erve 43
evenness 43
exchanges 43
exergy 43
expensive 43
explic@@ 43
fail@@ 43
felong 43
fers 43
fertilized 43
fierce 43
fixture 43
fossa 43
fraud 43
fring@@ 43
fulfilled 43
geting 43
green@@ 43
grows 43
harvesting 43
hepatocytes 43
heuristic 43
hind 43
hroom 43
i.e.@@ 43
icantly 43
ideals 43
impurities 43
incub@@ 43
influ@@ 43
ingers 43
inspir@@ 43
interlocking 43
intero@@ 43
interruption 43
invig@@ 43
irrational 43
jun@@ 43
kes@@ 43
knitted 43
ko 43
leaf@@ 43
liao 43
lli@@ 43
malformation 43
membership 43
mendment 43
metal@@ 43
methrin 43
mim@@ 43
miniature 43
monolithic 43
mpit 43
mucous 43
multiplier 43
nals 43
nemat@@ 43
niger 43
noc@@ 43
noticed 43
ny 43
ocyanate 43
oke 43
oks 43
openness 43
orers 43
osy@@ 43
overflow 43
oxi@@ 43
pages 43
parabolic 43
paradigm 43
pertin@@ 43
pher 43
plantlet 43
platforms 43
plur@@ 43
precipitated 43
preconditioning 43
proliferating 43
propulsion 43
prostatic 43
pyram@@ 43
quater@@ 43
[...]
