的 366566
， 250202
。 127389
、 123228
和 90636
了 74530
) 69299
( 68989
, 59222
在 55349
对 49529
与 47098
中 43183
为 42921
研究 38840
及 30170
分析 29597
是 26962
方法 26835
一 24995
进行 24776
系统 21959
种 20927
结果 20537
个 19431
影响 16376
并 15903
技术 15614
等 15302
应用 15134
例 15118
; 14913
以 14540
上 14495
: 14157
设计 13935
有 13496
结构 13217
下 13030
- 12952
2 12852
其 12849
细胞 12826
法 12617
组 12576
后 12352
模型 12201
通过 11935
采用 11836
用 11832
. 11771
1 11748
本 11718
发展 11475
性 11384
问题 11030
作用 10666
控制 10586
” 10514
表明 10514
“ 10462
文 10117
3 10109
理论 9909
型 9816
从 9737
） 9695
（ 9466
不同 9427
时 9322
分别 9270
主要 9147
提出 9061
两 9000
可 8701
以及 8696
高 8458
过程 8442
具有 8375
利用 8189
关系 8167
提高 8139
处理 8062
新 7926
基于 7862
不 7806
计算 7798
而 7780
试验 7777
实验 7751
条件 7614
P 7503
能 7348
大 7331
性能 7253
管理 7251
该 7230
内 7225
实现 7190
将 7187
地 7126
4 7118
率 7037
基础 6848
： 6777
多 6775
表达 6746
比较 6689
探讨 6683
变化 6628
介绍 6591
及其 6506
这 6404
～ 6337
各 6331
三 6299
基因 6283
-@@ 6275
患者 6239
明显 6212
时间 6171
~ 6098
到 5985
人 5975
检测 5917
经济 5872
组织 5847
含量 5836
环境 5830
均 5790
治疗 5745
5 5741
水 5740
建立 5717
反应 5714
< 5702
较 5684
或 5641
显著 5603
中国 5560
6 5557
存在 5518
—— 5465
— 5448
区 5386
结合 5385
网络 5371
信息 5360
工艺 5347
重要 5329
测定 5292
值 5238
水平 5219
/ 5212
相关 5201
化 5190
出 5188
数据 5174
所 5153
量 5148
特征 5127
质量 5124
企业 5117
功能 5106
教育 5075
因素 4999
温度 4994
； 4971
方面 4948
教学 4922
于 4894
可以 4893
材料 4872
+ 4862
± 4832
10 4809
式 4800
蛋白 4739
算法 4682
也 4644
社会 4633
浓度 4624
由 4600
参数 4562
次 4533
目的 4518
工作 4517
类 4517
比 4486
作为 4480
相 4427
分布 4426
特性 4425
模式 4423
来 4419
形成 4368
= 4361
差异 4340
点 4335
体系 4321
特点 4307
二 4294
年 4294
层 4278
使 4253
小 4244
能力 4240
意义 4230
之间 4217
效果 4214
者 4200
生产 4186
同时 4177
工程 4142
本文 4102
有效 4083
资源 4083
评价 4068
基本 4067
安全 4063
度 4036
最 4029
低 4017
情况 4006
期 3973
使用 3928
无 3924
根据 3920
℃ 3915
培养 3872
开发 3859
增加 3853
得到 3851
但 3842
平均 3829
体 3814
热 3772
/@@ 3748
提供 3739
中@@ 3728
单 3716
文化 3716
市场 3709
结论 3690
降低 3682
机制 3669
观察 3613
h 3602
我国 3594
其中 3590
模拟 3585
部分 3574
3@@ 3571
《 3549
》 3546
传统 3543
国 3538
经 3519
B 3513
2@@ 3503
产生 3488
5@@ 3475
风险 3471
方式 3470
制度 3469
4@@ 3463
选择 3439
× 3411
强度 3398
． 3365
A 3350
测量 3321
综合 3303
8 3298
剂 3296
标准 3296
生长 3283
C@@ 3281
线 3275
要求 3261
临床 3260
发生 3252
活性 3239
机 3221
膜 3215
对照组 3193
器 3191
优化 3177
0.05 3167
信号 3158
6@@ 3141
级 3132
7 3126
它 3091
带 3086
空间 3076
前 3074
地区 3070
方案 3070
发现 3051
单@@ 3046
B@@ 3044
S@@ 3044
20 3000
D@@ 2989
指标 2988
讨论 2986
运动 2983
间 2957
向 2947
建设 2947
表面 2947
C 2937
大鼠 2928
范围 2927
T@@ 2916
给出 2915
软件 2900
公司 2894
达到 2887
正常 2881
动态 2875
原理 2863
确定 2857
水@@ 2853
解决 2843
都 2834
基 2824
非 2813
行为 2811
效率 2806
免疫 2802
H@@ 2799
不@@ 2799
P@@ 2792
12 2781
30 2778
针对 2771
方程 2770
因子 2760
实践 2749
系数 2744
复合 2722
抑制 2709
神经 2704
双 2684
元 2679
合成 2677
数 2651
位 2649
包括 2635
思想 2624
高@@ 2619
子 2618
K@@ 2615
抗 2606
1@@ 2601
管 2594
L@@ 2592
显示 2581
酸 2569
力 2568
目标 2559
7@@ 2548
F@@ 2548
运用 2543
价值 2535
程度 2535
N@@ 2533
之 2531
产品 2531
获得 2526
达 2526
科学 2525
速度 2525
城市 2523
服务 2520
8@@ 2519
制备 2511
占 2508
光 2506
波 2504
再 2500
中的 2495
稳定 2495
表现 2487
学 2486
血清 2482
测试 2477
我 2474
> 2469
四 2468
大@@ 2465
化学 2464
措施 2457
9@@ 2456
X 2450
应 2444
流 2444
面 2444
出现 2440
施工 2437
混凝土 2434
保护 2419
学生 2415
从而 2414
效应 2412
即 2410
G@@ 2407
A@@ 2405
场 2399
就 2396
m 2393
原因 2386
现代 2380
仿真 2379
－@@ 2378
着 2377
总 2366
组成 2360
论 2347
几 2340
50 2337
板 2324
已 2311
更 2308
全 2304
应力 2300
由于 2295
系 2295
钢 2293
土壤 2289
程序 2285
作 2280
分离 2279
R@@ 2275
V@@ 2274
还 2273
外 2262
长 2262
成 2258
预测 2255
好 2245
图 2238
规律 2238
M@@ 2236
实际 2231
有关 2231
肿瘤 2224
被 2203
0.01 2197
10@@ 2194
0 2182
直接 2180
对于 2176
E@@ 2161
分子 2160
a 2151
合金 2148
国家 2133
9 2129
T 2128
运行 2126
阐述 2123
15 2122
只 2118
且 2114
诊断 2112
对@@ 2106
段 2104
改进 2103
状态 2101
分@@ 2092
S 2091
脑 2086
要 2086
O@@ 2082
一定 2081
内@@ 2081
解 2079
分 2074
物 2073
随着 2073
-1 2063
N 2060
电子 2057
片 2056
0@@ 2050
可@@ 2049
调查 2049
计算机 2046
改革 2042
素 2042
液 2040
血 2038
设备 2033
共 2028
压力 2027
图像 2016
当 2015
函数 2008
气 2008
学习 2002
形式 2002
以上 1995
至 1993
内容 1992
成为 1992
周 1989
多@@ 1989
L 1988
无@@ 1988
主义 1986
一些 1983
需要 1977
株 1975
则 1974
天 1974
高于 1969
可能 1968
目前 1968
类型 1965
资料 1965
下降 1964
很 1963
密度 1962
权 1960
重 1959
随机 1956
热@@ 1927
相对 1927
α 1924
病毒 1922
序列 1918
机理 1916
活动 1913
概念 1900
R 1897
诱导 1891
进一步 1879
阶段 1879
项 1879
我们 1876
自 1874
100 1873
油 1871
历史 1869
变 1869
损伤 1866
知识 1856
40 1853
构建 1853
曲线 1852
压 1849
min 1847
DNA 1846
健康 1845
生 1845
论述 1842
激光 1840
生物 1837
减少 1836
含 1835
纤维 1835
盐 1831
线性 1831
良好 1826
指数 1821
d 1820
∶ 1804
现状 1804
强 1802
国际 1801
区域 1800
装置 1797
认为 1789
_ 1786
自动 1780
证明 1778
依据 1775
病 1774
组合 1774
[ 1773
离子 1771
M 1765
行 1765
趋势 1765
变形 1763
分为 1756
同 1756
] 1754
中心 1754
约 1753
抗@@ 1752
金属 1751
关键 1750
有限 1749
60 1742
环 1733
生态 1733
D 1732
·@@ 1732
又 1731
动脉 1725
质 1724
改善 1722
呈 1720
微@@ 1719
用于 1719
促进 1716
提取 1716
核 1715
条 1713
mm 1710
频率 1710
16 1708
会 1702
－ 1702
如何 1701
新型 1698
β 1693
数值 1692
5% 1691
W@@ 1691
品种 1691
小鼠 1691
0．@@ 1686
原则 1682
引起 1680
日 1680
24 1678
相应 1678
构造 1676
语言 1676
混合 1672
指出 1670
G 1668
快速 1668
手术 1665
策略 1664
m@@ 1662
性质 1658
操作 1654
每 1654
精神 1652
为了 1644
剂量 1642
政府 1641
法律 1640
正 1636
现象 1635
电@@ 1633
骨 1632
成本 1629
土 1628
对比 1626
这些 1624
s 1621
加工 1615
p@@ 1611
处 1611
形 1609
改变 1609
合理 1607
稳定性 1603
血管 1603
部 1597
角度 1595
实施 1594
具体 1591
连续 1587
项目 1587
角 1585
制 1584
月 1584
术后 1584
增强 1583
非@@ 1583
外@@ 1577
形态 1577
术 1575
数学 1571
1.@@ 1570
11 1570
此 1568
～@@ 1557
+@@ 1556
艺术 1554
t 1547
18 1545
植物 1543
叶 1539
投资 1538
方向 1535
25 1533
初步 1528
创新 1527
考虑 1527
V 1526
加@@ 1525
双@@ 1523
元素 1520
关于 1520
受 1517
超@@ 1514
因此 1512
K 1511
能够 1510
自然 1509
x 1503
后@@ 1503
阳性 1503
14 1502
相比 1502
自@@ 1501
孔 1493
工业 1493
n@@ 1492
光@@ 1492
最后 1491
模糊 1491
头 1490
误差 1489
侧 1488
满足 1488
Ⅰ 1486
状 1482
° 1479
动 1471
Ⅱ 1466
得出 1466
非线性 1466
公式 1465
最佳 1463
政治 1461
源 1459
I@@ 1458
地震 1457
桩 1453
首先 1453
说明 1450
13 1446
力学 1446
世界 1445
详细 1445
通信 1442
领域 1442
cm 1441
2.@@ 1437
精度 1434
文章 1432
药 1428
速率 1426
最大 1425
／@@ 1421
定位 1420
研制 1417
网 1417
美国 1415
口 1413
气@@ 1412
体育 1411
对象 1410
课程 1409
小@@ 1407
代 1406
未 1405
规划 1404
原 1394
料 1393
氧化 1393
上@@ 1392
名 1392
而且 1392
周期 1390
简单 1388
平衡 1379
电 1379
生活 1378
3% 1377
受体 1377
监测 1377
2% 1376
体@@ 1376
然后 1376
状况 1372
根 1371
升高 1370
建筑 1369
教师 1369
遗传 1369
六 1368
政策 1366
成@@ 1363
生@@ 1363
转移 1362
路 1361
相互 1358
石 1357
地@@ 1354
途径 1354
吸收 1353
_@@ 1352
构成 1352
恢复 1348
I 1347
k@@ 1345
污染 1345
物质 1341
属 1340
感染 1340
海@@ 1340
下@@ 1337
酶 1337
差 1336
合 1333
H 1330
并且 1328
，@@ 1327
如 1326
需求 1322
成分 1320
三@@ 1317
主@@ 1317
把 1316
产量 1314
20@@ 1312
拉@@ 1311
溶液 1311
肾 1308
适应 1305
论文 1304
加强 1300
数字 1300
相@@ 1300
第一 1296
机构 1295
3.@@ 1294
协议 1294
短 1294
农村 1293
1% 1292
复杂 1290
完全 1290
O 1289
循环 1289
号 1287
J@@ 1286
U@@ 1286
干 1285
群 1284
重@@ 1283
E 1279
光谱 1279
发育 1278
振动 1278
重点 1278
评估 1277
对照 1276
高校 1275
．@@ 1275
二@@ 1273
流@@ 1273
长@@ 1272
面积 1271
岩 1269
生成 1269
能量 1268
随 1267
一般 1266
方 1266
化@@ 1264
平台 1262
样品 1262
21 1261
文学 1261
之一 1260
沉积 1260
成功 1259
保证 1258
注射 1258
19@@ 1256
吸附 1256
催化剂 1252
样 1252
观 1252
柱 1251
人工 1243
F 1242
p 1241
经验 1240
人@@ 1235
6% 1234
系列 1234
调整 1233
亚@@ 1232
山 1232
导致 1229
黄@@ 1227
氮 1226
颗粒 1220
nm 1219
有@@ 1219
心理 1218
病人 1218
描述 1217
肺 1217
识别 1217
n 1215
基@@ 1215
定量 1214
按 1212
动力学 1211
农业 1210
抗体 1210
统计 1210
废水 1209
儿童 1207
井 1205
边 1205
完善 1203
极 1203
电路 1203
急性 1200
核心 1197
转化 1197
常规 1195
入 1194
块 1194
％ 1194
7% 1193
端 1193
高速 1193
扫描 1192
支持 1192
轴 1192
世纪 1190
其他 1189
西@@ 1187
必须 1186
背景 1186
动物 1184
变@@ 1182
对策 1182
故障 1182
s@@ 1180
菌 1180
8% 1178
手段 1178
梁 1178
出@@ 1176
性@@ 1176
机械 1175
检查 1174
联合 1174
广泛 1172
时期 1172
竞争 1171
PCR 1168
严重 1168
动力 1167
心 1163
金 1162
4% 1161
左右 1159
12@@ 1158
复@@ 1156
d@@ 1154
道 1153
位置 1151
台 1150
优势 1149
比例 1149
g 1146
纳米 1144
白@@ 1141
流动 1140
调节 1139
倍 1138
反@@ 1138
低于 1134
尺寸 1134
起 1133
新@@ 1132
规则 1132
功率 1131
产物 1130
战略 1127
砂 1127
集 1127
X@@ 1124
" 1123
市 1123
油@@ 1121
相同 1119
给 1119
近 1119
态 1118
异常 1117
4.@@ 1114
加入 1114
建议 1114
眼 1114
矿 1114
~@@ 1113
它们 1111
意识 1111
脉冲 1109
静脉 1107
mg/L 1106
深入 1106
第二 1106
深 1105
重组 1104
实时 1101
CT 1100
移植 1100
组@@ 1099
加 1098
没有 1098
传输 1096
造成 1094
件 1093
同@@ 1093
pH 1089
心肌 1087
厚度 1086
室 1086
Z@@ 1085
决策 1083
半 1083
早期 1083
r 1078
大小 1078
18@@ 1077
典型 1077
回归 1077
粒 1075
一@@ 1073
用@@ 1073
训练 1073
鉴定 1072
套 1071
环@@ 1071
电流 1071
克隆 1069
公@@ 1068
充分 1067
资本 1067
天@@ 1066
较好 1066
大量 1065
／ 1065
效益 1063
大于 1059
体外 1058
疗效 1058
分类 1057
高度 1057
过 1055
数据库 1053
全面 1052
交通 1050
产业 1050
人员 1047
谱 1047
软 1047
前@@ 1046
化合物 1045
学校 1044
物理 1042
响应 1041
探索 1041
盆地 1041
压@@ 1040
矩阵 1040
考察 1040
发@@ 1038
完成 1038
作者 1037
胶 1037
1．@@ 1036
32 1035
壳 1035
三维 1032
产 1032
地质 1031
总结 1031
有机 1031
粉 1031
低@@ 1030
液@@ 1030
载体 1028
保持 1026
变换 1026
链 1025
内部 1024
估计 1023
年龄 1023
现实 1023
铁 1023
开@@ 1022
法@@ 1022
防@@ 1021
因 1020
80 1019
车 1017
不仅 1016
固定 1015
某 1015
改造 1012
产@@ 1011
球 1011
主 1010
花@@ 1009
五 1007
平@@ 1007
大学 1006
子@@ 1006
距离 1006
框架 1003
药物 1003
输出 1003
金融 1001
文献 1000
当前 997
原@@ 996
人类 994
小麦 994
智能 994
公路 993
定 991
仪 989
峰 989
辐射 989
筛选 988
转换 988
±@@ 986
壁 985
业务 984
鼠 984
取得 981
增殖 980
氧 980
用户 980
章 980
增长 977
沙@@ 977
磷 977
表 976
转@@ 976
钙 974
0.0@@ 973
灌注 969
伤 968
模 968
模块 968
符合 968
高效 967
介质 966
汽车 966
红 966
科 965
耦合 965
15@@ 964
做 964
耐 964
认识 964
血@@ 963
门 963
银行 962
μm 960
色 959
缺血 958
人们 956
岁 956
除 954
波@@ 953
空@@ 952
语 952
t@@ 950
规范 946
保障 945
女性 944
采集 942
9% 941
取 941
微 941
Y 940
土地 940
仅 939
传感器 939
反映 938
出发 936
参考 936
实例 936
经过 936
验证 936
噪声 933
c 931
mRNA 931
5.@@ 929
16@@ 928
核@@ 928
融合 928
分配 927
其它 926
指导 926
整体 925
桥 925
=@@ 924
长度 923
含@@ 921
局部 921
修复 920
正@@ 920
通@@ 920
以下 919
任务 919
报告 919
W 918
引入 918
保@@ 917
和@@ 917
解@@ 917
水泥 916
干扰 915
小说 914
晶体 914
自由 914
不断 913
合@@ 913
定@@ 913
0% 912
石@@ 911
硅 911
特殊 910
编码 910
为例 909
检验 909
管@@ 909
b@@ 907
血浆 906
肝 905
民族 904
生理 902
增@@ 901
相关性 901
17@@ 900
70 900
h@@ 898
制@@ 898
kg 896
代表 895
可靠性 895
控制器 895
责任 895
业 894
叶@@ 894
英语 894
催化 893
风 892
接触 890
添加 890
主体 889
林 888
缺陷 888
第三 887
工具 886
数量 886
旅游 886
专业 885
碱 885
22 884
体制 884
指 884
时代 883
机@@ 883
喷@@ 881
回@@ 881
水稻 881
现场 881
荧光 881
普通 880
空气 879
逐渐 879
杂交 878
超 878
6.@@ 876
17 875
预@@ 874
13@@ 873
45 873
直径 873
单一 872
弹性 871
阶 871
素质 870
28 868
树脂 868
单位 867
经营 866
河 865
平面 864
最高 863
上升 862
排@@ 862
风@@ 862
Y@@ 861
碳 861
流量 860
脱@@ 860
卫星 858
原料 858
受@@ 857
皮肤 857
铝 857
资产 856
权利 855
25@@ 854
土@@ 854
钢@@ 854
关节 853
断裂 853
磁@@ 852
人才 851
煤 851
站 851
制造 850
原子 848
杆菌 848
根@@ 848
侧@@ 847
增大 847
特@@ 846
聚@@ 846
开始 845
氧@@ 845
轮 844
90 843
持续 843
γ 842
他 842
库 840
时@@ 840
菌@@ 840
7.@@ 838
连接 837
35 836
糖 836
单元 835
发 835
小时 835
树 835
r@@ 831
为主 830
14@@ 829
已经 829
国内 828
_2 827
在此 827
道路 827
虚拟 826
为@@ 825
抗原 825
观测 825
集成 825
叶片 824
需 823
丝 822
全@@ 822
非常 822
支 821
理想 821
高温 821
刺激 820
x@@ 819
坡 819
作了 818
强@@ 818
症状 817
利@@ 816
标记 816
皮 816
词 816
射线 815
载 815
200 813
电压 813
聚 813
一致 811
金@@ 811
型@@ 810
调@@ 810
破坏 809
小于 807
气体 807
治理 807
家 806
冲击 804
厂 804
利益 802
虫 802
采取 802
面@@ 802
约束 801
辅助 801
染色 800
CD@@ 799
价格 797
求解 797
配置 797
0.5@@ 796
尔 796
相似 796
快 794
正确 792
心@@ 791
精@@ 791
慢性 789
配@@ 789
以来 787
亚 785
推广 785
突变 785
蛋白质 785
移动 784
图书馆 783
观念 783
地下 782
寿命 782
报道 782
压缩 781
Q@@ 780
丰富 780
交换 780
使得 780
Al@@ 779
分化 779
红@@ 779
长期 779
可靠 778
总@@ 778
流程 778
肌@@ 778
薄 778
铜 776
30@@ 775
显著性 775
转变 775
发挥 774
体积 772
自身 772
见 772
前后 771
视 771
通道 771
既 770
营养 770
48 769
记录 769
成果 768
整个 768
课 767
甲@@ 766
草 766
Si@@ 764
酸@@ 763
径 762
经@@ 762
较为 761
进展 760
驱动 759
动@@ 758
界面 758
带@@ 757
统计学 757
光纤 756
受到 756
吸@@ 756
淋巴 755
优于 753
具 753
尔@@ 753
固 751
地位 751
实@@ 751
南@@ 749
测 749
道德 749
大型 748
特异性 747
腔 747
b 746
减@@ 746
定义 746
控 746
炉 745
白 745
重复 745
MS 744
罗@@ 744
速 744
花 741
行@@ 740
玻璃 738
直@@ 738
睡眠 738
硬件 738
行政 738
再@@ 737
焊接 737
解释 737
得 736
接@@ 736
浆 736
国内外 735
腐蚀 735
较大 735
商业 734
深度 733
准确 732
凝胶 732
降解 732
过@@ 731
族 730
品 729
建模 729
酮 729
份 728
宽 728
-2 727
方@@ 727
疾病 727
界 726
扩增 725
温 725
结@@ 725
电极 724
氨基酸 723
不足 722
8.@@ 721
但是 721
切@@ 721
开展 721
重新 720
去 719
思考 719
英文 719
干@@ 718
底 718
菌株 718
500 717
胶@@ 717
补偿 716
分解 715
糖尿病 715
a@@ 714
马@@ 714
波长 713
远程 713
性状 712
交@@ 711
公共 711
合作 711
少 711
强化 710
最终 710
盘 709
西方 708
负荷 708
% 707
Fe@@ 707
优点 707
关联 707
材 706
防治 706
仍 705
价 704
应用于 704
直 704
23 703
上述 703
品质 703
计划 703
架 702
统一 702
规模 702
逻辑 701
36 700
装 700
接口 699
本@@ 699
比@@ 699
测@@ 699
醇 699
集中 699
i 698
声 698
着重 698
科技 698
线@@ 698
肌 698
限制 698
种子 697
规定 697
扩展 696
日本 696
Ⅲ 695
体现 695
美 695
说 695
边界 695
减小 694
半@@ 694
所有 694
2．@@ 693
冷 693
山@@ 693
铁@@ 693
异@@ 691
传播 690
毒 690
职业 690
19 689
分数 689
势 689
包 688
参与 688
输入 688
总体 687
苗 687
Q 686
位点 686
障碍 686
骨@@ 686
导@@ 685
前景 684
成熟 684
沥青 684
独立 682
c@@ 681
箱 681
结 681
部位 681
位移 679
冷@@ 678
氯@@ 678
Fe 677
感 677
换 677
揭示 677
裂 677
选用 677
陶瓷 677
00@@ 676
哲学 676
红外 676
锌 676
ml 675
克 675
卡 675
硫 675
50@@ 674
球@@ 673
扩散 671
瘤 671
层@@ 670
现有 670
用量 670
11@@ 669
激素 669
评分 669
距 669
近年 669
玉米 668
26 667
并@@ 667
300 666
切除 666
染色体 666
片段 666
监控 666
9.@@ 665
反 665
积分 664
断 663
群体 663
释放 662
高等 662
岩@@ 661
通 661
有利于 660
可行性 659
银 659
′ 658
杆 658
米 658
消@@ 657
40@@ 656
带来 656
旋转 656
表示 656
鱼 656
g@@ 655
文@@ 655
海 655
甲 653
调控 653
卡@@ 652
特别是 652
关注 651
超声 651
取@@ 650
定理 650
转 650
钾 650
史 649
岩石 649
损失 649
皮@@ 649
路面 649
龄 649
共同 648
决定 648
毛@@ 648
积极 648
胺 648
酶@@ 648
节 647
负 647
24@@ 646
MPa 646
船舶 645
层次 644
Cu 643
乳@@ 643
克@@ 643
协调 643
改性 643
流体 643
质粒 643
35@@ 642
Cr@@ 642
域 642
等@@ 642
芯片 642
42 641
60@@ 641
Cu@@ 641
才 641
看 641
RNA 640
北@@ 640
格@@ 640
粘@@ 640
进入 640
墙 639
安全性 639
疲劳 639
色@@ 639
行业 639
2％ 638
斯 638
电力 638
病理 638
── 637
呼吸 637
失@@ 636
床 636
拟 636
_2@@ 634
调度 634
1-@@ 633
最优 633
厚 632
发酵 632
尿 632
病变 632
矿@@ 632
组分 632
75 631
人力 631
极@@ 631
标@@ 631
安@@ 630
联系 630
贸易 630
进 630
适用 630
2-@@ 629
f 629
k 629
事件 629
保险 629
借鉴 629
布@@ 629
应变 629
木@@ 629
粉@@ 629
进而 629
以@@ 628
机器人 628
镜 628
CD 627
偏@@ 627
阿@@ 627
再生 626
制定 626
剪切 626
光学 625
板@@ 625
空 625
0.3@@ 624
Web 624
单片机 624
发射 624
地层 624
均匀 624
翻译 624
U 623
症 623
维@@ 623
28@@ 622
—@@ 622
清@@ 622
复 621
短@@ 620
起@@ 620
满意 619
癌 619
许多 619
5-@@ 618
党 618
变量 618
面临 618
佳 617
地基 617
理念 617
第 617
在@@ 616
水分 616
敏感 614
病@@ 614
日@@ 613
裂纹 613
设置 613
Si 612
东@@ 612
呈现 612
预防 612
大学生 611
密切 611
渣 611
综述 611
还原 611
氏 610
色谱 610
Ni@@ 609
· 609
了解 608
创作 608
会计 607
体重 607
物@@ 607
恶性 606
量@@ 606
比值 605
西 605
燃烧 604
简要 604
31 602
思路 602
概率 602
混@@ 602
变异 601
理解 601
5％ 600
低温 600
修正 600
划分 600
学@@ 600
牛 600
课题 600
国@@ 598
粗 598
72 597
_3 597
内皮 597
容量 596
机组 596
粒子 596
缘 596
薄膜 596
34 595
第@@ 595
质@@ 595
其@@ 594
包@@ 594
激励 594
采@@ 594
是否 593
集@@ 593
可持续 592
向@@ 592
认知 592
证实 592
初 591
简化 591
mg/kg 588
交易 588
开放 588
整 588
代谢 586
实 586
网@@ 586
员 585
同步 584
国外 584
圆 584
塑性 584
推导 584
现代化 584
加固 583
未来 583
配合 583
南 582
图@@ 582
家庭 582
程 582
在于 581
大气 581
拉 581
隧道 581
开 579
青@@ 579
理 578
3％ 577
适宜 577
f@@ 576
护理 576
高压 576
东 575
传递 575
县 575
0.@@ 574
形@@ 574
选@@ 574
个人 573
立@@ 573
致 573
1％ 572
事故 572
明@@ 572
生命 572
对称 571
沙 571
入@@ 570
斜@@ 570
标本 570
自己 570
l 569
草@@ 569
作业 568
制作 568
医院 568
却 568
左 568
轮@@ 568
运 568
29 567
初始 567
延长 567
苯 567
轴@@ 567
钠 567
共@@ 566
去除 566
固@@ 566
布 566
微分 566
推@@ 566
槽 566
12.@@ 565
角@@ 565
1/@@ 564
3．@@ 564
凋亡 564
发动机 564
易 564
阳性率 564
200@@ 563
整合 563
模@@ 563
角色 563
1.5@@ 562
23@@ 562
弱 562
注意 562
面向 562
0.8@@ 561
基质 561
摩擦 561
积@@ 561
肠 561
PC 560
从@@ 560
右@@ 560
基础上 560
工@@ 560
情 560
散射 560
死亡 560
8％ 559
放@@ 559
若干 559
衍射 559
重建 559
发生率 558
古@@ 558
合同 558
思维 558
维护 557
肝@@ 557
值@@ 556
宗教 556
家@@ 556
温@@ 556
煤@@ 556
码 556
鸡 556
27 555
80@@ 555
mg 555
u@@ 555
氟@@ 555
运动员 555
38 554
越 554
黑@@ 554
四@@ 553
肝癌 553
适合 553
链@@ 553
C-@@ 552
口@@ 552
回收率 552
截面 552
手 552
10% 551
o 551
上海 551
之@@ 551
作品 551
形状 551
财务 551
进@@ 551
α@@ 550
其次 550
启动 550
稀土 550
先进 549
清 549
耐@@ 548
胞 548
这个 548
37 547
器件 547
必要 547
排放 547
步 547
活化 547
液相 547
表征 547
判断 546
十分 546
成形 546
江 546
脑@@ 546
节点 546
ELISA 545
合并 545
l@@ 544
德 544
污水 544
迅速 544
高血压 544
钢筋 543
_1 542
含有 542
骨髓 542
7％ 541
β@@ 541
内涵 541
垂直 541
橡胶 541
胰岛素 541
进程 541
尺度 540
常 540
正交 540
油气 540
荷载 540
in 539
普遍 539
演化 539
增高 538
硅@@ 538
船 538
室内 537
当@@ 537
损害 537
病例 537
锅炉 537
霉素 537
1.0@@ 536
11.@@ 536
150 536
选 536
溶剂 535
激活 535
细@@ 535
0.4@@ 534
丝@@ 534
发病 534
特 534
木 533
运输 533
10-@@ 532
平 532
消除 532
细菌 532
首 531
CO2 530
评定 530
里 530
纯 529
近@@ 529
处于 528
斯@@ 528
灰 528
电机 528
4％ 527
y@@ 527
坝 527
万 526
接受 526
美@@ 526
调 526
费用 526
车@@ 526
力@@ 525
实用 525
烧结 524
目 524
Ca@@ 523
微量 523
萃取 523
IP 522
曲 522
民@@ 522
芽 522
车辆 522
选取 522
位@@ 521
油田 521
湿 521
Z 520
极限 520
苯@@ 520
-3 519
v@@ 519
卫生 519
来源 519
生存 519
铅 519
27@@ 518
Co@@ 518
Ni 518
e 518
分析法 518
换@@ 518
提@@ 518
编程 518
切 517
匹配 517
应@@ 517
磨损 517
立法 517
药@@ 517
冲@@ 516
征 516
证 516
载荷 516
对应 515
北 514
越来越 514
配 514
重视 514
S-@@ 513
体内 513
成矿 513
雷达 513
Al 512
先 512
晶@@ 512
氢 512
学科 511
收入 511
白细胞 511
道@@ 511
个体 510
引@@ 510
接种 509
混 509
排 508
裂缝 508
避免 508
点@@ 507
磨 507
预应力 507
CO@@ 506
假 506
支护 506
普@@ 506
母@@ 506
熔@@ 506
铁路 506
33@@ 505
65 505
牙@@ 505
22@@ 504
26@@ 504
像 504
氢@@ 504
细 504
及@@ 503
固体 503
跟踪 503
难 503
实证 502
手@@ 502
松@@ 502
离 502
逆 502
μ@@ 501
收缩 501
超过 501
O2 500
转子 500
CA@@ 499
囊@@ 499
天然 499
石油 499
优 498
安装 498
按照 498
明确 498
猪 498
真空 498
0.6@@ 497
入手 497
种类 497
地球 496
敏感性 496
炎 496
化疗 495
提示 495
注入 495
致@@ 495
转录 495
单纯 494
溶 494
香@@ 494
NO 493
几何 493
投@@ 493
放 493
胁迫 493
属于 492
干预 492
所@@ 492
某些 492
犯罪 492
涉及 491
粗@@ 491
33 490
全部 490
林@@ 490
照射 490
0.7@@ 489
0.9@@ 489
O3 489
微波 489
设 489
阻力 489
降@@ 489
45@@ 488
PC@@ 488
效 488
生物学 488
视@@ 488
边缘 488
i@@ 487
深@@ 487
渗@@ 487
落 487
明 486
眼@@ 486
联@@ 486
胃 486
120 485
尤其是 485
指@@ 485
理@@ 485
肥 485
要素 485
观点 485
标 484
连@@ 484
只有 483
审计 483
记忆 483
试 483
右 482
求 482
电阻 482
AS@@ 481
滑@@ 481
膜@@ 481
2000 480
Ca 480
扩大 480
液体 480
酰胺 480
审美 478
能源 478
重大 478
Mn@@ 477
cDNA 477
代@@ 477
执行 477
断@@ 477
松 477
造@@ 477
间@@ 477
6％ 476
Zn 476
圆@@ 476
溶@@ 476
完整 475
护@@ 475
无线 475
门@@ 475
＝ 475
分泌 474
远 474
骨折 474
产权 473
电镜 473
自我 473
补@@ 473
100% 472
充@@ 472
商@@ 472
工 472
滑 472
肝炎 472
装@@ 472
e@@ 471
乙醇 471
当代 471
更新 471
泵 471
粒径 471
4-@@ 470
Mn 470
n=@@ 470
交 470
成像 470
改@@ 470
传动 469
毒性 469
13.@@ 468
旋@@ 468
期间 468
毛 468
精确 468
糖@@ 468
缩短 468
近似 468
通用 468
不良 467
古 467
弯曲 467
接 467
能@@ 467
感@@ 466
火@@ 466
.@@ 465
29@@ 465
IR 465
弹 465
散@@ 464
特色 464
电位 464
他们 463
富@@ 463
常@@ 463
早 463
甲基 463
男性 463
销售 463
黄 463
0.2@@ 462
培训 462
微观 462
激光器 462
物流 462
缺乏 462
光度 461
常见 461
缩@@ 461
藏 461
额 461
人体 460
人口 460
复发 460
湖 460
Ti@@ 459
g/@@ 459
创造 459
纯化 459
试@@ 459
前提 458
医疗 458
肉@@ 458
静态 458
95 457
先@@ 457
活力 457
静 457
座 456
烟@@ 456
理性 456
马克思 456
01 455
GIS 455
人群 455
加热 455
支@@ 455
源@@ 455
管道 455
肺癌 455
过渡 455
量表 455
针@@ 455
可行 454
独特 454
酚 454
20% 453
41 453
准则 453
图形 453
常数 453
文件 453
梯度 453
涂层 453
mL 452
宽度 452
阴性 452
饱和 452
50% 451
98 451
医学 451
尿@@ 451
果 451
植株 451
视频 451
路径 451
仪器 450
本质 450
激酶 450
u 449
临界 449
取代 449
塔 449
检索 449
硬度 449
自动化 449
1～@@ 448
牙 448
诗 448
H2 447
专家 447
声@@ 447
曲@@ 447
液压 447
现@@ 447
地理 446
收集 446
文中 446
省 446
碳@@ 446
64 445
可溶性 445
大豆 445
形象 445
房 445
矿床 445
缺损 445
臂 445
解析 445
CAD 444
ST@@ 444
显微 444
简称 444
节@@ 444
y 443
偏 443
层面 443
底@@ 443
成因 443
抽@@ 443
消费 443
环节 443
论@@ 443
起来 443
运@@ 443
2.5@@ 442
21@@ 442
Cr 442
客观 442
气候 442
螺旋 442
种@@ 441
突出 441
纹 441
脱 441
＋ 441
① 440
回顾 440
张@@ 440
与@@ 439
回收 439
多态性 439
斑 439
料@@ 439
树@@ 439
样本 439
砂@@ 439
95% 438
CH@@ 438
周@@ 438
神经元 438
老年 438
预报 438
44 437
NO@@ 437
反馈 437
圈 437
断层 437
盐@@ 437
社会主义 437
营销 437
配合物 437
北京 436
司法 436
景观 436
实验室 435
打@@ 435
缓解 435
随访 435
BA 434
CT@@ 434
分布式 434
意 434
接近 434
方便 434
水量 434
汉@@ 434
滤@@ 434
3-@@ 433
全球 433
常用 433
承载力 433
挖掘 433
穗 433
诉讼 433
? 432
P-@@ 432
主动 432
危险 432
教@@ 432
格 432
梗死 432
矛盾 432
算 432
置 432
计 432
逐步 432
1，@@ 431
39 431
_3@@ 431
尾 431
绩效 431
适当 431
保留 430
存储 430
总线 430
给予 430
股 430
SP@@ 429
作@@ 429
峰值 429
德@@ 429
46 428
十@@ 428
尾@@ 428
抗性 428
沟 428
田 428
电泳 428
索 428
聚合 428
证券 428
防止 428
0.5 427
交流 427
输@@ 427
问卷 427
阀 427
革命 427
内在 426
单个 426
教 426
替代 426
沉@@ 426
差别 425
横@@ 425
盖 425
移 425
跨 425
和谐 424
收益 424
氨 424
简@@ 424
镍 424
AP@@ 423
广义 423
沉降 423
笔者 423
轴承 423
除@@ 423
_4 422
人民 422
回 422
波动 422
聚合物 422
轻 422
2/@@ 421
COD 421
乳 421
果@@ 421
6．@@ 420
尼@@ 420
巴@@ 420
异 420
必要性 420
获取 420
附 420
之后 419
代理 419
优良 419
传@@ 419
利 419
制约 419
术前 419
Na 418
供 418
商 418
州 418
收@@ 418
构件 418
派 418
第四 418
设施 418
5～@@ 417
IL 417
上市 417
日益 417
雷@@ 417
SOD 416
另 416
幅度 416
并不 416
酯 416
二维 415
冲突 415
如下 415
导出 415
细胞凋亡 415
14.@@ 414
g/L 414
② 414
因而 414
地方 414
多媒体 414
提升 414
河@@ 414
稻 414
立 414
米@@ 414
网格 414
52 413
定性 413
态@@ 413
流域 413
简便 413
西部 413
43 412
Ar@@ 412
丁@@ 412
互@@ 412
农@@ 412
心脏 412
搅拌 412
采样 412
L-@@ 411
度@@ 411
激发 411
灵敏度 411
限 411
4．@@ 410
cm@@ 410
信@@ 410
净 410
迁移 410
Ⅱ@@ 409
地面 409
客户 409
有所 409
浮@@ 409
瘤@@ 409
科@@ 409
酸性 409
震@@ 409
OH 408
人文 408
年@@ 408
应该 408
氨酸 408
癌@@ 408
维持 408
编制 408
J 407
SA@@ 407
供应链 407
综合征 407
麦@@ 407
住宅 406
字 406
截@@ 406
放电 406
未@@ 406
现 406
监督 406
阳 406
00 405
90@@ 405
Pb 405
原始 405
反射 405
吻合 405
宏观 405
所得 405
肽 405
顶 405
例@@ 404
服务器 404
束 404
模具 404
毒@@ 404
96 403
SD 403
业@@ 403
冠状 403
序 403
推进 403
治 403
粉末 403
铬 403
频 403
SI@@ 402
依次 402
合物 402
积累 402
粘度 402
院 402
As@@ 401
冰@@ 401
税收 401
mol/L 400
’ 400
偏差 400
坏死 400
头@@ 400
离@@ 400
震 400
6-@@ 399
Ti 399
晶 399
汉语 399
足 399
选择性 399
义 398
大大 398
展开 398
有效性 398
注 398
科研 398
转染 398
5．@@ 397
v 397
栽培 397
演变 397
血液 397
覆盖 397
速@@ 397
15.@@ 396
56 396
减 396
引物 396
渗透 396
真@@ 396
磷酸 396
连 396
90% 395
叙述 395
局 395
胃癌 395
醇@@ 395
加以 394
周围 394
大肠 394
更@@ 394
池 394
表@@ 394
余 393
供@@ 393
华@@ 393
洛@@ 393
称 393
谈 393
键 393
μ 392
基因型 392
成型 392
积 392
顶@@ 392
在线 391
巨大 391
成绩 391
改良 391
联 391
Mo@@ 390
列@@ 390
包含 390
属性 390
散 390
羟基 390
象 390
足@@ 390
阻@@ 390
Na@@ 389
元@@ 389
外部 389
次@@ 389
矿物 389
苏@@ 389
 389
发光 388
拉伸 388
支撑 388
施@@ 388
星 388
曲面 388
试样 388
51 387
冲 387
冷却 387
协同 387
国有 387
标志 387
篇 387
－1 387
升 386
肉 386
脂肪 386
虽然 386
论证 386
隐@@ 386
刚度 385
激@@ 385
特定 385
16.@@ 384
→ 384
初@@ 384
加速 384
并发症 384
性别 384
根本 384
浸@@ 384
银@@ 384
任意 383
基因组 383
尚 383
左@@ 383
更加 383
RT-PCR 382
以后 382
商务 382
士 382
独@@ 382
诱发 382
较@@ 382
Li@@ 381
→@@ 381
岸 381
末 381
聚合酶 381
远@@ 381
饲料 381
储层 380
晶粒 380
监管 380
首次 380
AR@@ 379
人格 379
刀 379
叙事 379
桥梁 379
渗 379
磁 379
麻@@ 379
井@@ 378
传热 378
动作 378
显微镜 378
权力 378
比为 378
结晶 378
融资 378
视觉 378
量子 378
乙@@ 377
兰 377
如果 377
形势 377
淀粉 377
视角 377
顺序 377
55 376
修@@ 376
导 376
折@@ 376
注@@ 376
知 376
轨道 376
陆@@ 376
0.001 375
严格 375
出口 375
张 375
氨基 375
相当 375
社区 375
0.1@@ 374
SS 374
w 374
上皮 374
共享 374
所以 374
早@@ 374
的@@ 374
线路 374
经济学 374
唑 373
碱性 373
种群 373
还是 373
63 372
CA 372
bp 372
余@@ 372
准 372
台@@ 372
星@@ 372
语@@ 372
z 371
作物 371
困难 371
柱@@ 371
泥@@ 371
滤波器 371
算子 371
缺 371
辊@@ 371
≥ 370
元件 370
另外 370
愈 370
硬 370
纵@@ 370
AC@@ 369
IC 369
反应器 369
技能 369
推动 369
整@@ 369
最@@ 369
活@@ 369
群@@ 369
胎 369
85 368
受力 368
塔@@ 368
强调 368
支架 368
校正 368
Cl@@ 367
案 367
汽@@ 367
浅@@ 367
路@@ 367
轻@@ 367
书 366
分散 366
升@@ 366
干燥 366
开关 366
腹腔 366
资金 366
扩张 365
果实 365
蛋白酶 365
齿轮 365
1000 364
53 364
代替 364
步骤 364
滤波 364
诗@@ 364
保存 363
音 363
PA 362
砂岩 362
竞争力 362
记@@ 362
部门 362
9％ 361
射@@ 361
工况 361
片@@ 361
重要性 361
30% 360
o@@ 360
基体 360
开采 360
掺杂 360
火 360
硬化 360
附近 360
基金 359
复制 359
安 359
托@@ 359
案例 359
略 359
硫@@ 359
确立 359
维 359
追求 359
0.00@@ 358
dB 358
q@@ 358
中间 358
位于 358
光合 358
囊 358
配方 358
风格 358
食 358
68 357
代数 357
味 357
情感 357
格式 357
由此 357
相位 357
磨@@ 357
而@@ 357
贡献 357
齿@@ 357
＋@@ 357
88 356
亦 356
减轻 356
危机 356
居民 356
微生物 356
潮 356
现行 356
船@@ 356
这样 356
Ⅳ 355
加快 355
害 355
攻击 355
费 355
z@@ 354
≤@@ 354
介素 354
估算 354
旧 354
爆破 354
语音 354
铝@@ 354
家族 353
容 353
微机 353
易@@ 353
有的 353
白血病 353
盐水 353
负@@ 353
阵 353
零 353
预 353
飞@@ 353
54 352
学术 352
调制 352
软@@ 352
剩余 351
多样性 351
存@@ 351
学者 351
05 350
km 350
储@@ 350
克服 350
农民 350
分级 350
射 350
弯 350
性的 350
母 350
胚 350
财政 350
进步 350
适用于 350
通讯 350
＞ 350
分辨率 349
原位 349
实行 349
植被 349
水质 349
燃料 349
紫外 349
缺失 349
负载 349
野生 349
飞机 349
与其 348
中学 348
均衡 348
文本 348
映射 348
浸 348
芯 348
院校 348
隔@@ 348
音乐 348
食品 348
58 347
总量 347
数@@ 347
焊@@ 347
绿@@ 347
走向 347
食@@ 347
80% 346
一直 346
假设 346
塑料 346
建构 346
棉@@ 346
生化 346
绿色 346
老@@ 346
色素 346
路由 346
PID 345
m3 345
凸@@ 345
卷@@ 345
城 345
增生 345
患儿 345
税 345
膨胀 345
访问 345
过滤 345
＜ 345
2000年 344
列 344
均@@ 344
富集 344
差@@ 344
必然 344
掺@@ 344
插入 344
构 344
游离 344
电磁 344
织物 344
脂@@ 344
里@@ 344
交叉 343
最低 343
水解 343
淋巴结 343
硬@@ 343
羊@@ 343
胚胎 343
计@@ 343
001 342
报@@ 342
染料 342
然而 342
耳 342
脂 342
腹@@ 342
86 341
PE@@ 341
专用 341
分钟 341
妇女 341
妊娠 341
富 341
预后 341
龙@@ 341
 341
XRD 340
rh@@ 340
勘探 340
华 340
枝 340
酵母 340
间隙 340
降 340
@@ 340
70@@ 339
住院 339
实验组 339
粒度 339
纳 339
美学 339
跨@@ 339
信用 338
同样 338
因为 338
湿@@ 338
瓣 338
紫@@ 338
阅读 338
定价 337
晚期 337
污泥 337
酸钠 337
BP 336
PA@@ 336
东北 336
准@@ 336
各@@ 336
本身 336
水库 336
示 336
缩 336
记 336
防护 336
17.@@ 335
2003年 335
36@@ 335
丙@@ 335
来自 335
柔性 335
氧化@@ 335
离散 335
麻醉 335
18.@@ 334
67 334
信道 334
分裂 334
补充 334
阐明 334
Nd 333
分子量 333
吸 333
弹@@ 333
残余 333
甲醇 333
经历 333
葡萄糖 333
转速 333
采 333
频@@ 333
团 332
投入 332
紧@@ 332
阻 332
预处理 332
兰@@ 331
商品 331
放射 331
新疆 331
森林 331
沉淀 331
磁场 331
端@@ 331
间接 331
CO 330
SO@@ 330
≥@@ 330
探测 330
浆@@ 330
源性 330
电池 330
缝 330
AS 329
女 329
字@@ 329
氨@@ 329
疫苗 329
类@@ 329
股东 329
胃@@ 329
2004年 328
义务 328
室温 328
居 328
广@@ 328
影像 328
承@@ 328
挑战 328
潜@@ 328
等级 328
计量 328
试图 328
世 327
搜索 327
检出 327
藻 327
丙 326
中药 326
伴 326
出血 326
此外 326
胸@@ 326
试剂 326
逆@@ 326
MP@@ 325
单体 325
器官 325
抑制剂 325
文明 325
经典 325
背 325
角膜 325
GPS 324
主题 324
人物 324
卵 324
嵌入式 324
并行 324
态度 324
横向 324
羊 324
节能 324
Co 323
Mg 323
实测 323
彩色 323
痛 323
确保 323
突@@ 323
2.0@@ 322
3/@@ 322
事@@ 322
古代 322
幼苗 322
股票 322
20世纪 321
AT@@ 321
关@@ 321
区@@ 321
更为 321
落@@ 321
血压 321
RT 320
同位素 320
粗糙 320
货币 320
走 320
防 320
难以 320
领导 320
99 319
MRI 319
PP 319
劳动 319
变性 319
国产 319
审@@ 319
数控 319
最小 319
碰撞 319
移@@ 319
鼻@@ 319
2005年 318
DSP 318
危害 318
幅 318
延@@ 318
报 318
有限元 318
棒 318
次数 318
群落 318
蓝 318
退火 318
造影 318
SC@@ 317
制得 317
多元 317
氯 317
烯 317
谷 317
集团 317
70% 316
RE@@ 316
任何 316
凝@@ 316
氟 316
浅 316
遥感 316
＿@@ 316
62 315
AT 315
DC 315
岩体 315
斜 315
条@@ 315
王@@ 315
组件 315
越@@ 315
轨 315
47 314
RS@@ 314
SH@@ 314
一体化 314
专@@ 314
乐@@ 314
小型 314
插@@ 314
江@@ 314
流式 314
灰@@ 314
种植 314
类似 314
育@@ 314
表达式 314
高原 314
49 313
Mg@@ 313
Mo 313
信息化 313
有助于 313
检@@ 313
气管 313
百@@ 313
真实 313
语义 313
重构 313
MDA 312
冠 312
居@@ 312
控@@ 312
洗 312
牛@@ 312
达@@ 312
飞行 312
15% 311
38@@ 311
收率 311
纸 311
继续 311
34@@ 310
CO_2 310
NH@@ 310
军 310
刑事 310
扩@@ 310
紧张素 310
维修 310
1.0 309
埋 309
引导 309
狭窄 309
用药 309
皮瓣 309
繁殖 309
通量 309
MC@@ 308
具备 308
地表 308
库@@ 308
应当 308
引进 308
虫@@ 308
分成 307
助@@ 307
成人 307
流速 307
甚至 307
脱硫 307
边@@ 307
铸造 307
颜色 307
La@@ 306
反演 306
孔隙 306
情@@ 306
根系 306
燃 306
破@@ 306
肝脏 306
近代 306
降水 306
0～@@ 305
WTO 305
围 305
容易 305
建 305
很多 305
战 305
批 305
查询 305
符号 305
置换 305
自主 305
载@@ 305
19.@@ 304
A组 304
农 304
合适 304
粮 304
规@@ 304
课堂 304
队 304
25% 303
87 303
MA 303
RS 303
③ 303
信 303
共振 303
孔@@ 303
掌握 303
班 303
给药 303
绿 303
胸 303
迭代 303
mg/@@ 302
兔 302
名@@ 302
海洋 302
炉@@ 302
航@@ 302
造 302
005 301
m2 301
数字化 301
脊髓 301
84 300
99.@@ 300
:@@ 300
PLC 300
T-@@ 300
七 300
交互 300
幼@@ 300
延迟 300
民主 300
涂料 300
鱼@@ 300
切片 299
去@@ 299
然 299
通常 299
随@@ 299
Internet 298
中央 298
原发性 298
取向 298
沿 298
流场 298
轧制 298
修 297
大陆 297
辊 297
钛@@ 297
销 297
82 296
印@@ 296
就是 296
挤压 296
泥 296
索@@ 296
衰竭 296
伦理 295
女@@ 295
接收 295
敏 295
桩@@ 295
横 295
苷 295
评 295
限@@ 295
78 294
MA@@ 294
MS@@ 294
岛 294
得@@ 294
最好 294
海马 294
稳态 294
补 294
观@@ 294
辛@@ 294
AD@@ 293
CS@@ 293
pH@@ 293
分层 293
检 293
测得 293
灯 293
电源 293
钢管 293
鲜@@ 293
龄@@ 293
Ⅲ@@ 292
休克 292
修改 292
其余 292
拓扑 292
河流 292
英国 292
量化 292
副@@ 291
天线 291
无法 291
模板 291
武@@ 291
状@@ 291
磷@@ 291
针 291
on 290
δ 290
不可@@ 290
介导 290
参@@ 290
各自 290
定向 290
河道 290
茎 290
事 289
今后 289
倾向 289
太@@ 289
寻找 289
洞 289
涂@@ 289
溶胶 289
热点 289
直流 289
育 289
腹 289
退@@ 289
105 288
400@@ 288
71 288
89@@ 288
ATP 288
C/@@ 288
剖析 288
去除率 288
可使 288
失效 288
纵向 288
血流 288
P=@@ 287
PV@@ 287
乙烯 287
六@@ 287
园 287
增多 287
归@@ 287
每个 287
真菌 287
若 287
AA 286
us 286
≤ 286
养 286
制动 286
柴油机 286
治疗前 286
灰色 286
电视 286
矢量 286
窗 286
耳@@ 286
100@@ 285
A/@@ 285
启示 285
奥@@ 285
引发 285
溶解 285
腐@@ 285
金矿 285
间隔 285
附@@ 285
23.@@ 284
TNF 284
八 284
兼 284
宁 284
消失 284
渠道 284
真正 284
贷款 284
剪 283
安排 283
导向 283
废@@ 283
背@@ 283
货@@ 283
钢板 283
1.5 282
7．@@ 282
AP 282
PS 282
×@@ 282
侵蚀 282
围岩 282
多普勒 282
探针 282
盐酸 282
纹@@ 282
组化 282
裂@@ 282
势@@ 281
垃圾 281
增益 281
密 281
最为 281
短期 281
顺@@ 281
Ag 280
P＜0．05 280
中性 280
于@@ 280
侵@@ 280
划@@ 280
制成 280
肝细胞 280
铜@@ 280
雄性 280
颈@@ 280
74 279
mmol/L 279
q 279
子宫 279
方差 279
油藏 279
编@@ 279
镁 279
麦 279
2～@@ 278
乳腺癌 278
优秀 278
务 278
各个 278
坐标 278
归纳 278
探@@ 278
深层 278
电厂 278
纯@@ 278
诸多 278
辐照 278
2002年 277
IP@@ 277
mm@@ 277
仪@@ 277
可能性 277
实体 277
密@@ 277
影@@ 277
新生儿 277
施 277
残@@ 277
演@@ 277
甘@@ 277
认证 277
证据 277
身 277
部件 277
重量 277
长江 277
250 276
40% 276
48@@ 276
66 276
D-@@ 276
H-@@ 276
分组 276
所致 276
收敛 276
泵@@ 276
版 276
粘膜 276
翼 276
零件 276
作出 275
再次 275
分割 275
利率 275
增 275
查@@ 275
氧化物 275
碱@@ 275
稻@@ 275
肠@@ 275
醚 275
61 274
83 274
In@@ 274
创@@ 274
句 274
哮喘 274
孕@@ 274
悬浮 274
最适 274
杂@@ 274
民 274
测井 274
消耗 274
电化学 274
筛 274
精 274
ME@@ 273
°@@ 273
停@@ 273
养@@ 273
包装 273
康复 273
征@@ 273
折 273
胺@@ 273
色谱法 273
菜 273
89 272
V-@@ 272
in@@ 272
γ@@ 272
为此 272
出来 272
奠定 272
振@@ 272
棉 272
稳@@ 272
豆@@ 272
高频 272
义@@ 271
制品 271
壳@@ 271
奇@@ 271
扰动 271
槽@@ 271
活 271
烷 271
香 271
104 270
37@@ 270
PO@@ 270
SEM 270
依赖 270
兔@@ 270
固化 270
师 270
成员 270
暴露 270
概述 270
进口 270
180 269
60% 269
HBV 269
不锈 269
事业 269
兼@@ 269
写作 269
击 269
弱@@ 269
校 269
植@@ 269
氏@@ 269
缺氧 269
@@ 269
MC 268
——— 268
万@@ 268
利用率 268
氮@@ 268
浅谈 268
聚类 268
阈值 268
高职 268
PS@@ 267
max 267
w@@ 267
做出 267
向量 267
套@@ 267
屏 267
强烈 267
灾害 267
留 267
粒@@ 267
77 266
Cd 266
云 266
回顾性 266
效能 266
旋 266
混沌 266
率@@ 266
直线 266
筒 266
素@@ 266
脉@@ 266
衰减 266
被@@ 266
译@@ 266
面对 266
2.0 265
69 265
DS 265
GA 265
剖面 265
哈@@ 265
天然气 265
戊@@ 265
期@@ 265
梁@@ 265
港 265
突 265
聚集 265
装配 265
阻抗 265
P＜0．01 264
SA 264
Sr@@ 264
j@@ 264
亲@@ 264
假@@ 264
堆 264
张力 264
格局 264
植 264
残留 264
焦@@ 264
蒸汽 264
让 264
话 264
财产 264
配比 264
0．0@@ 263
三角洲 263
书@@ 263
几乎 263
发电 263
无机 263
死亡率 263
波形 263
爱 263
而言 263
透@@ 263
齿 263
125 262
LD@@ 262
PD@@ 262
SiO2 262
TiO2 262
令 262
变革 262
基底 262
尘 262
帮助 262
滴 262
真 262
福@@ 262
肌肉 262
贝@@ 262
身体 262
阵列 262
马 262
76 261
94 261
历程 261
坚持 261
律 261
快@@ 261
性好 261
批评 261
析 261
民事 261
燃@@ 261
老 261
轨迹 261
述 261
韧性 261
Windows 260
五@@ 260
传导 260
发达 260
品牌 260
干涉 260
求@@ 260
湿度 260
炎症 260
烟 260
等效 260
职@@ 260
静@@ 260
DM 259
O_2 259
宽@@ 259
平均值 259
弧@@ 259
流行 259
砷 259
磁性 259
秒 259
起到 259
隔 259
靶@@ 259
分光 258
刚性 258
功@@ 258
或者 258
提 258
整理 258
水体 258
留@@ 258
纸@@ 258
胚@@ 258
部@@ 258
锁 258
73 257
75% 257
乌@@ 257
促@@ 257
制剂 257
带宽 257
应对 257
推理 257
轻度 257
兴趣 256
导航 256
接头 256
烃 256
生物量 256
绘制 256
茎@@ 256
茶 256
计数 256
鉴别 256
1999年 255
91 255
CF@@ 255
ε 255
世@@ 255
作家 255
助 255
努力 255
卷 255
后期 255
年代 255
新闻 255
最新 255
极化 255
污染物 255
特别 255
珠 255
破裂 255
罪 255
阻断 255
靶 255
25.@@ 254
8．@@ 254
As 254
PI 254
ml@@ 254
军@@ 254
口服 254
士@@ 254
抵抗 254
持 254
来@@ 254
言 254
该系统 254
59 253
SP 253
写 253
区间 253
史@@ 253
巨@@ 253
房@@ 253
技巧 253
耗 253
胶囊 253
试论 253
诗歌 253
迹 253
2001年 252
400 252
N2 252
交际 252
充填 252
处@@ 252
季 252
权@@ 252
毒素 252
潜力 252
签名 252
肺@@ 252
转型 252
锚@@ 252
陈@@ 252
高达 252
-2@@ 251
0.1 251
Ma 251
Zn@@ 251
an 251
mg／L 251
地形 251
就@@ 251
断面 251
水力 251
深刻 251
煤层 251
确认 251
算@@ 251
粉体 251
缺@@ 251
转向 251
HPLC 250
M-@@ 250
RI@@ 250
kg@@ 250
净化 250
尼 250
或@@ 250
游@@ 250
照@@ 250
音@@ 250
75@@ 249
DA 249
OR 249
原油 249
同一 249
品@@ 249
战@@ 249
收 249
滑动 249
潜在 249
猪@@ 249
田间 249
畸形 249
碘@@ 249
职能 249
阻尼 249
GM 248
Re@@ 248
um 248
中等 248
优质 248
传 248
偶@@ 248
单独 248
埋@@ 248
增产 248
少量 248
带有 248
法规 248
系@@ 248
退 248
酒 248
镜@@ 248
当今 247
有利 247
统@@ 247
降至 247
高层 247
Ag@@ 246
C_@@ 246
σ@@ 246
使@@ 246
公平 246
初探 246
卵@@ 246
差分 246
施肥 246
烧@@ 246
热带 246
理学 246
益@@ 246
破碎 246
精密 246
紧 246
菜@@ 246
象@@ 246
贮@@ 246
1/2 245
1:@@ 245
冠心病 245
尺 245
户 245
数目 245
石英 245
硝@@ 245
统 245
缓冲 245
适应性 245
酮@@ 245
22.@@ 244
97 244
CP@@ 244
全球化 244
切削 244
十 244
后者 244
堆@@ 244
导管 244
很大 244
晚 244
洗@@ 244
节约 244
适@@ 244
集体 244
HA 243
IFN 243
丁 243
云@@ 243
兴@@ 243
副 243
培@@ 243
培育 243
尝试 243
控制@@ 243
相变 243
考@@ 243
顾客 243
高峰 243
鲁@@ 243
PL@@ 242
倾斜 242
半径 242
展望 242
浸出 242
火箭 242
焊 242
轧机 242
运作 242
24.@@ 241
26.@@ 241
92 241
AD 241
DE@@ 241
er@@ 241
μg 241
产率 241
列车 241
力量 241
卵巢 241
合法 241
学院 241
录@@ 241
必@@ 241
抗病 241
摩尔 241
水位 241
纱 241
肽@@ 241
钉 241
2，@@ 240
Ba@@ 240
CK 240
er 240
μmol/L 240
伊@@ 240
加权 240
右侧 240
基层 240
服 240
电解 240
编 240
诺@@ 240
谷@@ 240
运算 240
锥@@ 240
陷 240
黑 240
# 239
MW 239
TC@@ 239
凝固 239
区别 239
夫 239
形貌 239
找出 239
持@@ 239
皮质 239
聚糖 239
肢 239
葡萄 239
重金属 239
闭@@ 239
阴@@ 239
乙 238
修饰 238
化剂 238
十二 238
占@@ 238
图象 238
平行 238
房地产 238
桥@@ 238
特异 238
稳 238
累积 238
耗@@ 238
茶@@ 238
读 238
身份 238
错误 238
高产 238
21.@@ 237
Ⅱ型 237
主导 237
反思 237
显@@ 237
海水 237
现在 237
界定 237
绝对 237
赤@@ 237
题 237
鼠@@ 237
HC@@ 236
T细胞 236
办法 236
坡@@ 236
展@@ 236
情绪 236
托 236
样@@ 236
检出率 236
民间 236
环形 236
粘附 236
良性 236
铵 236
02 235
28.@@ 235
RT@@ 235
到@@ 235
剪@@ 235
域@@ 235
密封 235
径向 235
悬@@ 235
摇@@ 235
构@@ 235
欧@@ 235
消化 235
脊@@ 235
血糖 235
阳@@ 235
Hz 234
便 234
切割 234
博@@ 234
康@@ 234
承担 234
植入 234
椎@@ 234
神@@ 234
约@@ 234
缺点 234
罗 234
蓄@@ 234
表层 234
袋 234
酚@@ 234
阶@@ 234
阻滞 234
27.@@ 233
NMR 233
乳酸 233
借助 233
儿 233
光子 233
均值 233
基地 233
宪法 233
家兔 233
封 233
心理学 233
电影 233
评@@ 233
钛 233
钻孔 233
附加 233
79 232
Al2O3 232
PD 232
公民 232
分支 232
切口 232
排列 232
来看 232
注重 232
滩 232
物种 232
电阻率 232
空调 232
线粒体 232
罐 232
耐药 232
聚丙烯 232
肾@@ 232
译 232
AB@@ 231
‰ 231
导弹 231
慢 231
抗震 231
比赛 231
画 231
着@@ 231
纪 231
路基 231
送@@ 231
透射 231
0.5% 230
F-@@ 230
kg/@@ 230
Δ@@ 230
分量 230
即@@ 230
变压器 230
变质 230
媒体 230
季节 230
播 230
注射液 230
焦虑 230
疼痛 230
皮下 230
缸 230
脉 230
自由基 230
芯@@ 230
萨@@ 230
触@@ 230
铸 230
黄河 230
2.5 229
3.0@@ 229
Agent 229
IN@@ 229
依赖性 229
初期 229
夹 229
晚@@ 229
期权 229
清除 229
犬 229
穴 229
粘结 229
网膜 229
膀胱 229
酶切 229
食管 229
麻 229
中毒 228
填@@ 228
多层 228
布局 228
把握 228
死@@ 228
泡 228
溴@@ 228
由@@ 228
男 228
站@@ 228
胆@@ 228
起始 228
错@@ 228
1998年 227
IS@@ 227
光栅 227
功 227
大脑 227
存 227
市@@ 227
影 227
恒@@ 227
排水 227
灌 227
甲状腺 227
知@@ 227
粉煤灰 227
终@@ 227
通风 227
C组 226
一致性 226
仍然 226
原型 226
变迁 226
围绕 226
工业化 226
核酸 226
水溶液 226
漏@@ 226
烷@@ 226
空白 226
81 225
EC@@ 225
IC@@ 225
党@@ 225
区分 225
尿素 225
心律 225
急@@ 225
灶 225
硫酸 225
穿@@ 225
竹@@ 225
组装 225
缓@@ 225
航空 225
设@@ 225
L-1 224
MD@@ 224
TP 224
μg/L 224
人生 224
幼虫 224
放射性 224
正在 224
治@@ 224
炼@@ 224
烧 224
生殖 224
轧@@ 224
追@@ 224
A-@@ 223
价@@ 223
分裂症 223
化物 223
唯一 223
对其 223
日常 223
欧洲 223
气流 223
筒@@ 223
腿 223
除了 223
0％ 222
4～@@ 222
67@@ 222
ms 222
亚群 222
孢子 222
机床 222
校园 222
楼 222
氰@@ 222
滚@@ 222
结石 222
自由度 222
装备 222
逐@@ 222
配套 222
钻@@ 222
} 221
∈@@ 221
主动脉 221
云南 221
介@@ 221
对人 221
显 221
煤矿 221
爆@@ 221
电荷 221
翻@@ 221
调速 221
醛 221
露 221
黄土 221
44@@ 220
CR@@ 220
内膜 220
凹陷 220
刺@@ 220
反向 220
备 220
浸润 220
深化 220
粘土 220
纳@@ 220
腺癌 220
酸酯 220
106 219
RA 219
on@@ 219
δ@@ 219
呼@@ 219
室@@ 219
容@@ 219
录 219
批判 219
旨 219
杨@@ 219
沉积物 219
蚀 219
贴@@ 219
造型 219
青年 219
预期 219
98.@@ 218
MD 218
NaCl 218
RA@@ 218
准确性 218
加密 218
基坑 218
希望 218
式@@ 218
得以 218
情形 218
损耗 218
枯@@ 218
甲醛 218
疗程 218
赛 218
键@@ 218
间距 218
（@@ 218
110 217
IL-6 217
TA 217
∞ 217
中华 217
供给 217
创伤 217
多糖 217
形态学 217
改 217
李@@ 217
查 217
概括 217
法制 217
测序 217
添加剂 217
渗流 217
物料 217
电动机 217
节省 217
英 217
蒸发 217
虚@@ 217
解剖 217
话语 217
质谱 217
避@@ 217
重度 217
金刚石 217
锁@@ 217
难@@ 217
首@@ 217
93 216
以此 216
创建 216
失 216
宁@@ 216
尤其 216
往往 216
心率 216
抽样 216
暗@@ 216
涡@@ 216
VEGF 215
了@@ 215
任 215
优@@ 215
伯@@ 215
前者 215
填充 215
微型 215
找到 215
染@@ 215
汞 215
泡沫 215
硒 215
第1 215
缓 215
置@@ 215
蓝@@ 215
遵循 215
0.2 214
10.@@ 214
Ⅰ@@ 214
动机 214
半导体 214
及时 214
填料 214
孔径 214
振荡 214
枪 214
永@@ 214
洞@@ 214
级@@ 214
软骨 214
输送 214
还@@ 214
逆转 214
遗@@ 214
酸盐 214
铸@@ 214
防范 214
140 213
A1 213
Cl 213
伤害 213
加载 213
叶绿素 213
唑@@ 213
壁@@ 213
夹@@ 213
布置 213
政 213
来说 213
水性 213
活性剂 213
满 213
爆炸 213
爱@@ 213
电场 213
监@@ 213
硫酸@@ 213
硼 213
穗@@ 213
自适应 213
血栓 213
路线 213
29.@@ 212
GB 212
MT@@ 212
Pb@@ 212
YAG 212
son 212
倒@@ 212
冬 212
城镇 212
复方 212
大部分 212
奇 212
契约 212
封@@ 212
届 212
校@@ 212
水下 212
生存率 212
石墨 212
运营 212
通气 212
IgG 211
SD@@ 211
λ 211
东部 211
呈@@ 211
战争 211
抑郁 211
机体 211
染 211
瓜 211
病灶 211
离子@@ 211
证@@ 211
贮藏 211
酒@@ 211
酶联 211
闪@@ 211
39@@ 210
BA@@ 210
Sn@@ 210
伪@@ 210
出水 210
围@@ 210
图谱 210
复合@@ 210
容积 210
封闭 210
评述 210
说@@ 210
镀 210
G-@@ 209
MP 209
XML 209
丙烯 209
倾@@ 209
准备 209
判定 209
场@@ 209
承载 209
抽 209
拱 209
春 209
模态 209
消息 209
烟气 209
生育 209
肥@@ 209
脾 209
腺 209
请求 209
65@@ 208
6月 208
ppm 208
个性 208
中期 208
入侵 208
博弈 208
叠 208
处理器 208
实质 208
屈@@ 208
延伸 208
愈合 208
成骨 208
损 208
气象 208
波导 208
热力学 208
网上 208
走@@ 208
铺 208
骨架 208
CC 207
E-@@ 207
is 207
会@@ 207
刚@@ 207
协@@ 207
吡@@ 207
塞@@ 207
广 207
广西 207
意@@ 207
抑 207
末端 207
架@@ 207
灌溉 207
烯@@ 207
示@@ 207
纯度 207
股@@ 207
货 207
* 206
/s 206
600@@ 206
NP 206
PH@@ 206
mol 206
互 206
促 206
判别 206
双向 206
存活 206
学的 206
成立 206
推 206
斑@@ 206
泡@@ 206
火灾 206
被动 206
限制性 206
鸡@@ 206
Al2 205
CI 205
TE@@ 205
cm2 205
σ 205
原有 205
可见 205
呈正 205
学家 205
尖 205
嵌@@ 205
息 205
按@@ 205
朝 205
桑@@ 205
湖@@ 205
珠@@ 205
经常 205
英@@ 205
著名 205
读@@ 205
队伍 205
101 204
800 204
LC 204
NA@@ 204
{ 204
下游 204
乳液 204
依@@ 204
前期 204
单层 204
夫@@ 204
对流 204
寻求 204
少数 204
山区 204
并在 204
投影 204
新生 204
方程组 204
时空 204
热器 204
痕 204
窦 204
纤维化 204
结核 204
酯@@ 204
锰@@ 204
en@@ 203
亚洲 203
健@@ 203
共聚物 203
吸入 203
固有 203
排斥 203
显像 203
杀 203
考试 203
色彩 203
螺@@ 203
词@@ 203
辅@@ 203
配制 203
57 202
IL@@ 202
TNF-α 202
hm2 202
两@@ 202
丹@@ 202
伪 202
光照 202
发作 202
国民 202
复杂性 202
多重 202
太 202
拔@@ 202
灵活 202
肩 202
血小板 202
证书 202
误 202
诱@@ 202
铺@@ 202
髓 202
33% 201
600 201
CR 201
之中 201
亚型 201
军事 201
分期 201
切除术 201
多孔 201
奇异 201
序@@ 201
款 201
汉 201
电网 201
莫@@ 201
要点 201
试验@@ 201
语境 201
谱@@ 201
陷@@ 201
饱和度 201
3～@@ 200
MB@@ 200
N-@@ 200
g·@@ 200
μg/ml 200
保护@@ 200
凹@@ 200
坯 200
容器 200
展示 200
感觉 200
杂 200
疗法 200
稀@@ 200
结束 200
育种 200
解读 200
诚信 200
配位 200
锡 200
77@@ 199
TG 199
… 199
乙型 199
减压 199
因@@ 199
官@@ 199
建筑物 199
投资者 199
时效 199
法治 199
炮 199
舒@@ 199
花粉 199
释@@ 199
零售 199
47@@ 198
ER@@ 198
LD 198
mg·@@ 198
不但 198
串行 198
别 198
塞 198
射频 198
并对 198
氯化@@ 198
瘢痕 198
觉 198
诊 198
调试 198
轮胎 198
输 198
镀@@ 198
问 198
龙 198
0·@@ 197
MR 197
TC 197
互动 197
刀具 197
发性 197
夏季 197
干旱 197
待 197
护 197
排序 197
放大 197
杀@@ 197
栓塞 197
沿@@ 197
甲烷 197
苯基 197
蜂 197
跳 197
镇@@ 197
静电 197
SS@@ 196
T1 196
T2 196
p53 196
双重 196
场景 196
建@@ 196
德国 196
村 196
此@@ 196
烷基 196
焦 196
用来 196
碎石 196
磺@@ 196
表皮 196
AR 195
G1 195
ISO 195
MI 195
九 195
伴随 195
冬@@ 195
凝 195
喷 195
多个 195
失常 195
工序 195
废 195
患 195
泥沙 195
滨@@ 195
灵 195
炭 195
砼 195
组间 195
胎@@ 195
豆 195
连锁 195
馆 195
PB@@ 194
κ 194
以往 194
健全 194
化工 194
损@@ 194
据 194
排除 194
机器 194
枝@@ 194
梅@@ 194
浓@@ 194
浓缩 194
滑坡 194
熟@@ 194
盘@@ 194
盲@@ 194
称为 194
简述 194
肾脏 194
衍生物 194
颈 194
频谱 194
齐 194
4/@@ 193
96.@@ 193
97.@@ 193
99@@ 193
SE@@ 193
π 193
亲本 193
俗 193
允许 193
写@@ 193
别@@ 193
土层 193
大多数 193
如@@ 193
手法 193
捕@@ 193
春@@ 193
泛@@ 193
熔融 193
盒 193
草地 193
视网膜 193
跑 193
通路 193
间的 193
面的 193
顿 193
37.@@ 192
AC 192
Ch@@ 192
东亚 192
人权 192
优先 192
倍@@ 192
关 192
加氢 192
员工 192
平板 192
瓦斯 192
相对于 192
矿山 192
离子体 192
离心 192
考核 192
股骨 192
膝 192
藏@@ 192
课@@ 192
阴 192
雨 192
事实 191
分子筛 191
力矩 191
境 191
工作面 191
得分 191
技@@ 191
抗菌 191
期刊 191
架构 191
湍流 191
窄 191
筛@@ 191
结肠 191
胎儿 191
160 190
1／@@ 190
34.@@ 190
HD@@ 190
MO@@ 190
RSD 190
─ 190
事务 190
值得 190
历@@ 190
器@@ 190
太阳 190
孕 190
总数 190
景@@ 190
机车 190
歌 190
瞬态 190
碘 190
精子 190
赛@@ 190
阴极 190
CP 189
CSF 189
RP 189
ST 189
主流 189
众多 189
倾角 189
取样 189
广告 189
成年 189
成长 189
振幅 189
椭圆 189
每组 189
疏@@ 189
编辑 189
胶原 189
裂隙 189
语文 189
较高 189
透明 189
配体 189
钻井 189
隔离 189
鞍@@ 189
36.@@ 188
NA 188
NT@@ 188
λ@@ 188
中医 188
中部 188
便@@ 188
保温 188
务@@ 188
品系 188
平稳 188
度量 188
收费 188
放大器 188
水流 188
相似性 188
省@@ 188
码@@ 188
褐@@ 188
进化 188
驱 188
85% 187
DR 187
SR@@ 187
kg/hm2 187
不育 187
串联 187
主观 187
到达 187
原来 187
另一方面 187
圆形 187
塑造 187
探测器 187
接着 187
杂种 187
析出 187
步@@ 187
氧化酶 187
灭@@ 187
百 187
自行 187
邻@@ 187
92.@@ 186
F1 186
信息@@ 186
兵 186
冬季 186
判@@ 186
合理性 186
她 186
川 186
望 186
治疗组 186
消费者 186
灌@@ 186
花岗岩 186
虚 186
醋酸 186
阳极 186
难题 186
集合 186
000@@ 185
12% 185
AL@@ 185
GB@@ 185
T_@@ 185
代表性 185
关节炎 185
单次 185
卤@@ 185
塑@@ 185
客@@ 185
就业 185
川@@ 185
批@@ 185
机上 185
正则 185
湾 185
蛋@@ 185
锚杆 185
陆 185
1997年 184
38.@@ 184
55@@ 184
FPGA 184
Sch@@ 184
Zr@@ 184
℃@@ 184
径流 184
接枝 184
替 184
歌@@ 184
浸泡 184
生根 184
真核 184
紧密 184
芦@@ 184
营@@ 184
血症 184
读者 184
谐波 184
选育 184
酰@@ 184
1.8@@ 183
320@@ 183
MT 183
PE 183
φ 183
χ 183
一体 183
中小学 183
伤@@ 183
加大 183
反复 183
吊@@ 183
四川 183
城@@ 183
姿态 183
效@@ 183
无关 183
栓 183
火焰 183
灾 183
立体 183
继承 183
胆固醇 183
获 183
31.@@ 182
B2 182
II 182
L/@@ 182
μg/@@ 182
′@@ 182
仿@@ 182
停留 182
变动 182
填 182
孢@@ 182
开挖 182
悲剧 182
意见 182
洪@@ 182
浅析 182
理化 182
病害 182
运转 182
阳离子 182
雾 182
高炉 182
ER 181
PR 181
串@@ 181
举@@ 181
参 181
对此 181
弯@@ 181
感应 181
扬@@ 181
施用 181
束@@ 181
概况 181
滞@@ 181
灭 181
生产力 181
突破 181
篮球 181
缩小 181
肾素 181
诉 181
青 181
10％ 180
1月 180
66.@@ 180
95.@@ 180
V/@@ 180
上部 180
伺服 180
农药 180
剪力 180
医@@ 180
危@@ 180
外侧 180
多数 180
寻@@ 180
尖@@ 180
平原 180
情景 180
成功率 180
救@@ 180
月@@ 180
流的 180
硫化 180
等等 180
红色 180
老化 180
蒸@@ 180
重力 180
鼻 180
0.0% 179
35.@@ 179
C_ 179
E2 179
EC 179
SF@@ 179
SO4 179
mm×@@ 179
体验 179
像@@ 179
北部 179
吸引 179
回路 179
大桥 179
左侧 179
探究 179
机会 179
权益 179
滞后 179
秩序 179
舒张 179
超微 179
轧辊 179
遇到 179
镀层 179
验 179
130 178
2- 178
2O@@ 178
Ad@@ 178
Bi@@ 178
DS@@ 178
IL－@@ 178
S/@@ 178
el@@ 178
g/kg 178
θ 178
利润 178
孤@@ 178
层析 178
岩浆 178
州市 178
救 178
杜@@ 178
条带 178
梗塞 178
汤 178
湿地 178
潮@@ 178
稀释 178
穿刺 178
范畴 178
螺纹 178
退化 178
送 178
逆向 178
高中 178
50％ 177
AM 177
CB@@ 177
NF 177
SiC 177
al@@ 177
ol@@ 177
会议 177
反相 177
吡啶 177
含水量 177
备@@ 177
委托 177
安全@@ 177
必 177
接地 177
斗 177
是@@ 177
木材 177
汁 177
渐@@ 177
滴@@ 177
衣 177
贫@@ 177
转化率 177
过氧化物酶 177
际 177
12月 176
94.@@ 176
9．@@ 176
HB@@ 176
MHz 176
PVC 176
Visual 176
mg@@ 176
mol／L 176
中子 176
乱 176
以便 176
促使 176
倒 176
全局 176
分型 176
动性 176
夏@@ 176
宽带 176
巷道 176
旁@@ 176
机遇 176
波段 176
润@@ 176
淬火 176
滑移 176
漏 176
烟草 176
病菌 176
编写 176
苦@@ 176
蛋 176
表观 176
设定 176
辉@@ 176
逼近 176
铸铁 176
［ 176
R-@@ 175
X-@@ 175
es@@ 175
停 175
兴起 175
养老 175
内外 175
参加 175
威@@ 175
成就 175
振 175
易于 175
水文 175
牵引 175
相近 175
看@@ 175
穿 175
等式 175
羟@@ 175
腰@@ 175
腺病毒 175
蔗糖 175
误@@ 175
财@@ 175
邻 175
锯@@ 175
0.3 174
6～@@ 174
H_@@ 174
IL-@@ 174
PM 174
TEM 174
付 174
减弱 174
单株 174
发病率 174
司@@ 174
场所 174
块@@ 174
多项式 174
岩性 174
座@@ 174
弥补 174
当地 174
态性 174
操纵 174
救济 174
文艺 174
最大值 174
桃 174
武器 174
比率 174
籽粒 174
荷 174
赔偿 174
趋@@ 174
酶活性 174
锰 174
饲养 174
32@@ 173
A2 173
ET 173
F2 173
HR 173
IL-2 173
NS 173
an@@ 173
re@@ 173
t/@@ 173
乘 173
体质 173
侦查 173
光束 173
力场 173
单晶 173
可达 173
射流 173
屑 173
柔@@ 173
求得 173
测验 173
熔体 173
矩形 173
矿石 173
老年人 173
能谱 173
脂肪酸 173
萌发 173
身@@ 173
近期 173
退休 173
93.@@ 172
RF@@ 172
]@@ 172
_4@@ 172
c-@@ 172
一样 172
储量 172
刚 172
吸收@@ 172
培养基 172
复苏 172
失败 172
套管 172
开裂 172
想 172
抽取 172
拟合 172
挡 172
接入 172
杨 172
死 172
清洗 172
矿井 172
窝 172
胞@@ 172
芳@@ 172
荧光@@ 172
薄@@ 172
跳@@ 172
转基因 172
酰 172
1.6@@ 171
86.@@ 171
88.@@ 171
Gy 171
or@@ 171
β-@@ 171
光电 171
分流 171
千 171
单核 171
引 171
形变 171
有益 171
核苷酸 171
灌浆 171
置于 171
致密 171
覆 171
规格 171
］ 171
6.0 170
Al_2O_3 170
PT 170
g／@@ 170
st@@ 170
临@@ 170
修辞 170
凸 170
功耗 170
包裹 170
南部 170
吹@@ 170
嗪 170
场地 170
夏 170
密钥 170
忽视 170
杆@@ 170
氮素 170
涂 170
润滑 170
溃疡 170
烧伤 170
管理@@ 170
联盟 170
腺@@ 170
那@@ 170
顶板 170
100％ 169
49@@ 169
乙酸 169
亲 169
优选 169
侧面 169
分形 169
化率 169
参照 169
对抗 169
并用 169
异性 169
扇 169
执政 169
新鲜 169
标定 169
欧 169
焙烧 169
石灰 169
竞技 169
终端 169
肩@@ 169
评判 169
贫血 169
赋予 169
阻塞 169
2+ 168
32.@@ 168
5.0 168
PP@@ 168
PR@@ 168
TMS 168
】 168
假定 168
击@@ 168
双侧 168
异步 168
律@@ 168
拥有 168
探 168
携带 168
摄@@ 168
株@@ 168
汇@@ 168
炭@@ 168
红细胞 168
解除 168
锻炼 168
饮@@ 168
＝@@ 168
120@@ 167
24h 167
5/@@ 167
85.@@ 167
CD8 167
TCP 167
am@@ 167
kV 167
中断 167
乐 167
乘@@ 167
伏 167
低压 167
光滑 167
单链 167
大力 167
定律 167
工作@@ 167
干扰素 167
时滞 167
材@@ 167
田@@ 167
矿区 167
纪@@ 167
莱@@ 167
要@@ 167
议 167
逆转录 167
髓@@ 167
高分子 167
102 166
NC 166
S2 166
_6 166
mol@@ 166
os@@ 166
介入 166
借@@ 166
储备 166
削 166
办 166
原子@@ 166
叠加 166
惯@@ 166
抵@@ 166
树立 166
棉花 166
沟@@ 166
牌 166
瓶 166
租@@ 166
细化 166
网状 166
钻 166
闭环 166
C2 165
IT@@ 165
Le@@ 165
SBR 165
优缺点 165
免 165
创面 165
加速度 165
只是 165
女子 165
宜 165
导电 165
成纤维 165
族@@ 165
晶格 165
期望 165
机关 165
楼@@ 165
止@@ 165
海拔 165
硼@@ 165
职 165
苹果 165
菲@@ 165
谐振 165
转换器 165
过度 165
领 165
10－@@ 164
DD@@ 164
DP 164
Nb@@ 164
OR@@ 164
RO@@ 164
SC 164
[@@ 164
三峡 164
人为 164
以内 164
优越性 164
体中 164
全长 164
天气 164
平滑肌 164
库存 164
所在 164
敏@@ 164
求出 164
照 164
盆 164
给定 164
舱 164
贫困 164
车间 164
转动 164
*@@ 163
5mm 163
700 163
76.@@ 163
90年代 163
B-@@ 163
HCV 163
ap@@ 163
△@@ 163
予以 163
切实 163
单克隆 163
含义 163
对外 163
工人 163
并发 163
当时 163
指令 163
支承 163
残 163
气动 163
沉 163
清晰 163
漫@@ 163
球形 163
画@@ 163
盐性 163
硝化 163
税@@ 163
航 163
蔬菜 163
衰 163
转导 163
野 163
39.@@ 162
Al-@@ 162
Cd@@ 162
Linux 162
_2O_3 162
en 162
ro@@ 162
丙烯酸 162
伦@@ 162
住 162
体会 162
偿@@ 162
八@@ 162
嵌入 162
手术组 162
据此 162
气相 162
氮肥 162
流失 162
爆 162
磺酸 162
轮廓 162
镇痛 162
黏@@ 162
45.@@ 161
AF@@ 161
Ni-@@ 161
PG@@ 161
SiO_2 161
TiO_2 161
ar@@ 161
at@@ 161
n-@@ 161
【 161
信噪比 161
印迹 161
回流 161
威胁 161
差距 161
应激 161
弧 161
所有权 161
抗压 161
抗生素 161
有序 161
有机质 161
汇率 161
污 161
沸石 161
油层 161
熟 161
电气 161
砷@@ 161
脚 161
言@@ 161
资@@ 161
起着 161
锈@@ 161
阴离子 161
隙 161
109 160
78.@@ 160
DO@@ 160
IF@@ 160
O-@@ 160
PT@@ 160
乳腺 160
保守 160
冷冻 160
叠@@ 160
咨询 160
外周 160
外科 160
大众 160
导入 160
局限性 160
展 160
幕 160
弹簧 160
拟@@ 160
有机物 160
泵浦 160
确诊 160
社 160
结节 160
芳烃 160
试件 160
过去 160
钙@@ 160
除尘 160
青少年 160
高级 160
1500 159
6/@@ 159
CE@@ 159
CI@@ 159
LPS 159
Me@@ 159
P/@@ 159
代码 159
何 159
保 159
典 159
养分 159
冻@@ 159
净@@ 159
剧@@ 159
发布 159
堤 159
完@@ 159
家系 159
强大 159
心电图 159
拓展 159
故 159
杂质 159
松弛 159
油气藏 159
洋 159
海上 159
渗透率 159
电站 159
络合物 159
获@@ 159
西北 159
语法 159
酒精 159
闭 159
霍@@ 159
108 158
3+ 158
84.@@ 158
GC 158
GS 158
si@@ 158
一氧化氮 158
乙酰 158
什么 158
伸@@ 158
加重 158
圣@@ 158
太平洋 158
屏蔽 158
并联 158
抗旱 158
曼 158
特有 158
皂苷 158
胡@@ 158
融@@ 158
衬 158
设想 158
锂 158
闸 158
阐释 158
2O3 157
56@@ 157
Ce 157
mg／@@ 157
ε@@ 157
μg／@@ 157
从中 157
刑法 157
含油 157
困境 157
新的 157
服装 157
柴油 157
涡 157
番茄 157
罪@@ 157
艺术@@ 157
跨度 157
顺利 157
驱@@ 157
鸭 157
2000@@ 156
AN@@ 156
AV@@ 156
H_2O 156
之上 156
伐 156
依 156
储 156
决@@ 156
创 156
北方 156
卧@@ 156
号@@ 156
售 156
归 156
树种 156
浮 156
浮选 156
清洁 156
滚动 156
甘油 156
2mm 155
42.@@ 155
99% 155
C3@@ 155
Ca2 155
中度 155
刀@@ 155
厚@@ 155
取决于 155
寒 155
小区 155
峰@@ 155
庄 155
当事人 155
扶@@ 155
插值 155
构型 155
气道 155
水电站 155
汽油 155
滤 155
激烈 155
炮@@ 155
畸变 155
百分比 155
组织学 155
维度 155
自体 155
覆@@ 155
趋于 155
阶级 155
隆 155
鼠脑 155
1.2 154
CS 154
GH 154
MG 154
TR@@ 154
ch@@ 154
s-@@ 154
不同于 154
冰 154
反义 154
古典 154
台湾 154
咽 154
喷射 154
局@@ 154
嵌 154
故事 154
教材 154
曾 154
有力 154
热量 154
网站 154
聚焦 154
至少 154
荷@@ 154
视野 154
贴 154
革@@ 154
黏膜 154
0.1% 153
1.2@@ 153
2+@@ 153
85@@ 153
GF@@ 153
ac@@ 153
as@@ 153
互联网 153
供应 153
同源 153
培养液 153
应答 153
患病率 153
意象 153
来源于 153
激 153
百分率 153
砖 153
繁@@ 153
经济性 153
肝硬化 153
肿@@ 153
脂质 153
自然@@ 153
艾滋病 153
螺旋@@ 153
衡量 153
裁@@ 153
资 153
返 153
限度 153
震源 153
000 152
64@@ 152
FE@@ 152
IT 152
SB@@ 152
一方面 152
业绩 152
冠@@ 152
加压 152
历 152
厌氧 152
反射@@ 152
圈@@ 152
垂@@ 152
复兴 152
山羊 152
摇 152
梢 152
游 152
火山 152
病情 152
竖 152
聚氨酯 152
胰@@ 152
苗@@ 152
酶解 152
错 152
10月 151
111 151
G2 151
Sr 151
m/@@ 151
中间@@ 151
产出 151
住房 151
作战 151
双层 151
发电机 151
听 151
周边 151
垢 151
基准 151
外源 151
对数 151
少@@ 151
己@@ 151
幼 151
延 151
旨在 151
标准化 151
汉族 151
王 151
研究性 151
精矿 151
网络化 151
脱水 151
脾@@ 151
色散 151
艾@@ 151
薪酬 151
词汇 151
超声波 151
超导 151
遥控 151
那 151
阻燃 151
饮食 151
198@@ 150
3.0 150
3d 150
46@@ 150
Java 150
RAPD 150
TS 150
停止 150
剧 150
地址 150
塑 150
奥氏体 150
心肌@@ 150
恶@@ 150
抽象 150
支配 150
极性 150
梯@@ 150
棚 150
气藏 150
水利 150
流动性 150
济@@ 150
渣@@ 150
滞 150
犯 150
瑞@@ 150
研究@@ 150
纤维素 150
鸟 150
-4 149
35% 149
57.@@ 149
CD3 149
GA@@ 149
H2O 149
M2 149
MgO 149
SAR 149
TI@@ 149
个性化 149
二醛 149
交联 149
休@@ 149
华北 149
变频 149
喷涂 149
固态 149
外观 149
奖@@ 149
奶@@ 149
层序 149
推荐 149
显色 149
智力 149
术@@ 149
极大 149
档 149
波浪 149
液晶 149
港口 149
满意度 149
焊缝 149
环流 149
矿化 149
簇 149
膨@@ 149
质子 149
载波 149
辩@@ 149
阵@@ 149
5月 148
B/S 148
CAM 148
三角 148
催@@ 148
儒家 148
双方 148
夹心 148
摆@@ 148
教育@@ 148
武术 148
泉 148
研究所 148
竹 148
筋 148
肉瘤 148
脱除 148
药剂 148
重叠 148
雪 148
1+@@ 147
87.@@ 147
ASP 147
Ga@@ 147
Pa 147
Server 147
TB@@ 147
VA 147
一系列 147
串 147
丸 147
人机 147
关系式 147
分析仪 147
助剂 147
化酶 147
压电 147
口腔 147
尽管 147
应急 147
感染率 147
成活率 147
水中 147
汽轮机 147
法国 147
流化床 147
淋@@ 147
火山岩 147
球蛋白 147
疑@@ 147
简 147
翻 147
胆囊 147
腔@@ 147
苯酚 147
讲 147
超越 147
辨识 147
返@@ 147
镁@@ 147
露@@ 147
顺 147
80年代 146
ES 146
NK 146
S1 146
SM@@ 146
乳化 146
仁 146
办学 146
后代 146
始@@ 146
工程@@ 146
彩@@ 146
担@@ 146
播@@ 146
文库 146
智能化 146
曲率 146
汉字 146
消毒 146
滚 146
物中 146
益 146
移民 146
粒体 146
绝@@ 146
裂解 146
费@@ 146
野@@ 146
铸件 146
陀螺 146
雌 146
霉 146
预警 146
1.7@@ 145
1000@@ 145
18% 145
3月 145
48.@@ 145
CDMA 145
ERP 145
IPv6 145
MR@@ 145
NOS 145
Pa@@ 145
RB@@ 145
α-@@ 145
专 145
供电 145
全新 145
全身 145
分段 145
制冷 145
品位 145
婚姻 145
小学 145
工作者 145
掩@@ 145
放置 145
文档 145
暖 145
油菜 145
洪水 145
热液 145
电信 145
盐度 145
粘性 145
继@@ 145
腰椎 145
虾 145
视力 145
钠@@ 145
防水 145
集装箱 145
雷 145
14% 144
7-@@ 144
PI@@ 144
USB 144
us@@ 144
二极管 144
剂@@ 144
卒中 144
启@@ 144
地壳 144
复位 144
幻@@ 144
广东 144
心动 144
悬 144
慢@@ 144
析@@ 144
根源 144
毫@@ 144
票 144
耐磨 144
耕地 144
肺炎 144
膏 144
衰老 144
遇 144
锈 144
雨@@ 144
雪@@ 144
面板 144
高斯 144
高精度 144
0.4 143
41.@@ 143
98% 143
HO@@ 143
T3 143
VC 143
le@@ 143
一维 143
严@@ 143
习@@ 143
共轭 143
农田 143
分辨 143
创造性 143
发展中 143
垄断 143
担保 143
案件 143
止 143
消 143
瓦@@ 143
看法 143
素养 143
纤@@ 143
纳入 143
股权 143
苯胺 143
话@@ 143
豚鼠 143
释 143
野外 143
雄@@ 143
霉菌 143
颗 143
题@@ 143
餐@@ 143
1996年 142
20％ 142
5，@@ 142
75.@@ 142
83.@@ 142
ANSYS 142
C++ 142
ME 142
Nb 142
Ta@@ 142
中介 142
化学@@ 142
合格 142
命名 142
圆柱 142
土体 142
大约 142
审 142
待@@ 142
放疗 142
旱@@ 142
最大化 142
气温 142
法院 142
游戏 142
焦点 142
甲苯 142
皮层 142
相反 142
码头 142
藻@@ 142
04 141
197@@ 141
2·@@ 141
58.@@ 141
62.@@ 141
68@@ 141
98@@ 141
B1 141
CRP 141
P均 141
RE 141
sp@@ 141
主张 141
乡村 141
人性 141
信仰 141
信贷 141
偏移 141
医 141
卫 141
原生 141
反转 141
同工酶 141
和平 141
常温 141
平等 141
拖@@ 141
挖 141
旁 141
活性炭 141
潜伏期 141
神 141
空心 141
细胞株 141
继 141
表型 141
镉 141
间质 141
31@@ 140
67% 140
68.@@ 140
8～@@ 140
AM@@ 140
CCD 140
Ca2+ 140
DSC 140
HPV 140
ML 140
N/@@ 140
TM 140
μg·@@ 140
乡 140
以前 140
供应商 140
储蓄 140
养殖 140
吨 140
吸烟 140
噪 140
子系统 140
拱@@ 140
插管 140
既@@ 140
暗 140
暴雨 140
椎间盘 140
活检 140
液化 140
电导率 140
白蛋白 140
砂体 140
窑 140
细胞膜 140
肠癌 140
肥胖 140
至@@ 140
跨国 140
齐@@ 140
64.@@ 139
He@@ 139
Sp@@ 139
_2O@@ 139
不稳定 139
乃至 139
光源 139
兴 139
切换 139
原核 139
参量 139
坝@@ 139
始终 139
山西 139
巨噬细胞 139
广州 139
抛@@ 139
摩 139
新世 139
概@@ 139
法定 139
灵@@ 139
用水 139
磨削 139
稍@@ 139
第五 139
舌@@ 139
虽 139
解法 139
透析 139
铝合金 139
难度 139
面上 139
0.25 138
1200 138
2R 138
3D 138
ED@@ 138
LA@@ 138
MS+@@ 138
丹 138
主机 138
争 138
几@@ 138
南方 138
听力 138
唐@@ 138
外加 138
广阔 138
开放式 138
扭转 138
抢@@ 138
整治 138
斜坡 138
民营 138
气氛 138
氧基 138
浙江 138
混合@@ 138
热力 138
电容 138
自制 138
草原 138
蛇 138
议@@ 138
铀 138
预算 138
103 137
47.@@ 137
72.@@ 137
92% 137
FC 137
IL-1 137
IS 137
O_3 137
SDS 137
SW@@ 137
Sb@@ 137
_0 137
④ 137
不确定性 137
以期 137
例如 137
便于 137
公正 137
发送 137
回火 137
地铁 137
宣@@ 137
感知 137
执@@ 137
掺入 137
漂@@ 137
热轧 137
碎@@ 137
稻田 137
简易 137
簇@@ 137
纺 137
细胞@@ 137
绵羊 137
许@@ 137
运移 137
针刺 137
隐 137
骨质 137
0.8 136
33.@@ 136
350 136
44.@@ 136
SLE 136
j 136
m~2 136
下肢 136
任@@ 136
修订 136
刻@@ 136
外显子 136
层状 136
山东 136
气孔 136
泄漏 136
深部 136
湖南 136
煮 136
物体 136
电话 136
研发 136
破 136
稀 136
籍 136
缓慢 136
脂蛋白 136
衣@@ 136
试验组 136
谱仪 136
起动 136
造价 136
重塑 136
重庆 136
16% 135
GHz 135
H_2@@ 135
N- 135
O4 135
SO_4 135
Sh@@ 135
kb 135
个@@ 135
低频 135
做@@ 135
凝血 135
口语 135
味@@ 135
定期 135
岭 135
市场化 135
心力 135
指示 135
数理 135
无限 135
最近 135
海域 135
电弧 135
男子 135
界@@ 135
硝基 135
福 135
窗口 135
粪 135
绳 135
自旋 135
蒙@@ 135
重型 135
铅球 135
￣@@ 135
56.@@ 134
7d 134
CAT 134
CM 134
HR@@ 134
MB 134
NAA 134
Nd@@ 134
of 134
te@@ 134
主体性 134
也@@ 134
伴有 134
保护区 134
入射 134
可逆 134
屈服 134
性强 134
截 134
报警 134
拆@@ 134
推出 134
推行 134
柠檬酸 134
栅@@ 134
段@@ 134
比的 134
泰@@ 134
浇注 134
瓦 134
用性 134
皂甙 134
窦@@ 134
第2 134
绕 134
翼@@ 134
脂质体 134
脉动 134
菊@@ 134
蚀@@ 134
衍生 134
表面@@ 134
衬底 134
见@@ 134
诱 134
黄芪 134
￣ 134
CAN 133
CD4 133
Ce@@ 133
PEG 133
T4 133
久 133
修补 133
公众 133
响 133
大麦 133
学习者 133
干部 133
彻底 133
恒 133
扭@@ 133
招@@ 133
摆 133
显性 133
杀伤 133
核型 133
水肿 133
电动 133
白介素 133
相干 133
移位 133
絮凝剂 133
血中 133
规 133
订@@ 133
认定 133
识 133
贵 133
辛 133
阿尔@@ 133
107 132
D/@@ 132
ET@@ 132
ZnO 132
丰@@ 132
仓 132
众 132
例行 132
保健 132
入口 132
协作 132
囊肿 132
图书 132
在内 132
坦@@ 132
基本上 132
实用性 132
小板 132
态势 132
思@@ 132
总分 132
所谓 132
甜@@ 132
短路 132
硅胶 132
硬膜 132
私@@ 132
租 132
粮食 132
规制 132
足球 132
轧 132
透镜 132
铲@@ 132
难点 132
集群 132
风机 132
3.5 131
46.@@ 131
7月 131
800@@ 131
80％ 131
90％ 131
AO@@ 131
C3 131
Fe-@@ 131
J/@@ 131
LA 131
PM@@ 131
Pro@@ 131
Se@@ 131
Th@@ 131
Zr 131
Ⅰ型 131
两方面 131
交往 131
今天 131
偏心 131
做好 131
变的 131
地图 131
址 131
坐 131
坚@@ 131
型式 131
城乡 131
壮@@ 131
委员会 131
实验性 131
宫颈 131
工件 131
底物 131
底部 131
战术 131
扬 131
插 131
朝@@ 131
机动 131
枚 131
模量 131
毒力 131
白色 131
程@@ 131
粉尘 131
精细 131
胸腺 131
自发 131
良@@ 131
蜂@@ 131
行驶 131
递@@ 131
遮@@ 131
钴 131
降雨 131
险 131
黄瓜 131
-1@@ 130
0.15 130
43.@@ 130
63.@@ 130
Cs 130
ED 130
IU@@ 130
~2 130
大坝 130
广大 130
捕获 130
排球 130
攻@@ 130
栅 130
核算 130
混合物 130
玻@@ 130
生育期 130
皱@@ 130
稻米 130
等价 130
织 130
股份 130
较差 130
运动学 130
适合于 130
邓小平 130
随后 130
随时 130
飞 130
2O 129
53.@@ 129
La 129
NE@@ 129
P＜0.05 129
SI 129
φ@@ 129
Ⅲ型 129
不规则 129
专门 129
侧向 129
分析@@ 129
划 129
喷雾 129
宣传 129
循环@@ 129
户@@ 129
敌@@ 129
服用 129
构想 129
林业 129
没 129
河口 129
涵@@ 129
痛@@ 129
禁@@ 129
紊乱 129
纹理 129
细胞核 129
绝缘 129
胆碱 129
设立 129
迫@@ 129
鉴@@ 129
钻头 129
镇 129
附着 129
隐喻 129
食物 129
69.@@ 128
89.@@ 128
BL 128
Banach 128
EL@@ 128
HT 128
K-@@ 128
LS 128
System 128
Te@@ 128
VB 128
W/@@ 128
tin 128
佛@@ 128
出版 128
十年代 128
单片 128
占有 128
印刷 128
学派 128
对称性 128
小球 128
探析 128
搏 128
支付 128
末@@ 128
桂@@ 128
此时 128
气压 128
测控 128
热解 128
第六 128
级数 128
经济@@ 128
维数 128
美术 128
肋 128
胆管 128
腔内 128
芽@@ 128
萎缩 128
运动@@ 128
远端 128
适 128
采购 128
EP 127
NR 127
P2 127
at 127
mg·kg-1 127
um@@ 127
九@@ 127
亚基 127
侵权 127
冗余 127
冲刷 127
告@@ 127
噬菌体 127
噻@@ 127
均匀性 127
密码 127
察 127
建造 127
弊端 127
德育 127
悲@@ 127
想@@ 127
拔 127
指纹 127
极为 127
档案 127
泌@@ 127
流变 127
熔化 127
玉 127
疏松 127
社会化 127
经营者 127
能否 127
能级 127
蒸馏 127
视为 127
警@@ 127
进水 127
风速 127
馏 127
4，@@ 126
A/D 126
Li 126
M1 126
TO@@ 126
U/@@ 126
blot 126
cl@@ 126
nm@@ 126
ot@@ 126
丢失 126
予 126
体操 126
全过程 126
公开 126
刺 126
前人 126
北京市 126
同化 126
基团 126
寒@@ 126
工厂 126
帧 126
性地 126
患@@ 126
戏剧 126
成份 126
拮抗剂 126
挤出 126
新兴 126
无效 126
村@@ 126
正式 126
渐近 126
灌胃 126
物性 126
瞬时 126
矿体 126
粥样 126
终止 126
结扎 126
缝@@ 126
而是 126
肿 126
胰腺 126
胶质 126
脱氢酶 126
芳香 126
范@@ 126
透性 126
领@@ 126
频繁 126
黏附 126
0．05 125
1.3@@ 125
45% 125
77.@@ 125
8月 125
Wistar 125
习惯 125
井下 125
依赖于 125
初级 125
勒 125
十六 125
协会 125
叉@@ 125
失稳 125
己 125
年级 125
房屋 125
扫 125
推力 125
掺 125
旱 125
本科 125
相差 125
石蜡 125
破产 125
秸秆 125
答@@ 125
纲 125
纺@@ 125
组和 125
组织@@ 125
萘@@ 125
著 125
血红 125
颅@@ 125
03 124
13% 124
81.@@ 124
82.@@ 124
ID@@ 124
MV 124
PET 124
POD 124
St@@ 124
mol/@@ 124
m~3 124
℃时 124
乙基 124
人参 124
依靠 124
劳动力 124
变得 124
并购 124
挖@@ 124
某@@ 124
检测器 124
正确性 124
水土 124
汽 124
治愈 124
炼 124
生产线 124
矩 124
研@@ 124
耕 124
职工 124
节律 124
螺钉 124
血脂 124
诺 124
醚@@ 124
集落 124
静压 124
马氏体 124
/g 123
500@@ 123
54.@@ 123
59.@@ 123
An@@ 123
Eu 123
HE@@ 123
HI@@ 123
ON 123
O_ 123
RR 123
SMA 123
il@@ 123
m~@@ 123
供水 123
债务 123
冠脉 123
分离@@ 123
动量 123
发行 123
唐 123
嘧啶 123
城市化 123
处理@@ 123
害@@ 123
尖瓣 123
居住 123
幂@@ 123
摄影 123
无论 123
期货 123
椎 123
水印 123
碎 123
筋@@ 123
绒 123
给@@ 123
胆 123
至今 123
菇 123
营造 123
蚕 123
调用 123
铅@@ 123
链路 123
1：@@ 122
D1 122
FA 122
HP 122
T/@@ 122
and 122
or 122
ul@@ 122
π@@ 122
丙酮 122
体征 122
冶金 122
卸 122
发表 122
听@@ 122
坐@@ 122
墨 122
外语 122
多元化 122
小儿 122
巷 122
帕@@ 122
广播 122
我@@ 122
报表 122
挤 122
效力 122
曲霉 122
机场 122
棱@@ 122
泄@@ 122
涡轮 122
液中 122
煤气 122
煤炭 122
生物@@ 122
细胞系 122
脱氮 122
蓄 122
诸 122
诸如 122
起源 122
超临界 122
钼@@ 122
锻@@ 122
院@@ 122
革 122
饰 122
' 121
66@@ 121
79@@ 121
95@@ 121
96@@ 121
HSP 121
I-@@ 121
LE@@ 121
P＜0.01 121
es 121
mL/@@ 121
‘ 121
Ⅴ 121
传送 121
内侧 121
前列腺 121
变电站 121
合格率 121
吊 121
后现代 121
垫 121
复合体 121
宫@@ 121
射击 121
属@@ 121
径@@ 121
急 121
扣@@ 121
整数 121
无论是 121
栓@@ 121
水温 121
满@@ 121
电缆 121
男女 121
目@@ 121
等于 121
粘 121
缺血性 121
能耗 121
膝关节 121
自由@@ 121
资本主义 121
足够 121
雾化 121
静力 121
-G@@ 120
/L 120
49.@@ 120
91.@@ 120
ATM 120
CaO 120
LP 120
SARS 120
SN@@ 120
US 120
ab@@ 120
co@@ 120
mmHg 120
举 120
交替 120
人际 120
亿 120
全国 120
具@@ 120
分散@@ 120
分法 120
否定 120
地域 120
大致 120
岸@@ 120
巴 120
微粒 120
情境 120
惯性 120
成岩 120
投 120
方位 120
氨基@@ 120
浇@@ 120
淡@@ 120
淤 120
漂移 120
班@@ 120
磷酸化 120
种质 120
管制 120
经理 120
耐磨性 120
肯定 120
自治 120
蠕变 120
觉醒 120
讲@@ 120
许 120
贯彻 120
迟@@ 120
黄酮 120
17% 119
HLA-@@ 119
L- 119
SO2 119
et@@ 119
①@@ 119
买@@ 119
倍体 119
刻 119
受试者 119
吉@@ 119
告 119
周期性 119
客车 119
将@@ 119
尊重 119
屏幕 119
康 119
强制 119
性格 119
恶 119
抑菌 119
抗氧化 119
报酬 119
方法论 119
框 119
比重 119
氧化铝 119
氯化 119
河床 119
浪 119
潮流 119
瓷 119
电离 119
看到 119
砂浆 119
粘连 119
纤维@@ 119
绕@@ 119
耐受 119
腐败 119
腰 119
负责 119
08 118
65.@@ 118
67.@@ 118
AL 118
C1 118
Fuzzy 118
Ge@@ 118
SM 118
SV@@ 118
上游 118
丘脑 118
仔猪 118
呼吸道 118
喜@@ 118
处死 118
层间 118
左室 118
条款 118
枢纽 118
桃@@ 118
每@@ 118
沟通 118
烯烃 118
相关@@ 118
箱@@ 118
脆性 118
菌素 118
行动 118
西南 118
责 118
质体 118
身高 118
软弱 118
较低 118
逆行 118
钨@@ 118
铣@@ 118
雅@@ 118
食管癌 118
0．01 117
1995年 117
7～@@ 117
B组 117
GDP 117
HBsAg 117
MI@@ 117
P2P 117
Ph@@ 117
Western 117
pH值 117
ρ 117
上调 117
中文 117
仲裁 117
位错 117
千@@ 117
参数化 117
团@@ 117
坪 117
多种 117
大幅度 117
姆@@ 117
孕妇 117
存活率 117
导率 117
岩溶 117
差异性 117
徐@@ 117
播种 117
收益率 117
政@@ 117
棘@@ 117
歧化酶 117
消化道 117
漆 117
演 117
现金 117
用途 117
矫正 117
种种 117
竭 117
纶 117
综合性 117
荒@@ 117
解码 117
计算@@ 117
诗人 117
跃迁 117
辞@@ 117
追踪 117
铁矿 117
阻碍 117
韧带 117
颅脑 117
马铃薯 117
0.2% 116
30％ 116
3mm 116
4月 116
52.@@ 116
74.@@ 116
AMI 116
AutoCAD 116
IN 116
MATLAB 116
MTT 116
NT 116
XPS 116
di@@ 116
不利 116
产业化 116
仓@@ 116
凸轮 116
剖@@ 116
动脉瘤 116
叉 116
地貌 116
外延 116
媒介 116
宋 116
审查 116
宾 116
岩心 116
师@@ 116
庭 116
很@@ 116
很好地 116
心室 116
心房 116
我院 116
承受 116
抑@@ 116
洋@@ 116
浸渍 116
温室 116
演进 116
珍@@ 116
用地 116
病程 116
盛 116
短时 116
短波 116
秋@@ 116
联用 116
肠道 116
脱离 116
蜡@@ 116
融 116
裂化 116
贝 116
超氧化物 116
转运 116
高低 116
高强 116
高的 116
10．@@ 115
2006年 115
220 115
CF 115
HF 115
Se 115
Ω 115
下部 115
儿@@ 115
分枝 115
割 115
危险性 115
发器 115
口径 115
唯@@ 115
喉@@ 115
固结 115
国情 115
塘 115
好@@ 115
宝@@ 115
对虾 115
尘@@ 115
差值 115
愈@@ 115
授@@ 115
椎体 115
正义 115
氮化 115
流通 115
环保 115
生成@@ 115
矮 115
笔@@ 115
絮凝 115
脱落 115
蒂 115
规程 115
貌 115
金属@@ 115
钢丝 115
钼 115
锦@@ 115
需@@ 115
：@@ 115
+1 114
-P@@ 114
08@@ 114
15％ 114
73.@@ 114
9月 114
Ar 114
FS 114
Fas 114
IgM 114
K_@@ 114
MAC 114
TH@@ 114
cm~2 114
mL@@ 114
mg／kg 114
〔 114
人造 114
僵@@ 114
冻 114
即刻 114
县@@ 114
回波 114
回转 114
固相 114
增量 114
季@@ 114
底层 114
度计 114
引流 114
弗@@ 114
晶化 114
服@@ 114
本体 114
森 114
毛细管 114
汇编 114
污@@ 114
激波 114
灯@@ 114
灵活性 114
热稳定性 114
甲基化 114
硝酸盐 114
神经@@ 114
空腹 114
突变体 114
管内 114
群众 114
翅@@ 114
航天 114
薄层 114
行车 114
表面积 114
覆盖@@ 114
谷胱甘肽 114
造血 114
阻止 114
11% 113
196@@ 113
1992年 113
250@@ 113
300@@ 113
Ac@@ 113
HF@@ 113
HS 113
IB@@ 113
R2 113
VO@@ 113
_3-@@ 113
_5 113
ng/ml 113
op@@ 113
仅@@ 113
优异 113
优越 113
债券 113
内毒素 113
判据 113
力度 113
升温 113
哌@@ 113
嗜 113
团体 113
坑 113
垫@@ 113
女生 113
打 113
拉曼 113
收敛性 113
旅游业 113
束缚 113
沉默 113
清楚 113
爆发 113
爬@@ 113
特征值 113
盖@@ 113
矿产 113
硝酸 113
秆 113
糖蛋白 113
绘画 113
绿化 113
罐@@ 113
苜蓿 113
落后 113
薄壁 113
衰@@ 113
认同 113
负担 113
这里 113
钢丝绳 113
铜矿 113
锥 113
雌@@ 113
雌性 113
70％ 112
79.@@ 112
PCI 112
SE 112
SR 112
UV 112
kPa 112
ng/@@ 112
to@@ 112
Ⅳ@@ 112
侵袭 112
偶 112
偶联 112
出生 112
刨@@ 112
南海 112
可用 112
周龄 112
地点 112
坛 112
大规模 112
婚 112
宫颈癌 112
左心室 112
感性 112
批量 112
文字 112
时刻 112
昆虫 112
深远 112
混凝 112
炎性 112
甲酯 112
盲 112
相符 112
碱基 112
禽 112
肿胀 112
脂肪@@ 112
舰船 112
落实 112
行使 112
补强 112
规避 112
败@@ 112
钢铁 112
隆@@ 112
霉@@ 112
鲁 112
鼓@@ 112
&@@ 111
240 111
3.5@@ 111
4.0 111
BP@@ 111
BS 111
CH 111
Fe2 111
HLA 111
ag@@ 111
∶@@ 111
上海市 111
仪表 111
养护 111
况 111
分区 111
原酶 111
地上 111
型钢 111
培 111
多肽 111
夜@@ 111
对话 111
小肠 111
废物 111
引擎 111
拷贝 111
摩托车 111
数据@@ 111
斜率 111
晕 111
模拟器 111
水源 111
沿海 111
测度 111
浪@@ 111
灵敏 111
矮@@ 111
社会学 111
称@@ 111
筑 111
纽@@ 111
罩 111
肾上腺素 111
脯氨酸 111
解放 111
醛@@ 111
采矿 111
重症 111
锌@@ 111
间歇 111
阀@@ 111
静止 111
鞋 111
音频 111
78@@ 110
AE 110
B/@@ 110
CV@@ 110
Cl2 110
MAP 110
P1 110
RI 110
th@@ 110
uc@@ 110
〕 110
亡 110
从事 110
依法 110
农户 110
凋@@ 110
创业 110
单项 110
取值 110
含水 110
啮合 110
园林 110
固定化 110
多级 110
尚@@ 110
披露 110
指挥 110
普及 110
栏 110
水化 110
法学 110
洗脱 110
浴 110
熔 110
球面 110
用以 110
石膏 110
离体 110
秘密 110
结构@@ 110
羽@@ 110
肾病 110
腹水 110
芬 110
菌属 110
表位 110
轿车 110
钾@@ 110
革命@@ 110
鲜 110
86@@ 109
97% 109
GE 109
H2O2 109
HD 109
LDH 109
PV 109
_x@@ 109
et 109
m/s 109
t-@@ 109
一次性 109
丛 109
个案 109
中学生 109
之外 109
二氧化@@ 109
京@@ 109
介于 109
以太网 109
休闲 109
保鲜 109
储存 109
免@@ 109
公园 109
发热 109
因果 109
坡度 109
境@@ 109
墨@@ 109
声波 109
委@@ 109
弓 109
志@@ 109
折射率 109
描写 109
摩@@ 109
撤销 109
效用 109
权重 109
歌唱 109
歧@@ 109
淋巴瘤 109
特殊性 109
男@@ 109
磷脂 109
端口 109
籽@@ 109
维生素C 109
缘@@ 109
致使 109
薄板 109
言语 109
贮存 109
贵州 109
迫切 109
防渗 109
须 109
1.1 108
170 108
40％ 108
57@@ 108
:1 108
QoS 108
RF 108
TA@@ 108
is@@ 108
man 108
me@@ 108
Δ 108
一性 108
也是 108
亮 108
亮@@ 108
亲属 108
仔@@ 108
依托 108
内核 108
冷轧 108
准确度 108
动词 108
单相 108
南京 108
复杂度 108
学龄 108
寻 108
师范 108
床@@ 108
板材 108
气化 108
流行病学 108
渗漏 108
湖泊 108
炸药 108
牵@@ 108
甘蔗 108
甙 108
疫@@ 108
病因 108
皱 108
离心@@ 108
空肠 108
符合率 108
筹@@ 108
管理者 108
累计 108
肋@@ 108
肤@@ 108
肥料 108
脊柱 108
腹部 108
航运 108
花生 108
薯 108
访 108
词语 108
诱导@@ 108
调谐 108
问@@ 108
降到 108
鞘 108
风化 108
0.99@@ 107
0，@@ 107
12．@@ 107
61.@@ 107
88@@ 107
900 107
Au@@ 107
CPU 107
DF@@ 107
HIV 107
ID 107
L. 107
Sn 107
kD 107
mg/L+@@ 107
ri@@ 107
专利 107
之前 107
亲和 107
似@@ 107
再现 107
军队 107
切开 107
前缘 107
半群 107
原性 107
吗啡 107
回购 107
堵@@ 107
处置 107
夹层 107
审视 107
尽可能 107
屈曲 107
弓@@ 107
思 107
指肠 107
推测 107
旧@@ 107
气田 107
气量 107
流感 107
海底 107
父母 107
现代性 107
生长量 107
甲基@@ 107
电子@@ 107
石化 107
磷酸盐 107
篮 107
紫外线 107
练 107
脊 107
若@@ 107
螨 107
血管@@ 107
贯@@ 107
述@@ 107
酰基 107
钻井液 107
饮料 107
0.6 106
450 106
60％ 106
97@@ 106
API 106
CL@@ 106
Logistic 106
Ro@@ 106
gp 106
△ 106
侵入 106
切断 106
医药 106
善 106
垂体 106
客 106
思潮 106
护士 106
散文 106
文体 106
本区 106
板块 106
株系 106
殖@@ 106
水溶性 106
法人 106
游泳 106
滋@@ 106
热水 106
燃油 106
禁 106
第3 106
等离子体 106
统治 106
胶质瘤 106
除尘器 106
零@@ 106
靠 106
频域 106
65% 105
8-@@ 105
BO@@ 105
Ru@@ 105
SG@@ 105
ns 105
wt 105
Φ 105
劳@@ 105
压下 105
同类 105
圆弧 105
复合物 105
封装 105
开拓 105
异丙@@ 105
投标 105
挂@@ 105
提前 105
旺 105
核糖体 105
消解 105
湘@@ 105
病理学 105
癫痫 105
皂@@ 105
组为 105
绕组 105
缺少 105
脐@@ 105
舍 105
节水 105
范 105
虾@@ 105
证券化 105
语用 105
贵@@ 105
轻微 105
连接@@ 105
适于 105
都市 105
酯酶 105
酸化 105
非晶 105
风味 105
0.3% 104
28% 104
2年 104
55% 104
96% 104
AES 104
Au 104
Br@@ 104
F_2 104
HCl 104
HE 104
WC 104
as 104
中枢 104
二元 104
介 104
伸 104
似 104
公安 104
内力 104
内径 104
再造 104
凝聚 104
分布@@ 104
动画 104
变为 104
向上 104
唱@@ 104
唾液 104
地幔 104
多发性 104
完整性 104
审判 104
崩@@ 104
开放性 104
异体 104
恩@@ 104
抗坏血酸 104
接收机 104
日趋 104
有着 104
朗@@ 104
校准 104
检修 104
残留量 104
沈@@ 104
洗涤 104
灌木 104
烃@@ 104
瘤胃 104
磁共振 104
秦@@ 104
纠正 104
董事 104
蛾 104
装饰 104
试管 104
迎@@ 104
造林 104
遗传学 104
香港 104
鼻咽癌 104
1.4@@ 103
19% 103
1994年 103
43@@ 103
55.@@ 103
AI@@ 103
CK@@ 103
K2 103
SU@@ 103
Sb 103
U-@@ 103
e-@@ 103
li@@ 103
pB@@ 103
pp@@ 103
丧失 103
伸缩 103
共产党 103
共振@@ 103
内镜 103
多功能 103
好氧 103
存储器 103
当量 103
怀@@ 103
感受 103
故@@ 103
标准@@ 103
梳理 103
水电 103
沉淀法 103
注册 103
活塞 103
渐 103
滨 103
相邻 103
看出 103
福建 103
线圈 103
脑室 103
航行 103
认真 103
负债 103
配对 103
顶点 103
颅内 103
高新 103
0.7 102
1993年 102
1mm 102
1－@@ 102
5μm 102
87@@ 102
88% 102
ALT 102
CN 102
H1 102
NaOH 102
PWM 102
SQL 102
eV 102
ω 102
Ⅵ 102
不动点 102
二甲基 102
人数 102
人脸 102
伟大 102
倍频 102
倾 102
偏好 102
先后 102
副作用 102
反应性 102
合剂 102
向性 102
命题 102
国债 102
声音 102
大多 102
实际上 102
导数 102
忽略 102
成藏 102
撤@@ 102
本组 102
机能 102
氧气 102
源于 102
漆@@ 102
球菌 102
生长@@ 102
略@@ 102
瘤细胞 102
相当于 102
等温 102
育苗 102
苯乙烯 102
诉@@ 102
调研 102
责任@@ 102
货物 102
转炉 102
辨@@ 102
闪 102
面体 102
鳞@@ 102
0.05@@ 101
1990年 101
1A 101
1年 101
Di@@ 101
PCNA 101
PO 101
Pd 101
cm-1 101
der 101
ma@@ 101
乙二醇 101
低氧 101
内存 101
厂房 101
发生器 101
堂 101
外交 101
实物 101
客体 101
库区 101
微米 101
怎样 101
恶化 101
扁@@ 101
扦插 101
扮演 101
斗争 101
时域 101
时机 101
昼夜 101
极其 101
植物@@ 101
江苏 101
沙漠 101
法系 101
泛函 101
液态 101
瓷@@ 101
签@@ 101
续 101
致病 101
菌体 101
规律性 101
象征 101
资源型 101
选型 101
透过 101
那么 101
部队 101
闸@@ 101
陡@@ 101
颈动脉 101
驻@@ 101
骨骼肌 101
0.6% 100
22% 100
7.0 100
HC 100
NE 100
RAM 100
SL@@ 100
r/min 100
sh@@ 100
Ω@@ 100
丽 100
价值观 100
传感 100
俄罗斯 100
冶炼 100
则@@ 100
半定量 100
发出 100
发展@@ 100
可视化 100
回答 100
夜间 100
学说 100
富含 100
展现 100
工业@@ 100
成虫 100
所需 100
提取物 100
收治 100
新颖 100
服从 100
构筑 100
梭@@ 100
棱 100
正规 100
氧化剂 100
池@@ 100
溅射 100
炭黑 100
牧 100
玫瑰 100
生产@@ 100
瘘 100
硝酸@@ 100
礼@@ 100
科学性 100
脱色 100
膜炎 100
良 100
购@@ 100
赋@@ 100
赞@@ 100
软硬件 100
连通 100
铬@@ 100
陶@@ 100
06 99
1/2@@ 99
110@@ 99
3年 99
AB 99
ACE 99
DB@@ 99
GE@@ 99
LI@@ 99
PL 99
_x 99
el 99
γ-@@ 99
一起 99
下颌 99
中间体 99
事项 99
二十@@ 99
低下 99
信任 99
前沿 99
原材料 99
合酶 99
圈闭 99
城区 99
妊@@ 99
宗@@ 99
弃 99
役 99
情报 99
打印 99
挂 99
时间@@ 99
染色法 99
核磁 99
疗@@ 99
癌基因 99
直观 99
穿孔 99
端粒酶 99
管线 99
籽 99
纺织 99
结核@@ 99
胶结 99
色度 99
苏 99
螺杆 99
诗学 99
连续性 99
邻近 99
鉴于 99
隐性 99
颞@@ 99
飞速 99
高师 99
高性能 99
默@@ 99
128 98
25％ 98
42@@ 98
7.5 98
78% 98
95％ 98
C4 98
DA@@ 98
DH 98
LH 98
SiO@@ 98
hm~2 98
ni@@ 98
s-1 98
——@@ 98
中国人 98
乡镇 98
亮度 98
令@@ 98
偏振 98
分子@@ 98
割@@ 98
发展观 98
发酵@@ 98
地平 98
平滑 98
店 98
弦@@ 98
往@@ 98
微小 98
心血管 98
成品 98
搭@@ 98
摄取 98
教授 98
时序 98
杀菌 98
次之 98
比对 98
毛泽东 98
泥浆 98
燃气 98
物权 98
环状 98
用作 98
盛@@ 98
睾丸 98
研究者 98
碳纤维 98
系统性 98
约为 98
缓释 98
臭氧 98
苄@@ 98
菌种 98
轨@@ 98
辽@@ 98
重复性 98
锚固 98
鞘@@ 98
食用 98
验@@ 98
'@@ 97
0.4% 97
1/3 97
8mm 97
DI@@ 97
DR@@ 97
GaAs 97
IAA 97
PK@@ 97
ad@@ 97
it@@ 97
kg／@@ 97
mg·L-1 97
mo@@ 97
ps 97
ur@@ 97
低速 97
先天性 97
印度 97
只要 97
台架 97
多方面 97
多维 97
封堵 97
岗 97
市区 97
庄@@ 97
废液 97
归属 97
心功能 97
志贺 97
息@@ 97
找 97
拒绝 97
政党 97
斑块 97
时段 97
映@@ 97
杯 97
样机 97
桩基 97
棕@@ 97
榴@@ 97
模块化 97
油井 97
活跃 97
独 97
瓶颈 97
电器 97
研究生 97
窒息 97
线型 97
菌丝 97
蒸 97
蒸气 97
让@@ 97
购买 97
还有 97
锭 97
高阶 97
1.3 96
2－@@ 96
3·@@ 96
4.5 96
63@@ 96
Be@@ 96
Gd@@ 96
Har@@ 96
IR@@ 96
L1 96
LO@@ 96
ML@@ 96
Mar@@ 96
STR 96
a-@@ 96
vs 96
不确定 96
个数 96
乔@@ 96
争议 96
何@@ 96
侵犯 96
做法 96
先进性 96
制造业 96
单模 96
卵巢癌 96
啉 96
复发率 96
封建 96
屏@@ 96
市民 96
房间 96
抗剪 96
拌@@ 96
撞击 96
普利 96
替@@ 96
有害 96
梗阻 96
永磁 96
治愈率 96
流产 96
热压 96
热处理 96
焦化 96
特征@@ 96
猫 96
猴 96
生态学 96
监视 96
移栽 96
粉碎 96
纠@@ 96
纤 96
纱@@ 96
终 96
羊毛 96
腹腔镜 96
转移酶 96
进度 96
远期 96
迫 96
酰胺酶 96
铃 96
锐@@ 96
闪烁 96
防火 96
雄 96
鱼类 96
112 95
11月 95
195@@ 95
9年 95
C/S 95
CL 95
D组 95
N1 95
Pr@@ 95
VD 95
cAMP 95
ir@@ 95
no@@ 95
ter 95
不全 95
交叉口 95
伴@@ 95
候@@ 95
典@@ 95
单向 95
卖@@ 95
反射率 95
吐@@ 95
啤酒 95
喷嘴 95
困@@ 95
在一起 95
外植体 95
妇@@ 95
客运 95
导热 95
尤为 95
屠宰 95
微孔 95
折射 95
数码 95
昆明 95
更换 95
有些 95
梦 95
水剂 95
溶性 95
狭@@ 95
电导 95
疫 95
监理 95
硅酸盐 95
碳钢 95
空中 95
绳@@ 95
考 95
聚乙烯 95
脑出血 95
脲 95
船体 95
药品 95
蜗@@ 95
蝶@@ 95
血淋巴 95
裸鼠 95
规范化 95
违约 95
迷@@ 95
颤 95
高密度 95
94% 94
BMP@@ 94
C－@@ 94
HI 94
Ha@@ 94
J2EE 94
LV@@ 94
Pd@@ 94
SF 94
Tr@@ 94
m3/@@ 94
m×@@ 94
一切 94
不合理 94
乙烯@@ 94
代谢@@ 94
公 94
冒@@ 94
农艺 94
分娩 94
刊 94
初中 94
利于 94
医生 94
卖 94
呼吸@@ 94
善@@ 94
外形 94
官 94
定制 94
实习 94
宿主 94
密集 94
尽 94
岛@@ 94
已知 94
摆动 94
教学法 94
施加 94
既有 94
景 94
替换 94
林分 94
桨 94
活性氧 94
浓 94
涌@@ 94
溢@@ 94
热流 94
版@@ 94
癌的 94
皇@@ 94
看作 94
矫@@ 94
硒@@ 94
碾压 94
紫 94
纵 94
维生素@@ 94
缺口 94
耦@@ 94
聚酯 94
胫骨 94
脆@@ 94
自觉 94
至关 94
苦 94
街@@ 94
触发 94
详尽 94
负面 94
跟 94
软化 94
辐射@@ 94
铀@@ 94
间充质 94
面部 94
飞行器 94
鼓 94
-H@@ 93
10d 93
21% 93
210 93
ABA 93
Basic 93
Bo@@ 93
Eu@@ 93
F_1 93
IBA 93
IgA 93
LED 93
MM 93
MMP@@ 93
O_4 93
PRO@@ 93
P＞0．05 93
ase 93
bcl-2 93
de@@ 93
ka 93
β1 93
τ 93
下调 93
丹参 93
借助于 93
加剧 93
动脉血 93
区段 93
压缩机 93
同性 93
奖 93
孢 93
宝石 93
害虫 93
尽@@ 93
席@@ 93
延缓 93
强力 93
往 93
承包 93
无菌 93
暴@@ 93
曼@@ 93
柏@@ 93
欲 93
气泡 93
注水 93
深圳 93
片状 93
物品 93
甜 93
界限 93
病原 93
硅烷 93
碎屑 93
精制 93
精氨酸 93
纬@@ 93
络合 93
羟 93
肾上腺 93
腺瘤 93
膳食 93
行程 93
衰落 93
裸@@ 93
起重机 93
迁 93
销@@ 93
陕@@ 93
陕西 93
非对称 93
鞋@@ 93
黑龙江省 93
-3@@ 92
10-6 92
11．@@ 92
199@@ 92
91% 92
CVD 92
HCC 92
Hb 92
OS 92
PF 92
TN 92
TT 92
ar 92
min@@ 92
ter@@ 92
②@@ 92
争@@ 92
仓库 92
偏离 92
制冷@@ 92
印 92
危险@@ 92
厂@@ 92
可为 92
可变 92
外资 92
子群 92
学会 92
定子 92
定时 92
实性 92
工资 92
引力 92
成效 92
早熟 92
时钟 92
曝光 92
术式 92
机电 92
权威 92
权限 92
杉 92
栖 92
正弦 92
水轮机 92
浙江省 92
特质 92
琼脂 92
癌旁 92
登记 92
着手 92
结合@@ 92
缸@@ 92
罚 92
职责 92
肿块 92
胎盘 92
航道 92
草坪 92
蜜@@ 92
衔接 92
西藏 92
讨@@ 92
语篇 92
赋 92
起点 92
迁@@ 92
高压@@ 92
鹿 92
1999 91
6mm 91
86% 91
ATPase 91
IEEE 91
RC 91
Sm@@ 91
mg/ml 91
po@@ 91
s/@@ 91
to 91
三角形 91
丰度 91
以外 91
偏低 91
偿 91
充满 91
刃@@ 91
剥离 91
卧 91
变更 91
喜剧 91
园@@ 91
坐标系 91
头部 91
存款 91
实验@@ 91
宪政 91
巢@@ 91
当中 91
恒定 91
悬液 91
报导 91
振兴 91
排队 91
水样 91
测算 91
淤@@ 91
渊源 91
激动 91
爱情 91
环氧树脂 91
电性 91
相机 91
短缺 91
硅酸 91
糙@@ 91
线虫 91
置入 91
耐药性 91
肺部 91
腓@@ 91
膀胱癌 91
行走 91
警 91
距@@ 91
转让 91
过量 91
连杆 91
锈蚀 91
锚 91
防腐 91
限定 91
青藏 91
0．5@@ 90
135 90
1989年 90
26% 90
3+@@ 90
71% 90
ASA 90
BC 90
Ba 90
COM 90
FI@@ 90
Ma@@ 90
NET 90
SO 90
Sk@@ 90
X2 90
ZrO2 90
ic@@ 90
·m@@ 90
丁基 90
主权 90
仅仅 90
债权 90
关怀 90
准确率 90
刑 90
刮@@ 90
制订 90
办@@ 90
化法 90
发芽 90
壳体 90
外国 90
大庆 90
学位 90
寄主 90
师生 90
常常 90
幼儿 90
底板 90
成形术 90
扩频 90
择@@ 90
授权 90
无性系 90
春季 90
服务@@ 90
本位 90
枪@@ 90
栖@@ 90
校长 90
桥面 90
水面 90
河南 90
洪 90
流器 90
灌流 90
煤粉 90
牧草 90
电子束 90
痕量 90
癌细胞 90
直升机 90
磷酸酶 90
竞@@ 90
精炼 90
级别 90
肥厚 90
藤 90
虫病 90
蚕@@ 90
蝇 90
视化 90
谐@@ 90
资格 90
辩证 90
遥@@ 90
酯化 90
铰@@ 90
银屑病 90
隐患 90
预制 90
风洞 90
饲喂 90
髋关节 90
/min 89
0.9% 89
131 89
2002 89
5min 89
93% 89
AI 89
FD@@ 89
HA@@ 89
IL-4 89
MIS 89
NAA@@ 89
Rb@@ 89
SSR 89
TGF-β1 89
ch 89
中外 89
伙伴 89
传质 89
伯 89
体化 89
供热 89
共生 89
内蒙古 89
列举 89
剥@@ 89
叶轮 89
命运 89
复用 89
多样化 89
大地 89
尸@@ 89
带状 89
开口 89
必需 89
念@@ 89
掺量 89
效价 89
本系统 89
材质 89
楔@@ 89
步行 89
步进 89
毁@@ 89
水杨 89
沙星 89
浅层 89
淀粉酶 89
澄清 89
热源 89
畜@@ 89
礼 89
神话 89
秋 89
稠油 89
管网 89
线形 89
续@@ 89
腺苷 89
致死 89
蔽 89
订 89
贯穿 89
路由器 89
连铸 89
适用性 89
适量 89
间断 89
面层 89
鲁棒性 89
鲜明 89
鳞癌 89
黑色 89
00% 88
1996 88
2003 88
24% 88
29% 88
5d 88
BR 88
Hg 88
IL-8 88
Ig@@ 88
MF 88
VPN 88
ak@@ 88
al 88
不均匀 88
专项 88
为宜 88
乏@@ 88
乙肝 88
今 88
伏@@ 88
信度 88
倍数 88
内酯 88
判决 88
刷@@ 88
加筋 88
化为 88
区系 88
反对 88
含水率 88
坦 88
声乐 88
外来 88
姆 88
嫩@@ 88
完 88
定点 88
尼龙 88
屏障 88
常压 88
彩 88
扭矩 88
损坏 88
控制权 88
最优化 88
机械@@ 88
欠@@ 88
母亲 88
汇 88
消极 88
渔@@ 88
环氧 88
电解@@ 88
症@@ 88
符 88
简介 88
胸腔 88
范式 88
螺栓 88
速器 88
，P 88
1.8 87
2001 87
2月 87
320 87
Bi 87
CN@@ 87
De@@ 87
EP@@ 87
I/@@ 87
M/@@ 87
VI 87
mV 87
ner 87
se@@ 87
∑@@ 87
七@@ 87
个别 87
义齿 87
人民币 87
企 87
传染性 87
侵害 87
切入 87
前列 87
升级 87
半球 87
受损 87
史学 87
固定@@ 87
国际化 87
境界 87
增长率 87
大孔 87
好于 87
婚@@ 87
对立 87
带式 87
总的 87
悬臂 87
意味 87
捻 87
操@@ 87
显得 87
智 87
曲柄 87
月龄 87
杂草 87
柳@@ 87
梅 87
沉积@@ 87
泥岩 87
泽 87
浆料 87
浪漫 87
淮@@ 87
版本 87
病毒性 87
相对@@ 87
稠@@ 87
穴@@ 87
组合@@ 87
组态 87
组播 87
肛@@ 87
行政@@ 87
诱变 87
跃 87
转矩 87
递减 87
酸度 87
预压 87
饱和@@ 87
馏@@ 87
鸟类 87
1997 86
1~@@ 86
3G 86
71.@@ 86
87% 86
A3 86
ARQ 86
AST 86
GP@@ 86
HT@@ 86
ICAM-1 86
IgE 86
LF 86
OD 86
SL 86
TI 86
bit@@ 86
id@@ 86
″ 86
丙氨酸 86
东方 86
供体 86
公里 86
冲洗 86
分类@@ 86
刻蚀 86
加上 86
反应@@ 86
响@@ 86
均质 86
垂 86
奶 86
子女 86
学界 86
它的 86
客户端 86
履行 86
已@@ 86
弹道 86
扁 86
打破 86
扣 86
报价 86
捕 86
掌 86
收获 86
旅@@ 86
有用 86
梭 86
水泵 86
泊@@ 86
灰岩 86
灰度 86
狂@@ 86
玛@@ 86
生产率 86
申@@ 86
登@@ 86
碳纳米管 86
纬 86
纺纱 86
细节 86
结实率 86
肌酐 86
肺泡 86
衬@@ 86
调动 86
质的 86
购 86
途 86
钝化 86
钩@@ 86
防效 86
防洪 86
韦@@ 86
颁布 86
颠@@ 86
高程 86
2.4@@ 85
4.0@@ 85
73% 85
74@@ 85
750 85
Bcl-2 85
Cy@@ 85
HL 85
H_2 85
O/@@ 85
P=0.0@@ 85
SK@@ 85
TIMP@@ 85
VP@@ 85
ard 85
hm 85
kg-1 85
ti@@ 85
μl 85
不变 85
严 85
中心@@ 85
亲缘 85
仙@@ 85
佛教 85
分离出 85
区位 85
压实 85
变成 85
后续 85
呈负 85
喇@@ 85
嘴 85
塔里木 85
多样 85
大会 85
娱乐 85
完备 85
对手 85
强迫 85
总体上 85
扎 85
抛光 85
拮抗 85
捷 85
掉 85
掘@@ 85
明胶 85
月份 85
本人 85
本地 85
核素 85
椭@@ 85
波谱 85
洁@@ 85
浮游 85
滑模 85
照片 85
痴呆 85
硬质 85
确定性 85
租赁 85
笋 85
繁荣 85
细小 85
细致 85
缝合 85
耐久性 85
联接 85
胀@@ 85
胰腺炎 85
脾脏 85
腹泻 85
融入 85
要件 85
识@@ 85
路堤 85
都@@ 85
酶原 85
金相 85
铵@@ 85
隆起 85
随之 85
颗粒物 85
/ml 84
1.4 84
36% 84
46% 84
51.@@ 84
COPD 84
Cu-@@ 84
OFDM 84
VP 84
ω@@ 84
丙基 84
二氧化碳 84
健身 84
免疫法 84
公务员 84
农地 84
包覆 84
即使 84
咬@@ 84
外伤 84
外界 84
多址 84
多态 84
妥@@ 84
寄生 84
应力场 84
弹性模量 84
微结构 84
恒温 84
扩展性 84
持续性 84
指定 84
斑点 84
最多 84
本法 84
样条 84
水平井 84
汀 84
浊 84
浊@@ 84
玉@@ 84
瓶@@ 84
痕@@ 84
练习 84
聚物 84
胰腺癌 84
艺术家 84
英汉 84
萌@@ 84
行之有效 84
衬砌 84
观察@@ 84
谈@@ 84
递增 84
遭受 84
针对性 84
钢琴 84
钯 84
链式 84
锯片 84
防御 84
骶@@ 84
05@@ 83
10万 83
5.0@@ 83
59@@ 83
5cm 83
64% 83
76@@ 83
CB 83
LE 83
M_@@ 83
PVA 83
Pt 83
R1 83
TN@@ 83
WS 83
ne@@ 83
un@@ 83
τ@@ 83
丙型 83
东盟 83
中用 83
二倍体 83
什@@ 83
估@@ 83
伸长 83
例子 83
充要 83
光催化 83
全息 83
决策@@ 83
分选 83
力图 83
加量 83
勒@@ 83
医用 83
取出 83
吸水 83
基线 83
堵塞 83
复查 83
山地 83
异化 83
微处理器 83
扭曲 83
抢救 83
拉力 83
推算 83
描@@ 83
改为 83
断裂带 83
氧量 83
水域 83
派@@ 83
浊度 83
测距 83
清单 83
烫伤 83
父@@ 83
玉米@@ 83
琥@@ 83
电脑 83
科学@@ 83
积液 83
精密度 83
紊流 83
纠纷 83
缩合 83
脱氧 83
腋@@ 83
舒适性 83
苷@@ 83
茄@@ 83
荧光法 83
薄弱 83
蚊 83
血管病 83
行星 83
诊@@ 83
贫 83
跟@@ 83
选定 83
酶谱 83
釉 83
钢结构 83
长大 83
闭塞 83
阔@@ 83
颅骨 83
颈部 83
饭店 83
齿形 83
0-@@ 82
2C 82
58@@ 82
CMOS 82
DI 82
EG@@ 82
GST@@ 82
K562 82
MAPK 82
Ps 82
R&D 82
TH 82
bFGF 82
ol 82
θ@@ 82
上下@@ 82
上层 82
产卵 82
伸展 82
住@@ 82
俗@@ 82
债权人 82
像素 82
内质网 82
功能性 82
反流 82
受精@@ 82
变频器 82
增值 82
奥运会 82
尾矿 82
平面@@ 82
开花 82
强震 82
志 82
忠@@ 82
感染者 82
技术@@ 82
斗@@ 82
旋回 82
曝气 82
有源 82
林地 82
树突 82
桡@@ 82
民用 82
气缸 82
注射@@ 82
测定法 82
演唱 82
牢@@ 82
电控 82
相容性 82
相等 82
研磨 82
碳化物 82
积极性 82
移植@@ 82
籼@@ 82
紧张 82
纺丝 82
络@@ 82
绞@@ 82
船型 82
艰@@ 82
药敏 82
访谈 82
较少 82
输送机 82
过渡@@ 82
钻机 82
降压 82
降温 82
限值 82
障@@ 82
饲 82
髋 82
196 81
201 81
2／@@ 81
C2@@ 81
CAI 81
COD@@ 81
GF 81
I/O 81
MPa@@ 81
Mg2+ 81
REM 81
Ri@@ 81
SBS 81
T1WI 81
Y-@@ 81
kHz 81
mg/L@@ 81
ph@@ 81
丘 81
事物 81
云母 81
互补 81
享 81
传媒 81
伦 81
体温 81
使用权 81
俄@@ 81
借 81
储集层 81
入世 81
共存 81
冲击波 81
决 81
制取 81
友好 81
各组 81
因数 81
埃@@ 81
墩 81
壮 81
多发 81
多巴胺 81
宗 81
岗位 81
引用 81
恐怖 81
手工 81
打击 81
抓@@ 81
挡@@ 81
摄 81
无水 81
普 81
曲轴 81
有效率 81
朗 81
末期 81
标度 81
根茎 81
检测@@ 81
消防 81
溪 81
熵 81
甘肃 81
电针 81
番@@ 81
病的 81
相连 81
着力 81
突触 81
站点 81
羧酸 81
聚集@@ 81
胜 81
脲@@ 81
蒸腾 81
解调 81
调节剂 81
进攻 81
违@@ 81
通信@@ 81
郑@@ 81
非饱和 81
颈椎 81
饼 81
0.9 80
07 80
13．@@ 80
550 80
7/@@ 80
75％ 80
A型 80
Cp@@ 80
DSS 80
HepG2 80
SDS-PAGE 80
VI@@ 80
WDM 80
_2-@@ 80
ia 80
lo@@ 80
om@@ 80
体长 80
使命 80
兼容 80
剥夺 80
医师 80
句法 80
可编程 80
命令 80
如此 80
威 80
家蚕 80
宾@@ 80
富有 80
对待 80
局面 80
岩层 80
崛起 80
微血管 80
志愿者 80
怀疑 80
扎@@ 80
抗力 80
拓宽 80
拦@@ 80
挑@@ 80
挠@@ 80
提纯 80
支出 80
杀灭 80
柑@@ 80
植体 80
欠 80
止血 80
气层 80
沙地 80
泰 80
滩@@ 80
点火 80
煅烧 80
熔点 80
狗 80
生命@@ 80
用到 80
用电 80
电感 80
甾@@ 80
盆@@ 80
矩@@ 80
砌@@ 80
硫化物 80
竞赛 80
类似于 80
索引 80
罗马 80
肥大 80
腹膜 80
艺 80
苗期 80
荣@@ 80
街 80
谢@@ 80
赖 80
蹄@@ 80
输电 80
逆变 80
速效 80
锆石 80
115 79
5.5 79
84% 79
89% 79
BMI 79
Br 79
GSH 79
P53 79
RH@@ 79
Sa@@ 79
TE 79
oc@@ 79
x-@@ 79
Φ@@ 79
ρ@@ 79
临 79
乘法 79
先生 79
关闭 79
励磁 79
可将 79
可调 79
吉林省 79
同等 79
团队 79
土工 79
场合 79
型号 79
天津 79
失调 79
孤子 79
抵押 79
拼接 79
振器 79
收购 79
星形 79
晶状体 79
生态@@ 79
疱疹 79
盾 79
硫酸盐 79
碎片 79
示踪 79
纤溶酶原 79
细分 79
细胞质 79
终身 79
网页 79
耐火 79
脆 79
脚@@ 79
舞@@ 79
葡@@ 79
蜡 79
袋@@ 79
账@@ 79
赫@@ 79
起伏 79
逐年 79
造纸 79
酸酶 79
铆@@ 79
阿拉@@ 79
雅 79
零售商 79
题材 79
1·@@ 78
2.4 78
4mm 78
70年代 78
A／@@ 78
Bt 78
C++6.0 78
CD4+@@ 78
CV 78
E1 78
Ros@@ 78
Sol@@ 78
d-1 78
mol·L-1 78
vi@@ 78
~3@@ 78
μg/g 78
上位 78
世界@@ 78
互联 78
交易@@ 78
介电 78
仰@@ 78
企业家 78
使用者 78
兼顾 78
再生@@ 78
农产品 78
化性 78
单用 78
变种 78
坏 78
基督教 78
孤立 78
崇@@ 78
州@@ 78
己烷 78
广东省 78
延时 78
异质 78
弯矩 78
找@@ 78
拥@@ 78
探究@@ 78
收缩压 78
方针 78
校本 78
氏菌 78
流变学 78
淬@@ 78
电解质 78
病原菌 78
碳酸盐岩 78
等位基因 78
粘弹性 78
绒@@ 78
耕作 78
肢体 78
花期 78
著@@ 78
蜂窝 78
裂谷 78
裔 78
评析 78
调节器 78
车轮 78
避 78
银行业 78
颌 78
黄素 78
12h 77
2.8@@ 77
2n=@@ 77
6，@@ 77
82% 77
AngⅡ 77
FL@@ 77
FR 77
FSH 77
ND@@ 77
N_@@ 77
PBMC 77
Re 77
SSCP 77
κB 77
丸@@ 77
亩 77
仑 77
优劣 77
信用@@ 77
债 77
兴奋 77
凯@@ 77
出发点 77
到来 77
勘@@ 77
勘查 77
半胱氨酸 77
协商 77
厘米 77
喂养 77
均匀@@ 77
坐骨 77
失去 77
好的 77
尊@@ 77
小管 77
山东省 77
席 77
延性 77
异同 77
异构 77
性病 77
息肉 77
扰 77
方言 77
显现 77
晶界 77
望@@ 77
未知 77
杰@@ 77
次生 77
武汉 77
比色法 77
民俗 77
汀@@ 77
泄 77
洲 77
活体 77
测点 77
浪费 77
湿性 77
烘@@ 77
烟叶 77
熔炼 77
生境 77
略有 77
碳源 77
福利 77
私 77
立方 77
结出 77
胰岛 77
膦 77
舍@@ 77
芽孢 77
荡 77
营养@@ 77
蛋白@@ 77
螺 77
衡 77
誉 77
财富 77
购物 77
跑@@ 77
转率 77
轰@@ 77
轴向 77
输注 77
这@@ 77
进料 77
逃@@ 77
酒店 77
钛合金 77
锤 77
闭合 77
阶层 77
陆地 77
降水量 77
障 77
韩国 77
额@@ 77
0.02 76
1.6 76
1991年 76
304 76
450@@ 76
6.5 76
8/@@ 76
AG@@ 76
Ab 76
BT 76
D=@@ 76
GP 76
GSM 76
P- 76
P_@@ 76
P值 76
R_@@ 76
kJ/@@ 76
ow@@ 76
μg/mL 76
下行 76
倡导 76
偶极 76
兹 76
冲压 76
凝结 76
出量 76
刻画 76
合板 76
否认 76
咪唑 76
孵化 76
实力 76
导线 76
尿道 76
屋面 76
帧@@ 76
引信 76
形体 76
征收 76
悬挂 76
手机 76
拱桥 76
推断 76
放牧 76
散光 76
斯坦 76
旗 76
有待 76
机载 76
李 76
水深 76
津 76
溶质 76
滚筒 76
皆 76
秦 76
移行 76
程序@@ 76
稿 76
笼 76
管壁 76
线索 76
羧@@ 76
胀 76
舰 76
表述 76
车站 76
较小 76
边界层 76
鄂尔多斯 76
销售@@ 76
阴道 76
除去 76
雌二醇 76
颗粒@@ 76
颤@@ 76
饵 76
-8 75
0.8% 75
03@@ 75
123 75
132 75
1986年 75
2004 75
72% 75
AA@@ 75
BN 75
C6 75
CO3 75
EGF 75
Ga 75
LN 75
PAC 75
PG 75
P_ 75
RFLP 75
SCA@@ 75
TX@@ 75
ec@@ 75
kg·@@ 75
m2·@@ 75
p-@@ 75
°N 75
丛@@ 75
中低 75
主控 75
主轴 75
书写 75
侏罗@@ 75
修船 75
入院 75
全方位 75
公约 75
共聚 75
冷凝 75
冷却@@ 75
劣@@ 75
动脉@@ 75
单调 75
厅 75
发射@@ 75
合约 75
同期 75
啶 75
喹啉 75
嘌呤 75
墩@@ 75
多用户 75
大连 75
太阳能 75
失误 75
失重 75
夹角 75
守@@ 75
定型 75
宜@@ 75
容错 75
寄存器 75
尺@@ 75
岸线 75
幅值 75
并与 75
弊 75
征象 75
心肌梗死 75
抗拉强度 75
攀@@ 75
救援 75
敷@@ 75
文学史 75
斯特 75
无源 75
无线电 75
时性 75
昌 75
有限@@ 75
染毒 75
橙 75
滴定 75
滴注 75
照明 75
熔覆 75
燃煤 75
牧@@ 75
电液 75
甸 75
瘟 75
瘦素 75
砂土 75
示范 75
福建省 75
筛查 75
纳税 75
经费 75
络 75
联想 75
胃肠 75
胜利 75
色泽 75
节肢 75
苗率 75
认@@ 75
译码 75
谱线 75
贮 75
迄今 75
那些 75
醒 75
钉@@ 75
铁电 75
铂 75
锑 75
锡@@ 75
雾@@ 75
频带 75
首要 75
高危 75
高能 75
－2 75
-0.@@ 74
07@@ 74
2.5% 74
2A 74
3，@@ 74
8.0 74
AN 74
B_2 74
C／@@ 74
EDTA 74
GaAs@@ 74
He 74
Mon@@ 74
NF-@@ 74
NO_3 74
PO4 74
SHR 74
Si-@@ 74
Z-@@ 74
ase@@ 74
au@@ 74
la@@ 74
le 74
the 74
中和 74
丰 74
互相 74
体型 74
候选 74
册 74
出了 74
分担 74
刘@@ 74
压制 74
压迫 74
合性 74
吹 74
命@@ 74
圆锥 74
天数 74
宁夏 74
安定 74
完美 74
对照者 74
导体 74
局限 74
工期 74
快捷 74
折叠 74
控件 74
搞好 74
操作性 74
支气管 74
断口 74
晋@@ 74
服药 74
期限 74
标志物 74
标签 74
河段 74
沸腾 74
活动性 74
海岸 74
涝 74
淤积 74
滥用 74
熵@@ 74
瘀@@ 74
瘫 74
百分点 74
相结合 74
祖 74
突发 74
类群 74
织机 74
绒毛 74
绝热 74
肝功能 74
蕨@@ 74
补贴 74
裁 74
视图 74
贯 74
车身 74
轮作 74
边坡 74
进样 74
郁 74
酚醛 74
重现 74
钨 74
钻进 74
阱 74
防火墙 74
隐藏 74
隶@@ 74
非晶态 74
预先 74
0.5～@@ 73
1.7 73
126 73
3000@@ 73
48% 73
5年 73
84@@ 73
93@@ 73
ABS 73
Cl_2 73
Cu2 73
DY@@ 73
G/@@ 73
GC-@@ 73
Ge 73
NH4 73
PAGE 73
Rs 73
ml/@@ 73
不再 73
中生代 73
之下 73
人均 73
付@@ 73
供试 73
凡 73
分蘖 73
前列腺素 73
化石 73
占据 73
地震@@ 73
均为 73
垦 73
堆积 73
增厚 73
声学 73
声速 73
外围 73
夹具 73
宋@@ 73
宝 73
岩相 73
带钢 73
建成 73
开环 73
弥散 73
微球 73
戏@@ 73
抒@@ 73
挠度 73
掘 73
支座 73
攻 73
政治@@ 73
整流 73
无疑 73
昆@@ 73
染色@@ 73
校验 73
汕@@ 73
河北省 73
泉@@ 73
港@@ 73
灭菌 73
烃源岩 73
猴@@ 73
环路 73
甜菜 73
疗 73
直肠癌 73
碳酸盐 73
禾@@ 73
笔 73
纬度 73
组建 73
结点 73
胃炎 73
脑脊液 73
腭@@ 73
节奏 73
苏联 73
苷酸 73
茂@@ 73
茅 73
药量 73
菌剂 73
蚀性 73
试验台 73
该@@ 73
谷氨酸 73
跃@@ 73
转发 73
辉 73
远远 73
遭@@ 73
酪@@ 73
量法 73
青霉素 73
韵 73
顶煤 73
预计 73
鼻炎 73
/T@@ 72
09 72
2.1 72
2.2 72
4.5@@ 72
68% 72
74% 72
Am@@ 72
Ap@@ 72
BB 72
DM@@ 72
En@@ 72
F=@@ 72
MV@@ 72
Na2 72
Ne 72
Ne@@ 72
Th 72
am 72
g/ 72
p16 72
siRNA 72
三维@@ 72
不当 72
不等式 72
乙酰@@ 72
享有 72
什 72
代价 72
以人为本 72
共性 72
兵@@ 72
冻结 72
创立 72
加热炉 72
区域性 72
印染 72
压机 72
句子 72
可控 72
司 72
后果 72
吻@@ 72
回复 72
回采 72
团聚 72
图式 72
实地 72
屈 72
带动 72
扰@@ 72
抑郁症 72
招标 72
排放量 72
推进剂 72
撒@@ 72
方程式 72
暂停 72
有机@@ 72
机械化 72
根治 72
每次 72
氛围 72
氮气 72
沙门氏菌 72
涉@@ 72
渤海 72
湖北 72
灾@@ 72
环糊精 72
男生 72
督@@ 72
短暂 72
砧木 72
破损 72
硫化@@ 72
碳酸@@ 72
禽@@ 72
立即 72
端面 72
类别 72
织@@ 72
编译 72
网关 72
羽 72
胸部 72
脉宽 72
药材 72
蒙 72
蚜 72
血清@@ 72
诸@@ 72
赖氨酸 72
邮@@ 72
配电 72
采场 72
钩 72
顶部 72
顺应 72
驾驶 72
高空 72
鲁迅 72
鸟@@ 72
1.0% 71
1.9@@ 71
360 71
38% 71
485 71
62% 71
83% 71
AG 71
C57 71
CAPP 71
Carlo 71
EA 71
Eco@@ 71
Fe_ 71
Her@@ 71
Ly@@ 71
L·@@ 71
MO 71
RP@@ 71
S－@@ 71
ff@@ 71
vs@@ 71
不少 71
不足之处 71
产妇 71
伸长率 71
做到 71
光致 71
减低 71
分值 71
刹车 71
前体 71
卓@@ 71
原体 71
发泡 71
可信 71
台风 71
喂@@ 71
喜 71
嘉@@ 71
坯@@ 71
域网 71
复合型 71
孵育 71
宏@@ 71
寡@@ 71
少于 71
尽快 71
巡@@ 71
并从 71
很少 71
微相 71
扩 71
提倡 71
摸@@ 71
方根 71
无需 71
昌@@ 71
暖@@ 71
更好 71
杉木 71
柏 71
比特 71
氧化法 71
氩@@ 71
氯仿 71
油机 71
沼@@ 71
法官 71
活度 71
流形 71
淡 71
滤液 71
滴度 71
熟料 71
特种 71
申请 71
电磁场 71
电能 71
白菜 71
相继 71
磷酸@@ 71
秧@@ 71
税费 71
红外@@ 71
胶体 71
胶粘剂 71
脏器 71
脐血 71
腈 71
艇 71
节目 71
褶 71
设计@@ 71
车辙 71
造模 71
酿@@ 71
醛固酮 71
锯 71
阈 71
隧洞 71
-- 70
-N 70
0.75 70
240@@ 70
3.1 70
32% 70
650 70
ACS 70
DCS 70
DN@@ 70
GR 70
GSH@@ 70
ISA 70
In 70
Intranet 70
K_ 70
MSC@@ 70
NG@@ 70
NH_4 70
Po@@ 70
RAS 70
S期 70
Te 70
Web@@ 70
_1@@ 70
ff 70
ha 70
ke 70
log@@ 70
mol·@@ 70
丁醇 70
不够 70
与否 70
中国@@ 70
他人 70
俯冲 70
刑罚 70
剔除 70
协整 70
发芽率 70
变小 70
合成酶 70
听觉 70
启发 70
型化 70
墙@@ 70
多次 70
始 70
室性 70
宰@@ 70
害人 70
导流 70
尾部 70
履@@ 70
岩石@@ 70
左旋 70
年龄组 70
庭@@ 70
急性期 70
恩 70
成熟度 70
挥发性 70
振型 70
敏捷 70
数据包 70
整形 70
断奶 70
施行 70
日龄 70
晶体管 70
暂@@ 70
最初 70
有线 70
板式 70
构架 70
毁 70
江苏省 70
涡流 70
溶解度 70
滑膜 70
滤膜 70
漂白 70
炎@@ 70
电磁@@ 70
电镀 70
疟@@ 70
病死率 70
直肠 70
研究组 70
磁化 70
神经节 70
秋季 70
立足于 70
竖@@ 70
线性化 70
细胞学 70
绝大多数 70
舰@@ 70
艺@@ 70
茬 70
负压 70
质膜 70
赋存 70
辩 70
透视 70
醋 70
铂@@ 70
镍@@ 70
闽@@ 70
隙@@ 70
集成@@ 70
霉病 70
非法 70
鞭@@ 70
顺铂 70
香气 70
驾驶员 70
髋@@ 70
魅力 70
鼓励 70
＿2 70
121 69
14．@@ 69
19世纪 69
1H 69
2.3 69
3－@@ 69
69@@ 69
6年 69
77% 69
850 69
Ash@@ 69
Bar@@ 69
CG@@ 69
CH4 69
CORBA 69
COX-2 69
Car@@ 69
D3 69
FA@@ 69
Gal@@ 69
II@@ 69
IL-10 69
J／@@ 69
MTT法 69
NOx 69
PAR 69
PU 69
SY@@ 69
TF@@ 69
UV-@@ 69
_n 69
em@@ 69
ex@@ 69
kW 69
mA 69
myc 69
og@@ 69
专业化 69
严峻 69
中小型 69
为止 69
丽@@ 69
二醇 69
亟待 69
交织 69
人本 69
传入 69
偶氮 69
光电子 69
公斤 69
共和国 69
内切 69
凿@@ 69
判 69
别于 69
副反应 69
包膜 69
即将 69
取消 69
合度 69
回避 69
圆柱@@ 69
契@@ 69
存取 69
守恒 69
少年 69
工程量 69
帽 69
废弃物 69
形图 69
形的 69
必然性 69
急剧 69
总是 69
总有 69
悟 69
成熟期 69
戒@@ 69
打下 69
扫@@ 69
挥发 69
接触@@ 69
援@@ 69
擦@@ 69
敏感度 69
文物 69
无人 69
时候 69
本性 69
柯@@ 69
正向 69
汁@@ 69
沉淀@@ 69
混合型 69
清液 69
火花 69
灵魂 69
痰 69
盆栽 69
研究型 69
硕士 69
社@@ 69
科学化 69
突起 69
系统@@ 69
线上 69
绝 69
者@@ 69
育性 69
胜@@ 69
自交系 69
草本 69
血肿 69
解剖学 69
诞生 69
诠释 69
资源@@ 69
车体 69
轻型 69
辅 69
适度 69
逊 69
透 69
遗传@@ 69
重心 69
金融@@ 69
钒 69
铃@@ 69
阿霉素 69
韧@@ 69
食量 69
10mm 68
1．0@@ 68
2.6 68
280 68
43% 68
AF 68
Ab@@ 68
CO_3 68
D2 68
GD 68
HSV@@ 68
H_ 68
Hp 68
IPv4 68
LDL 68
NF@@ 68
OA 68
OF 68
OP 68
Sm 68
Ste@@ 68
TNF@@ 68
VS 68
mol/L@@ 68
ron@@ 68
t/a 68
Ⅱ组 68
不定@@ 68
专题 68
中共 68
争论 68
产阶级 68
人工林 68
仔 68
体性 68
体液 68
佳@@ 68
修理 68
削@@ 68
力及 68
加深 68
厌@@ 68
发电厂 68
叙@@ 68
合力 68
同种 68
哈 68
喷施 68
喷管 68
地段 68
塌陷 68
嫁接 68
学术界 68
密性 68
局域 68
年度 68
并以 68
强弱 68
心脏病 68
忧@@ 68
恐@@ 68
感染性 68
扇@@ 68
拓@@ 68
拥塞 68
捞 68
掌@@ 68
搬@@ 68
摩擦@@ 68
新生代 68
杂交@@ 68
杆状 68
梨@@ 68
梯形 68
民主@@ 68
气敏 68
氢气 68
河南省 68
沸@@ 68
烃类 68
片断 68
牡@@ 68
物理@@ 68
玛 68
痰@@ 68
相和 68
矩阵@@ 68
研 68
砾@@ 68
磺 68
票据 68
种的 68
综放 68
羰基 68
耐热 68
肌腱 68
至于 68
药用 68
西安 68
计师 68
诊断@@ 68
试点 68
趾 68
酶活 68
醌 68
钱 68
铁素体 68
锐 68
锚索 68
门诊 68
雏@@ 68
馆员 68
高分辨 68
高分辨率 68
#@@ 67
-A 67
137 67
15．@@ 67
175 67
1988年 67
293 67
CG 67
DF 67
FM 67
HBV@@ 67
IGF@@ 67
Ig 67
L－@@ 67
MIC 67
Ra@@ 67
Rh@@ 67
SV 67
V_ 67
cell 67
g-@@ 67
ig@@ 67
k-@@ 67
mAh@@ 67
sICAM-1 67
st 67
μg/kg 67
上肢 67
下来 67
下限 67
不育系 67
东南 67
乳化剂 67
二氯@@ 67
人身 67
仿真的 67
传代 67
传承 67
估 67
供需 67
依然 67
俄 67
值为 67
冷藏 67
剧烈 67
功效 67
半乳糖 67
卫@@ 67
卵母细胞 67
发音 67
变化率 67
变速器 67
命 67
唇 67
块状 67
失真 67
失衡 67
奏 67
射孔 67
岔 67
巴比@@ 67
师资 67
希@@ 67
开辟 67
惊@@ 67
惠@@ 67
执法 67
抑素 67
摊 67
改建 67
放在 67
散度 67
景区 67
暂态 67
本章 67
构象 67
枣 67
椅 67
橡@@ 67
步长 67
氢氧化@@ 67
治疗@@ 67
洲@@ 67
淋 67
淡水 67
淹@@ 67
滚子 67
澳大利亚 67
灭活 67
热法 67
生物膜 67
癌症 67
盈@@ 67
盐分 67
相移 67
知识库 67
知道 67
确切 67
碳化 67
窑@@ 67
筛分 67
管柱 67
糠@@ 67
纠错 67
线图 67
结肠癌 67
编织 67
羧基 67
老年@@ 67
联邦 67
肋骨 67
脱位 67
腐 67
膏@@ 67
自发性 67
茨 67
菌落 67
萘 67
血吸虫 67
衍@@ 67
计数器 67
调制器 67
赏 67
跨越 67
跳远 67
转轨 67
转轮 67
退出 67
重组@@ 67
隶属 67
饮用水 67
骨密度 67
高科技 67
0.7% 66
125@@ 66
134 66
1998 66
27% 66
4+@@ 66
57% 66
94@@ 66
BR@@ 66
DO 66
E/@@ 66
GO@@ 66
IO@@ 66
Matlab 66
PKC 66
Pro/@@ 66
R/@@ 66
Southern 66
S波 66
TCP/IP 66
TGF-@@ 66
UC 66
ber@@ 66
km2 66
m+@@ 66
r=@@ 66
ts 66
丝网 66
乙酯 66
任一 66
作图 66
关心 66
出血@@ 66
化肥 66
卸@@ 66
又@@ 66
变色 66
吸附剂 66
唤醒 66
垫层 66
外在 66
失灵 66
好转 66
婴儿 66
客观@@ 66
小脑 66
广场 66
归一 66
微晶 66
意外 66
房室 66
承诺 66
技 66
拼@@ 66
捷@@ 66
探头 66
支柱 66
收到 66
文人 66
方形 66
无功 66
显示器 66
暴力 66
权法 66
模数 66
残基 66
毕@@ 66
民法 66
氢键 66
汗 66
治性 66
注浆 66
消能 66
清代 66
清理 66
渗碳 66
温差 66
溃@@ 66
热电 66
瓣@@ 66
甚@@ 66
白垩@@ 66
眼球 66
硬化@@ 66
社团 66
穿越 66
突变@@ 66
立场 66
结构域 66
缓解期 66
联动 66
肱@@ 66
能及 66
脱脂 66
茨@@ 66
葛@@ 66
蠕@@ 66
训 66
许可 66
译者 66
语言学 66
趋向 66
趣 66
转移@@ 66
迅猛 66
递推 66
通行 66
部署 66
配伍 66
重于 66
重传 66
钒@@ 66
镶@@ 66
隐私权 66
食盐 66
黄色 66
）@@ 66
／s 66
113 65
153 65
165 65
1995 65
256 65
44% 65
47% 65
52% 65
6.0@@ 65
83@@ 65
9000 65
CE 65
CH2 65
CMV 65
Ca2+@@ 65
DT@@ 65
EX@@ 65
FD 65
Fu@@ 65
GPa 65
H4 65
H_2O_2 65
IV@@ 65
L-C 65
L2 65
MAX 65
Man@@ 65
MeV 65
PKI 65
PU@@ 65
Raman 65
Rb 65
S3 65
VL@@ 65
ae 65
h-1 65
ha@@ 65
mm，@@ 65
ta 65
三七 65
下沉 65
不仅仅 65
且@@ 65
中型 65
乳酸@@ 65
侵染 65
信令 65
俯@@ 65
凝血酶 65
势力 65
匀@@ 65
卜 65
发区 65
发掘 65
受限 65
变换器 65
吞@@ 65
咯@@ 65
唯物 65
商品@@ 65
型机 65
多于 65
多酚 65
安静 65
对偶 65
巨 65
干重 65
并存 65
幸@@ 65
幽默 65
引出 65
思想@@ 65
意志 65
感官 65
承 65
挤@@ 65
搏@@ 65
数量级 65
日增 65
旬 65
最短 65
有无 65
杉@@ 65
棒@@ 65
橡胶@@ 65
步法 65
水资源 65
江西 65
汤@@ 65
油脂 65
法则 65
海区 65
润滑油 65
涵义 65
渍 65
渗透@@ 65
温升 65
潜艇 65
片上 65
献@@ 65
理论@@ 65
生态位 65
甲状@@ 65
甲酸 65
电价 65
留率 65
碰@@ 65
穿透 65
算例 65
粒数 65
糊@@ 65
纱线 65
绘图 65
耐力 65
联合国 65
腐烂 65
舌 65
苯甲酸 65
蜕@@ 65
装甲 65
观光 65
警务 65
试验中 65
调和 65
谱图 65
质岩 65
质疑 65
遗产 65
采油 65
采煤 65
重庆市 65
钎料 65
钟 65
锤@@ 65
长石 65
领导@@ 65
餐 65
魏@@ 65
150@@ 64
188 64
1985年 64
23% 64
4年 64
60年代 64
9～@@ 64
DN 64
DQ@@ 64
Fe3 64
Hg@@ 64
RSV 64
SO_2 64
TGF@@ 64
TV 64
da@@ 64
ho@@ 64
ine 64
kg·d 64
mol／@@ 64
sch@@ 64
下列 64
乳头@@ 64
份额 64
信念 64
储集 64
减振 64
凹 64
前兆 64
半月板 64
危 64
反刍 64
合金化 64
后用 64
向于 64
嗜@@ 64
增重 64
天冬氨酸 64
夺 64
容许 64
州湾 64
平移 64
庞@@ 64
延续 64
心态 64
成活 64
戴 64
所有者 64
抽提 64
拍卖 64
摆脱 64
显式 64
样式 64
梨 64
欢@@ 64
正比 64
毫米 64
氦@@ 64
洗液 64
洛 64
津@@ 64
海藻 64
深厚 64
溴 64
灰分 64
烧蚀 64
煎@@ 64
熊@@ 64
牙周@@ 64
玄武岩 64
生烃 64
电炉 64
电量 64
疏水 64
目录 64
瞬间 64
秘 64
童 64
红壤 64
练@@ 64
组及 64
细胞瘤 64
耕@@ 64
肝素 64
肼 64
肾炎 64
英美 64
落叶松 64
葡萄@@ 64
蒂@@ 64
蕴含 64
虹@@ 64
血性 64
西林 64
评量 64
谈判 64
轮机 64
边际 64
采暖 64
预留 64
频段 64
风湿性 64
鳞状 64
0001 63
122 63
14d 63
190 63
2.6@@ 63
2m 63
56% 63
66% 63
76% 63
81% 63
85％ 63
AX 63
BD 63
C60 63
C6@@ 63
CD+@@ 63
CEA 63
DDP 63
ESR 63
FO@@ 63
Glu 63
Hz@@ 63
IBM 63
MOS 63
Pro 63
WEB 63
_i 63
ing@@ 63
不利于 63
丘@@ 63
中原 63
中高 63
乙酸乙酯 63
二维@@ 63
产值 63
仁@@ 63
低渗 63
例外 63
债@@ 63
克拉@@ 63
分工 63
制导 63
力求 63
单机 63
句@@ 63
合法性 63
君@@ 63
呋喃 63
哲@@ 63
园区 63
复性 63
外汇 63
大众化 63
大米 63
导联 63
寿 63
尽量 63
应以 63
开启 63
弱势 63
得率 63
忆 63
念 63
态氮 63
性腺 63
惑 63
想象 63
抓住 63
抗凝 63
抗弯 63
抚@@ 63
拍摄 63
持久 63
排泄 63
救助 63
敷 63
施氮量 63
晋 63
暴 63
机动车 63
枯病 63
桥头 63
检测法 63
次级 63
气质 63
氮量 63
污染源 63
海南 63
灶@@ 63
环氧@@ 63
甘露@@ 63
畅 63
痉挛 63
确实 63
磷灰石 63
窦房 63
箔 63
粮@@ 63
糜@@ 63
纤溶 63
经皮 63
耐蚀 63
胆囊@@ 63
脊椎 63
脑干 63
荷瘤 63
萌芽 63
营 63
葡萄球菌 63
蓬勃 63
虱 63
螯合 63
讽刺 63
试材 63
质性 63
贵族 63
赤道 63
过于 63
过敏 63
迈@@ 63
配送 63
重排 63
钙化 63
镜头 63
防锈 63
音速 63
预估 63
骨料 63
髌@@ 63
0.18 62
0.35 62
04@@ 62
157 62
220@@ 62
3.2 62
54% 62
62@@ 62
CODCr 62
DCT 62
GL@@ 62
ICP 62
MEMS 62
MM@@ 62
P-1 62
PO_4 62
SAR@@ 62
SN 62
Service 62
WI 62
and@@ 62
dt 62
ed@@ 62
g／L 62
mg/g 62
ob@@ 62
ox@@ 62
世代 62
中亚 62
主梁 62
之内 62
乳剂 62
二十 62
享@@ 62
人和 62
仍@@ 62
仔鸡 62
健美操 62
偶氮@@ 62
共产@@ 62
内源 62
制度@@ 62
加拿大 62
单轴 62
发动 62
另@@ 62
大功率 62
失活 62
奈@@ 62
姜@@ 62
孔型 62
导引 62
小组 62
屋@@ 62
岭@@ 62
巯基 62
希腊 62
并没有 62
府 62
径流量 62
微量@@ 62
心灵 62
急诊 62
恢复@@ 62
情节 62
惩罚 62
手指 62
扩充 62
指向 62
揭@@ 62
放松 62
政权 62
断路器 62
朱@@ 62
杭州 62
枝条 62
根管 62
根部 62
款@@ 62
氰 62
水冷 62
水浴 62
河水 62
流派 62
浮动 62
渐进 62
渡 62
滞留 62
炉渣 62
牛顿 62
瓣膜 62
着色 62
矿业 62
碱度 62
磁体 62
稀释@@ 62
稍 62
税制 62
窥镜 62
立地 62
管式 62
类化 62
糖苷 62
纷@@ 62
缔 62
而后 62
联剂 62
联网 62
股市 62
肤 62
肥力 62
胴体 62
色剂 62
苯二@@ 62
菊 62
衡@@ 62
装药 62
西省 62
讲述 62
质地 62
贸 62
起步 62
转角 62
较弱 62
运用于 62
近视 62
迷宫 62
遗迹 62
郊@@ 62
金黄色 62
钝@@ 62
铸坯 62
陆相 62
雏鸡 62
页岩 62
饲@@ 62
馆藏 62
马达 62
鸣 62
+T 61
-4@@ 61
1100 61
180@@ 61
1990 61
54@@ 61
AE@@ 61
BL@@ 61
CHF 61
DB 61
GABA 61
IA 61
I型 61
JPEG 61
LL 61
MAS 61
Na_2@@ 61
gl@@ 61
hm@@ 61
it 61
mi@@ 61
°E 61
η 61
③@@ 61
不到 61
乳房 61
二氧化硅 61
体表 61
候 61
做了 61
傅立叶 61
催 61
共晶 61
剪切@@ 61
卟啉 61
压强 61
图片 61
地塞米松 61
坝体 61
复原 61
头痛 61
奶牛 61
宇@@ 61
守 61
尤@@ 61
屠@@ 61
平整 61
并非 61
异构体 61
形式化 61
抛物 61
排气 61
摘除 61
新建 61
旋翼 61
无损 61
智慧 61
曲张 61
有机肥 61
木质素 61
板料 61
构思 61
框@@ 61
棘 61
橙@@ 61
氢化 61
水准 61
沃@@ 61
流转 61
测量仪 61
渍@@ 61
理工 61
理财 61
甘氨酸 61
相图 61
矢@@ 61
石棉 61
砾 61
竞争性 61
粕 61
紧急 61
纳米晶 61
肌电 61
脑病 61
腕@@ 61
舒适 61
芬@@ 61
茎尖 61
蒿@@ 61
蜜 61
谱法 61
赖@@ 61
辐@@ 61
运人 61
邦 61
锆 61
锻 61
门限 61
闸门 61
陵@@ 61
鞣@@ 61
风力 61
食性 61
-C 60
0.25@@ 60
10，@@ 60
133 60
1987年 60
3／@@ 60
4-D 60
41% 60
5－@@ 60
61% 60
8年 60
ABC 60
ALL 60
CMC 60
CTL 60
DV 60
EVA 60
Ho@@ 60
K1 60
M3 60
MAP@@ 60
NI@@ 60
PCA 60
SAS 60
Tb 60
W-@@ 60
ca@@ 60
cfu@@ 60
my@@ 60
sc@@ 60
丙烯@@ 60
中小 60
主干 60
主线 60
乘积 60
云杉 60
休息 60
伽@@ 60
信托 60
偏振@@ 60
共和 60
冲蚀 60
冻干 60
凝集 60
制图 60
办公 60
华南 60
卫生@@ 60
可供 60
台阶 60
名称 60
后备 60
喹@@ 60
器械 60
地磁 60
垒 60
增至 60
处方 60
外贸 60
多见 60
大幅 60
大鼠肝 60
姜 60
子叶 60
季节性 60
安徽省 60
安置 60
宝钢 60
室外 60
宿@@ 60
密集型 60
岩土 60
差动 60
帘@@ 60
廉@@ 60
建设@@ 60
恋 60
意图 60
意蕴 60
愿 60
愿@@ 60
拯救 60
拿 60
授粉 60
摄入 60
救治 60
无穷 60
星载 60
更高 60
有时 60
极端 60
根尖 60
残渣 60
水相 60
流型 60
济 60
涵 60
深水 60
溶血 60
演绎 60
灌水 60
焚烧 60
猝@@ 60
环素 60
现今 60
电容器 60
疮 60
盈 60
睾酮 60
码器 60
磷肥 60
神圣 60
私人 60
窦性 60
筑@@ 60
索道 60
细粒 60
织构 60
缓冲液 60
耗量 60
胆汁 60
胞菌 60
胰 60
胶束 60
舞台 60
芋 60
药代 60
莲@@ 60
萎@@ 60
虎 60
警察 60
认可 60
负性 60
贡献率 60
踝@@ 60
透明@@ 60
配合力 60
酪氨酸 60
铝基 60
高出 60
鹅 60
龋@@ 60
0.10 59
0.1～@@ 59
230 59
79% 59
900@@ 59
Ac 59
Apo@@ 59
BE@@ 59
Bax 59
DE 59
EM 59
Gd 59
III 59
L.@@ 59
LR 59
OP@@ 59
RBC 59
RSA 59
TR 59
TiC 59
ata 59
kin@@ 59
mann 59
ren@@ 59
■ 59
上下 59
东海 59
两部分 59
临界值 59
丹参@@ 59
乙胺 59
交互式 59
人性化 59
们 59
优良率 59
充电 59
光缆 59
冬小麦 59
刃 59
分块 59
分泌@@ 59
压差 59
可在 59
可疑 59
向量机 59
吴@@ 59
困扰 59
地温 59
均衡@@ 59
墙体 59
壤@@ 59
夜 59
学法 59
实测值 59
导性 59
局域网 59
工质 59
异种 59
心电 59
怀 59
恰当 59
患病 59
抓 59
控股 59
无机@@ 59
有效@@ 59
服务业 59
杯@@ 59
林木 59
枣@@ 59
标的 59
根际 59
棒状 59
水头 59
永久 59
沙尘暴 59
波幅 59
波束 59
泥质 59
洁 59
测温 59
测评 59
海湾 59
清醒 59
渣油 59
漂 59
煤机 59
父亲 59
畜 59
痊愈 59
皮素 59
监护 59
相对论 59
矿质 59
砖@@ 59
秧 59
突出症 59
精液 59
累@@ 59
繁 59
继电器 59
肉鸡 59
臀@@ 59
臂@@ 59
苗木 59
蒙古 59
西门子 59
话题 59
课的 59
谋@@ 59
起源于 59
路网 59
转入 59
远景 59
迪 59
逆性 59
酮类 59
量子@@ 59
量级 59
钳@@ 59
铸态 59
链球菌 59
锥形 59
附属 59
青光眼 59
饱@@ 59
验收 59
高等级 59
＊ 59
｜ 59
-6 58
0.04 58
0.08 58
06@@ 58
1-2 58
118 58
260 58
2~@@ 58
2＋ 58
3.4 58
301 58
37% 58
42% 58
Ber@@ 58
CA1 58
CGRP 58
C语言 58
EB 58
ET-1 58
G-CSF 58
GR@@ 58
GT 58
HL@@ 58
HV@@ 58
IEC 58
ITS 58
IV 58
MPEG@@ 58
MSCs 58
Mor@@ 58
NGF 58
No@@ 58
RU@@ 58
Rob@@ 58
SQ@@ 58
TGFβ1 58
ana 58
ax@@ 58
berg 58
g-1 58
ker 58
mg/l 58
mm2 58
nt 58
pro@@ 58
~3 58
μmol/L@@ 58
业化 58
东南亚 58
东西 58
举措 58
乳头 58
人化 58
他@@ 58
仪式 58
会话 58
假说 58
傅里叶 58
兆 58
光镜 58
全民 58
利用@@ 58
别的 58
副本 58
卵泡 58
历史@@ 58
台地 58
叶绿体 58
合器 58
周血 58
喉 58
因特网 58
塌 58
填埋场 58
处在 58
大为 58
大黄 58
失率 58
她们 58
学业 58
对等 58
寿@@ 58
幂 58
庚@@ 58
异位 58
异构@@ 58
归结 58
所处 58
承认 58
摄动 58
改制 58
敌 58
文化@@ 58
料液 58
条例 58
松散 58
板坯 58
核糖 58
梭形 58
次序 58
正确率 58
水系 58
求取 58
浇筑 58
湾@@ 58
溢流 58
灌区 58
烈 58
猕@@ 58
玻璃体 58
甙@@ 58
生长期 58
电视@@ 58
疾 58
疾@@ 58
皮损 58
真空@@ 58
瞄@@ 58
知觉 58
砌体 58
秦岭 58
立方@@ 58
纲@@ 58
线材 58
综合@@ 58
缔合 58
耐量 58
腈@@ 58
芬太 58
药效 58
蒙特卡@@ 58
蕉 58
蛛 58
血管性 58
褶皱 58
览@@ 58
触 58
触头 58
计价 58
计分 58
训练@@ 58
负重 58
辅以 58
输卵管 58
辣椒 58
达标 58
适时 58
配筋 58
酱油 58
酶链 58
采空区 58
银杏 58
青海 58
饰@@ 58
馈@@ 58
马尔@@ 58
／min 58
1.5% 57
124 57
12％ 57
18．@@ 57
1994 57
204 57
63% 57
9/@@ 57
Be 57
CD8@@ 57
CHD 57
CY@@ 57
EN@@ 57
FFT 57
H3@@ 57
I2 57
MPLS 57
ND 57
PB 57
PH 57
PLA 57
P波 57
RH 57
RM 57
SCL-90 57
SPF 57
SW 57
T_ 57
T型 57
UML 57
_8 57
cr 57
iNOS 57
ka@@ 57
m-@@ 57
ra@@ 57
ta@@ 57
ton 57
上方 57
不等 57
中性@@ 57
中继 57
亚种 57
人事 57
会计师 57
低等 57
光谱仪 57
全程 57
公益 57
公顷 57
关键性 57
内生 57
凭@@ 57
制造商 57
剑 57
北美 57
友@@ 57
合一 57
合子 57
后勤 57
呼叫 57
喂 57
坡面 57
声誉 57
孤 57
学报 57
家长 57
寡核苷酸 57
小分子 57
巩膜 57
布线 57
应从 57
店@@ 57
廓@@ 57
开创 57
弛@@ 57
我省 57
手性 57
扭 57
捕食 57
探寻 57
摘要 57
数据源 57
旅客 57
旅游@@ 57
本体论 57
柄 57
查明 57
桂 57
正面 57
武 57
气溶胶 57
沥青@@ 57
泵浦@@ 57
浦@@ 57
海外 57
海面 57
消融 57
涤纶 57
湿润 57
烃源 57
烤@@ 57
热泵 57
焦炭 57
版权 57
白内障 57
相容 57
眠 57
砂轮 57
窄@@ 57
立式 57
签署 57
粪便 57
组网 57
维生素E 57
肝病 57
肠炎 57
草酸 57
荒漠 57
董事会 57
螯@@ 57
行为@@ 57
覆膜 57
见解 57
误码 57
货车 57
超标 57
超高 57
选出 57
郊 57
配料 57
链接 57
间期 57
预热 57
首选 57
驱体 57
骗 57
黏度 57
0.000 56
0．00@@ 56
139 56
17．@@ 56
20-@@ 56
30d 56
39% 56
5000@@ 56
7.4 56
89C51 56
AST@@ 56
Ad 56
CaCO3 56
Col@@ 56
DD 56
DTA 56
FT 56
LY 56
MVD 56
N_2 56
OK@@ 56
P3 56
P＜0．001 56
RG@@ 56
Rho 56
Rou@@ 56
TO 56
TiO@@ 56
VE 56
VaR 56
Western@@ 56
pa@@ 56
Σ@@ 56
习得 56
亡@@ 56
产地 56
企业@@ 56
优先@@ 56
伤寒 56
佐剂 56
修养 56
停车 56
内源性 56
军人 56
决定性 56
冷却水 56
切花 56
加成 56
动因 56
化妆品 56
匹@@ 56
单发 56
博 56
双相 56
各向异性 56
合体 56
向前 56
吸取 56
周末 56
喀@@ 56
圆盘 56
块体 56
埃希@@ 56
天冬@@ 56
夹杂 56
孔隙率 56
孙@@ 56
孟@@ 56
安徽 56
宝贵 56
宫 56
密码子 56
封闭@@ 56
将来 56
工具@@ 56
干线 56
庆@@ 56
建筑@@ 56
异丙酚 56
恶劣 56
感情 56
抬高 56
据@@ 56
接收@@ 56
搜@@ 56
收发 56
新西兰 56
无缝 56
最强 56
朝鲜 56
本论 56
机房 56
条纹 56
校核 56
核电站 56
森@@ 56
模拟@@ 56
正当 56
油水 56
法理 56
海峡 56
海绵 56
消化率 56
涤@@ 56
液氮 56
淀@@ 56
清扫 56
渠 56
游离@@ 56
溶栓 56
灌注桩 56
火力 56
球囊 56
球状 56
盈利 56
盖层 56
目的@@ 56
睡@@ 56
硅氧烷 56
第5 56
筋膜 56
简支@@ 56
粘接 56
紫色 56
终极 56
缓蚀 56
聚糖酶 56
肌酸 56
背侧 56
胡萝卜素 56
航线 56
花叶 56
菌群 56
蓄电池 56
薯@@ 56
视景 56
诚 56
误区 56
调频 56
败 56
资助 56
超前 56
超级 56
跑道 56
较短 56
输尿管 56
过大 56
迭 56
选址 56
遥测 56
重用 56
钙钛矿 56
钡 56
钻具 56
阔 56
阶段性 56
陪@@ 56
骤@@ 56
鸭@@ 56
黑素 56
龟@@ 56
+2 55
254 55
28d 55
3000 55
5.5@@ 55
53@@ 55
AHP 55
AIDS 55
C5@@ 55
CAP 55
CM@@ 55
CRM 55
GPRS 55
MC-@@ 55
NG 55
NH3-N 55
NPV 55
Pr 55
QT@@ 55
RD 55
SH 55
TF 55
U／@@ 55
VEGF@@ 55
Vc 55
_2/@@ 55
ell@@ 55
fos 55
ind@@ 55
’@@ 55
Ⅱ级 55
丝绸 55
中空 55
之路 55
二酮 55
互连 55
交错 55
代表@@ 55
儒@@ 55
党员 55
公交 55
兰州 55
冻土 55
减退 55
几方面 55
凡@@ 55
分歧 55
利福平 55
卡尔曼 55
参与@@ 55
变型 55
否@@ 55
回转窑 55
基岩 55
壁垒 55
复配 55
多路 55
大面积 55
寓@@ 55
小康 55
山带 55
巢 55
帝 55
平扫 55
年限 55
庙 55
开设 55
弱化 55
微创 55
微循环 55
悬架 55
成都 55
扫描仪 55
拒 55
拱坝 55
摄食 55
撕裂 55
操 55
政务 55
教训 55
断言 55
新近 55
晨 55
最小@@ 55
最少 55
最早 55
有机酸 55
机中 55
束流 55
梳 55
椒 55
正常@@ 55
步伐 55
母本 55
毛细 55
氢化物 55
氯乙烯 55
油酸 55
注塑 55
测出 55
液滴 55
混杂 55
溢 55
溴化@@ 55
滚压 55
潜能 55
激发态 55
烈度 55
燃烧室 55
生命力 55
瘘@@ 55
相中 55
知识@@ 55
矿渣 55
硝基苯 55
祖@@ 55
管径 55
粉料 55
粳稻 55
结局 55
罗哌@@ 55
耗散 55
肖@@ 55
胶凝 55
致力于 55
航天器 55
航迹 55
药性 55
著作 55
虎@@ 55
蚀变 55
补体 55
见到 55
觉@@ 55
评级 55
调性 55
责@@ 55
跳频 55
踪@@ 55
载机 55
达成 55
进制 55
连轧 55
述评 55
锂@@ 55
阴影 55
降为 55
雕@@ 55
零部件 55
青贮 55
靠近 55
颌@@ 55
驱动器 55
髓鞘 55
高山 55
高峰期 55
0.005 54
0~@@ 54
1/4 54
10-6@@ 54
147 54
151 54
1，1 54
2500 54
2n@@ 54
35％ 54
69% 54
AFP 54
ARM 54
DSA 54
Dy@@ 54
EB@@ 54
F3 54
Fourier 54
HBeAg 54
Lo@@ 54
MW@@ 54
Management 54
NO3 54
PDA 54
RN@@ 54
S_@@ 54
TL@@ 54
TP@@ 54
Ti/@@ 54
ach@@ 54
ad 54
er-@@ 54
g/cm3 54
let 54
ml-1 54
pGE@@ 54
sp. 54
丁酸 54
乙炔 54
习性 54
二者 54
五四 54
交感 54
众@@ 54
依照 54
俱乐部 54
儒学 54
充血性 54
光斑 54
免疫性 54
再植 54
冲击@@ 54
减慢 54
分泌物 54
刷 54
前进 54
动式 54
匹林 54
协定 54
占用 54
卢@@ 54
取材 54
受者 54
古老 54
合同法 54
周年 54
品格 54
哈尔滨 54
唇@@ 54
回弹 54
国人 54
均数 54
均有 54
堡 54
塘@@ 54
外包 54
够 54
大田 54
头颅 54
契机 54
妥 54
妹 54
婴幼儿 54
嫩 54
季风 54
家电 54
小种 54
屋 54
岛状 54
崭新 54
平坦 54
平衡@@ 54
年均 54
建筑师 54
弥@@ 54
成年人 54
成核 54
抗癌 54
抬@@ 54
探明 54
探查 54
控释 54
散热 54
旁路 54
易行 54
替代@@ 54
最小化 54
果树 54
柱状 54
柴胡 54
桁架 54
梗 54
欣赏 54
比如 54
氨酶 54
水线 54
泊松 54
泽@@ 54
浆液 54
消费@@ 54
涌 54
清水 54
煌 54
熔剂 54
燕@@ 54
琼脂糖 54
甲氧@@ 54
电击 54
电学 54
界线 54
着眼 54
糖化 54
绘@@ 54
给水 54
综采 54
股骨头 54
脉压 54
腾@@ 54
自振 54
菌性 54
萤@@ 54
蛹 54
行性 54
补给 54
袭@@ 54
证型 54
诊治 54
试析 54
赤 54
较长 54
违反 54
采收率 54
阻尼器 54
霜 54
韧 54
顽@@ 54
风景 54
风湿 54
风量 54
饮 54
黄铁矿 54
05% 53
166 53
1980年 53
1d 53
25-@@ 53
53% 53
667m2 53
7.2 53
ADM 53
At@@ 53
CC@@ 53
CFD 53
COS 53
Er@@ 53
FTIR 53
H7 53
IL-2R 53
MG@@ 53
Multi@@ 53
PF@@ 53
QTL 53
SU 53
Th2 53
VR 53
ZSM-5 53
Zn2+ 53
ensis 53
ie@@ 53
im@@ 53
itz 53
n-1 53
selectin 53
sm@@ 53
virus 53
η@@ 53
Ⅴ@@ 53
丘陵 53
乙腈 53
伐他汀 53
估测 53
佛 53
保险人 53
倾斜@@ 53
光刻 53
公钥 53
关联度 53
其后 53
冠心 53
前端 53
动力@@ 53
动员 53
励 53
区划 53
区带 53
千粒重 53
南极 53
即时 53
变速 53
召@@ 53
吉林 53
商榷 53
回报 53
堆石坝 53
堵 53
塌@@ 53
备份 53
大蒜 53
天门冬 53
奥陶@@ 53
宇宙 53
定标 53
察@@ 53
小学生 53
峡 53
幕@@ 53
应于 53
心病 53
悉 53
所有制 53
所需要 53
承包@@ 53
投射 53
拨@@ 53
挥发油 53
捕捉 53
排出 53
推迟 53
改写 53
明代 53
智@@ 53
机架 53
材积 53
杭@@ 53
毕 53
气管炎 53
沙门@@ 53
油泵 53
油量 53
沿着 53
浑@@ 53
混凝剂 53
渔业 53
溶体 53
潜 53
点源 53
燃烧器 53
片式 53
牺牲 53
狼@@ 53
猜想 53
玫瑰@@ 53
现存 53
甘草 53
电性能 53
画家 53
瘦@@ 53
砜 53
碘盐 53
磨牙 53
稻草 53
穗期 53
策划 53
简洁 53
累 53
继而 53
维生素A 53
绵@@ 53
美元 53
耐药率 53
联结 53
肌动蛋白 53
胆红素 53
背后 53
能使 53
脑电图 53
脱氢 53
膛 53
膜层 53
膨胀@@ 53
舰艇 53
船员 53
花岗@@ 53
花环 53
花环率 53
英雄 53
菱@@ 53
蔓延 53
藜@@ 53
螨@@ 53
袖 53
订货 53
详@@ 53
贝尔 53
赢@@ 53
软件包 53
迎 53
这一 53
重性 53
钢材 53
雇@@ 53
震动 53
非洲 53
鞭 53
页 53
顾@@ 53
颅 53
高位 53
高功率 53
高强度 53
0.12 52
09@@ 52
199 52
1mRNA 52
49% 52
58% 52
7721 52
AK 52
AK@@ 52
AQ@@ 52
AW@@ 52
Al2O@@ 52
Arg 52
Asp@@ 52
C18 52
C4@@ 52
Cl3 52
Cr-@@ 52
Cr2@@ 52
DT 52
F/@@ 52
G0 52
IGF 52
IGF-1 52
IGF-@@ 52
KD 52
MMP-2 52
NH3 52
P2@@ 52
PSK 52
RV 52
SB 52
SPECT 52
i-@@ 52
ine@@ 52
man@@ 52
ml/min 52
mm/a 52
n=6 52
sin@@ 52
ve@@ 52
α1 52
β_1 52
℃/@@ 52
下层 52
下腔 52
不用 52
不稳定性 52
世界上 52
丙烷 52
中试 52
之所以 52
乏 52
也就是 52
代理人 52
伊斯@@ 52
休 52
优惠 52
侦察 52
内分泌 52
准备@@ 52
凝集素 52
分之一 52
刑@@ 52
前瞻性 52
勾@@ 52
包络 52
半衰期 52
受精 52
各地 52
向下 52
员@@ 52
咽@@ 52
啶@@ 52
噪@@ 52
因其 52
团簇 52
地块 52
坳陷 52
型材 52
基化 52
基态 52
堆焊 52
备用 52
宫内 52
密封@@ 52
小腿 52
层板 52
层流 52
山西省 52
巩固 52
平片 52
年份 52
开销 52
弧形 52
弧焊 52
弹丸 52
心绞痛 52
意思 52
或是 52
战场 52
所用 52
扼@@ 52
抗炎 52
报文 52
整体性 52
旋流 52
显效 52
杂多 52
杂志 52
来自于 52
枸@@ 52
柔 52
桔 52
梯 52
植骨 52
楚@@ 52
民族@@ 52
气机 52
沙量 52
活动期 52
测试仪 52
浴@@ 52
淤泥 52
渗透性 52
温州 52
湖南省 52
溶出 52
溶解氧 52
热工 52
用此 52
田径 52
痛苦 52
白兔 52
眶@@ 52
确 52
确@@ 52
离合器 52
种族 52
称谓 52
章@@ 52
签名人 52
简明 52
类似物 52
精神病 52
纤维素酶 52
组份 52
终点 52
经贸 52
结构性 52
网架 52
耗能 52
聚苯乙烯 52
肩胛 52
胸径 52
致病性 52
苯甲@@ 52
莱 52
血清型 52
表演 52
解吸 52
评论 52
询@@ 52
课外 52
起爆 52
超高压 52
趋 52
轴线 52
进给 52
迪@@ 52
迹@@ 52
选项 52
递归 52
遍@@ 52
采收 52
钎焊 52
锁模 52
锈钢 52
锋@@ 52
闲@@ 52
队列 52
降雨量 52
隐式 52
零售业 52
震级 52
骨性 52
骨盆 52
高脂 52
黏 52
黑麦草 52
114 51
116 51
117@@ 51
152 51
16．@@ 51
171 51
3K 51
Cs@@ 51
DL 51
Er 51
FP@@ 51
HIF-1 51
ICP-@@ 51
KCl 51
L型 51
Microsoft 51
My@@ 51
Northern 51
PAM 51
Ra 51
Ru 51
SC-@@ 51
TK 51
U/ml 51
ZrO_2 51
b/@@ 51
bcl 51
erb@@ 51
for 51
n＝@@ 51
wk 51
∑ 51
∶n 51
─@@ 51
上涨 51
上臂 51
不完全 51
不定 51
不对称 51
专科 51
乙状@@ 51
乳化@@ 51
仅为 51
伤口 51
低廉 51
共同@@ 51
兴奋@@ 51
冷凝@@ 51
几十 51
分生@@ 51
创新@@ 51
删除 51
制性 51
剥蚀 51
助跑 51
劲 51
化度 51
卸载 51
厚板 51
友 51
反应物 51
反而 51
同步@@ 51
吐 51
周血@@ 51
哺乳 51
喘@@ 51
回声 51
国际@@ 51
基片 51
增韧 51
多相 51
大体 51
头孢@@ 51
奥运 51
字符 51
安慰剂 51
家们 51
密闭 51
对准 51
小梁 51
应性 51
弹性体 51
抽吸 51
摄入量 51
撞 51
放弃 51
政策性 51
映象 51
显示@@ 51
晶硅 51
最优@@ 51
月经 51
机翼 51
松动 51
极值 51
枕 51
柜 51
栗 51
桑 51
椰@@ 51
模仿 51
正态分布 51
毕业 51
气液 51
氮源 51
沙坦 51
淋溶 51
深圳市 51
混乱 51
热管 51
特大 51
独立性 51
狭缝 51
用品 51
用法 51
申 51
男权 51
登 51
登录 51
硝基@@ 51
碳化@@ 51
磁控 51
移植物 51
类比 51
紫外光 51
红斑 51
红素 51
绝经 51
维甲酸 51
美洲 51
翻转 51
联合@@ 51
联机 51
肘@@ 51
育成 51
腿@@ 51
荚@@ 51
蒿 51
藤@@ 51
蝶 51
见于 51
解耦 51
误诊 51
谈起 51
谐 51
辽河 51
过滤器 51
运行@@ 51
近海 51
进剂 51
违法 51
透明质 51
邮件 51
重力@@ 51
重熔 51
铁水 51
长短 51
队@@ 51
阿斯@@ 51
险@@ 51
雷诺数 51
青岛 51
饮用 51
马尾松 51
驰 51
骨髓@@ 51
鸣@@ 51
0．3@@ 50
0．5 50
1-x@@ 50
1300 50
158 50
1978年 50
1985 50
226 50
270 50
2D 50
2O4 50
3- 50
3.6 50
31% 50
31．@@ 50
33.3% 50
330 50
34% 50
3~@@ 50
7mm 50
A+@@ 50
ADR 50
APD 50
BMP 50
CH3 50
Cl- 50
GA3 50
GFP 50
HL-60 50
ISI 50
LCD 50
LPO 50
Lu@@ 50
MMP 50
Mg-@@ 50
Monte 50
OT 50
PHA 50
Par@@ 50
P＞0.05 50
SAP 50
Sj@@ 50
We@@ 50
ac 50
ell 50
en-@@ 50
ii 50
ina 50
min-1 50
ng 50
t=@@ 50
μmol·@@ 50
∞@@ 50
一点 50
与此@@ 50
业主 50
丰产 50
二甲苯 50
二聚体 50
亚太 50
产酶 50
人与 50
人脐 50
仿生 50
传输@@ 50
似乎 50
位数 50
低渗透 50
体检 50
倒置 50
充气 50
免疫学 50
冰冻 50
刚体 50
力强 50
化解 50
印花 50
双曲 50
变异性 50
只@@ 50
各种 50
合用 50
吉 50
同志 50
咳嗽 50
商店 50
噪音 50
圆筒 50
堰 50
壁厚 50
声源 50
复制@@ 50
外径 50
失量 50
媒 50
存放 50
密实 50
帝国 50
幽门 50
异物 50
张量 50
当年 50
影视 50
拓 50
挫@@ 50
授 50
推移 50
搁@@ 50
搭建 50
摄像机 50
效度 50
整齐 50
旱区 50
时间点 50
明了 50
晶型 50
曾经 50
杂环 50
果汁 50
柴@@ 50
梳@@ 50
樟@@ 50
残疾 50
汽轮 50
波器 50
溶蚀 50
物资 50
珠江 50
疑 50
痹 50
目标@@ 50
睡 50
破碎@@ 50
私法 50
税务 50
稳健 50
究@@ 50
第7 50
粘结剂 50
精胺 50
絮凝@@ 50
纸浆 50
线程 50
结晶器 50
绘 50
缓蚀剂 50
缔@@ 50
编号 50
缠绕 50
聚乙烯醇 50
胆道 50
背部 50
自杀 50
船闸 50
苷酶 50
菌根 50
蛛@@ 50
表格 50
裁量 50
解构 50
诚@@ 50
调查@@ 50
走出 50
辨 50
过高 50
针状 50
铵盐 50
锯齿 50
长岩 50
门静脉 50
阳市 50
陷入 50
饲粮 50
饵料 50
驻 50
验算 50
龄期 50
0.999@@ 49
142 49
145 49
1987 49
3.3 49
3H 49
45％ 49
4－@@ 49
51@@ 49
5m 49
73@@ 49
7年 49
82@@ 49
92@@ 49
A549 49
AU@@ 49
Ag-@@ 49
Builder 49
CaCl2 49
Co-@@ 49
C—@@ 49
DEM 49
EEG 49
EH 49
Ex@@ 49
FN 49
Hep@@ 49
Hopf 49
Hu@@ 49
L－1 49
MFC 49
MN 49
OpenGL 49
PCR-@@ 49
Pe@@ 49
RT－PCR 49
SK 49
SPSS 49
SY 49
S_ 49
T2WI 49
Tb@@ 49
Tc-@@ 49
VE@@ 49
Visual@@ 49
WD 49
cGMP 49
factor 49
ich 49
kDa 49
ler 49
mM 49
n=10 49
pH=@@ 49
pg/ml 49
protein 49
res@@ 49
ru@@ 49
t-PA 49
tic@@ 49
tz 49
——Ⅱ 49
一般性 49
丁酯 49
中常 49
中频 49
举例 49
些 49
交换机 49
产儿 49
京 49
份@@ 49
住区 49
停机 49
儿茶@@ 49
出台 49
列出 49
初等 49
利手 49
制动器 49
加值 49
动物@@ 49
区块 49
单元@@ 49
变体 49
变态 49
叶面积 49
吸附@@ 49
呕吐 49
唐代 49
固性 49
固醇 49
地带 49
地震波 49
坯料 49
基部 49
堆肥 49
堡@@ 49
墓@@ 49
多变 49
多模 49
夸@@ 49
奴@@ 49
宗教@@ 49
定为 49
实质性 49
尾气 49
尿液 49
居室 49
差错 49
幔@@ 49
干法 49
干涉@@ 49
度假 49
异型 49
异质性 49
张力@@ 49
形物 49
忍@@ 49
意愿 49
感器 49
扑@@ 49
批准 49
抗-@@ 49
抛物@@ 49
抱 49
押 49
拍 49
振荡器 49
接种@@ 49
提供者 49
新城 49
无力 49
日光 49
木素 49
机油 49
朽 49
标识 49
欢 49
欧盟 49
欺@@ 49
歇@@ 49
正压 49
正极 49
母猪 49
毕业@@ 49
民办 49
氨水 49
氯化钠 49
水汽 49
浪潮 49
消化@@ 49
滴灌 49
濒@@ 49
炸 49
然@@ 49
燃机 49
生理@@ 49
电平 49
痘@@ 49
盟 49
瞬@@ 49
矫治 49
码率 49
研究法 49
离层 49
等量 49
管束 49
篇章 49
粘着 49
约定 49
织造 49
绝大部分 49
缩性 49
者们 49
胃肠道 49
胶乳 49
自交 49
自治@@ 49
花药 49
芳香族 49
蒸馏@@ 49
蓝宝石 49
蔗@@ 49
蔷@@ 49
蚁 49
蟹 49
衰退 49
认 49
语句 49
误码率 49
贷 49
资本@@ 49
躯体 49
较多 49
辣@@ 49
迟 49
适宜@@ 49
通用性 49
遂 49
遗传性 49
遗址 49
铲 49
镧@@ 49
阅@@ 49
阶梯 49
附件 49
陵 49
隔振 49
雨水 49
静息 49
预定 49
颌骨 49
骑@@ 49
髂@@ 49
高岭土 49
高效率 49
高档 49
魔@@ 49
麻疹 49
-C@@ 48
0.03@@ 48
0/@@ 48
1.25 48
108@@ 48
10~@@ 48
156 48
205 48
3.7 48
4.6@@ 48
4d 48
65％ 48
6±@@ 48
8d 48
98％ 48
;@@ 48
ADC 48
ATRA 48
Al_2O@@ 48
EF@@ 48
EL 48
Fi@@ 48
IL-12 48
MIMO 48
PAI 48
PIC 48
Pre@@ 48
Pt@@ 48
REE 48
T1@@ 48
To@@ 48
bax 48
by 48
ent@@ 48
il 48
ll@@ 48
mg/ 48
mg/kg@@ 48
mg/m2 48
pcDNA@@ 48
per@@ 48
t/h 48
tr@@ 48
y-@@ 48
χ2=@@ 48
℃下 48
──@@ 48
〉 48
丁二烯 48
上古 48
久性 48
事例 48
云南省 48
交界 48
产化 48
体能 48
余弦 48
作法 48
侧钻 48
保护性 48
修建 48
偏压 48
免疫@@ 48
内脏 48
内膜@@ 48
出于 48
出土 48
分步 48
创性 48
劳动者 48
勤@@ 48
十五 48
厂家 48
双峰 48
叠系 48
含水层 48
呼 48
咖@@ 48
四川省 48
围护 48
图书馆学 48
坎 48
堤@@ 48
填土 48
增效 48
增长@@ 48
壤 48
声光 48
处理厂 48
夯 48
头孢 48
姐妹 48
存量 48
实践@@ 48
对比度 48
帆@@ 48
应为 48
意境 48
战略性 48
施氮 48
昔@@ 48
显影 48
普遍@@ 48
月季 48
机型 48
杂岩 48
村民 48
析法 48
果糖 48
果肉 48
标法 48
格尔 48
栽@@ 48
桩基础 48
梢@@ 48
欲望 48
正定 48
正态 48
水污染 48
河北 48
洁净 48
洼@@ 48
流道 48
涂片 48
激活@@ 48
牙齿 48
牛奶 48
瑞 48
生根率 48
生殖@@ 48
生界 48
电光 48
甾醇 48
疵 48
皮革 48
硫脲 48
硫酸钠 48
硫酸铵 48
祭@@ 48
科技@@ 48
稀疏 48
细粉 48
结膜 48
综@@ 48
肺结核 48
胃镜 48
脉搏 48
脉络 48
自主@@ 48
航向 48
节段 48
苹@@ 48
莎@@ 48
莓 48
著作权 48
蒙脱@@ 48
蓝色 48
藻类 48
蛇@@ 48
蛙 48
览 48
调查表 48
豫@@ 48
超滤 48
跌@@ 48
跳高 48
车道 48
转为 48
载量 48
辨证 48
辽宁 48
过氧化物 48
返回 48
进出口 48
追溯 48
郁@@ 48
鄂@@ 48
铸轧 48
青素 48
韩@@ 48
饱 48
驱油 48
骨干 48
高纯 48
黄海 48
黑液 48
黔@@ 48
0.03 47
0.53 47
127 47
141 47
164 47
1m 47
1日 47
232 47
290 47
2d 47
8.5 47
ADAMS 47
ALP 47
A_2 47
B.@@ 47
BSA 47
CSP 47
CYP@@ 47
Excel 47
Gen@@ 47
GenBank 47
HB 47
ICA 47
LF@@ 47
LU@@ 47
MMP-9 47
MMSE 47
Model 47
Na2@@ 47
OC 47
P.@@ 47
PAN 47
PDM 47
PN 47
PTC 47
Petri@@ 47
RBAC 47
ST段 47
T6 47
TB 47
VHDL 47
X射线 47
all@@ 47
ans 47
ba@@ 47
bo@@ 47
cm~3 47
der@@ 47
dinger 47
g／ml 47
lin@@ 47
mL-1 47
mW 47
mg/mL 47
one 47
os 47
≠@@ 47
三头肌 47
专制 47
争取 47
产能 47
今@@ 47
价值@@ 47
企@@ 47
休眠 47
使用@@ 47
供求 47
便携式 47
偏转 47
偏高 47
偿还 47
储罐 47
党建 47
入选 47
全面@@ 47
关联@@ 47
内含子 47
农用 47
凝胶@@ 47
几何@@ 47
出率 47
初生 47
利亚 47
利多卡因 47
前置 47
剑@@ 47
剩 47
加热器 47
务人 47
劣 47
动向 47
动器 47
医科 47
半岛 47
单线 47
可控@@ 47
可知 47
名词 47
后于 47
吲哚 47
咸水 47
唤起 47
回应 47
国家@@ 47
国防 47
地热 47
基准@@ 47
填方 47
增压 47
增设 47
外壳 47
多变量 47
多边形 47
大连@@ 47
失眠 47
孢子@@ 47
孵@@ 47
安市 47
宋代 47
客户@@ 47
局限于 47
应有 47
废弃 47
废气 47
建国 47
引种 47
弦 47
恢复系 47
悔 47
惧 47
憾 47
抗滑 47
抵御 47
拆除 47
拟南芥 47
择期 47
拼装 47
指南 47
挖掘机 47
探求 47
接近于 47
描绘 47
改正 47
整车 47
日志 47
有机磷 47
构化 47
果园 47
某个 47
柳 47
梦@@ 47
橄榄@@ 47
正常人 47
残留@@ 47
每天 47
毒株 47
水压 47
河谷 47
流层 47
浏览 47
清除率 47
渭@@ 47
渲染 47
湿法 47
漏斗 47
烤烟 47
烷基化 47
犹@@ 47
玄@@ 47
玻璃化 47
理论界 47
甲壳@@ 47
电梯 47
疝 47
盐碱 47
盘式 47
盾构 47
硝 47
确证 47
禾 47
科学家 47
移植术 47
符@@ 47
答 47
精确度 47
素数 47
约型 47
组与 47
统筹 47
维生素 47
绿洲 47
缆 47
缓和 47
编目 47
编码器 47
美的 47
老人 47
臭 47
臼 47
舱@@ 47
芳香@@ 47
苛@@ 47
茧@@ 47
菲 47
萃取剂 47
葬 47
蕴涵 47
蚜@@ 47
解析解 47
解释@@ 47
试制 47
试用 47
跳跃 47
踏@@ 47
车床 47
选举 47
遵@@ 47
那样 47
酶的 47
釉@@ 47
钙素 47
铈 47
锌矿 47
镉@@ 47
防守 47
除草剂 47
页面 47
骨膜 47
髁@@ 47
鳞片 47
黑暗 47
齿面 47
／h 47
：1 47
＿ 47
-2·@@ 46
-5 46
0.01@@ 46
0.05～@@ 46
0.5％ 46
01/200@@ 46
10g 46
136 46
138 46
1992 46
2.7 46
2.8 46
263 46
333 46
5~@@ 46
6d 46
B4 46
Bayes 46
C/OS-@@ 46
EPO 46
Fe2O3 46
HCMV 46
Hol@@ 46
ICU 46
Map@@ 46
Met@@ 46
NH4@@ 46
NaCl@@ 46
PAP 46
P／@@ 46
RBF 46
RP-@@ 46
S.@@ 46
S3@@ 46
Sc 46
TD 46
TdR 46
Th1 46
V_@@ 46
V型 46
Yb 46
_2O_5 46
a/@@ 46
ari@@ 46
ator 46
bi@@ 46
hm-2 46
id 46
od@@ 46
ori@@ 46
ras 46
sol@@ 46
ud@@ 46
é@@ 46
μmol·L-1 46
μs 46
上网 46
上限 46
不容@@ 46
临时 46
乡@@ 46
了当 46
争端 46
亚甲基 46
亚铁 46
交配 46
亲和力 46
低密度 46
促销 46
俱@@ 46
先锋 46
全体 46
全息@@ 46
全文 46
其一 46
内地 46
农作物 46
冰箱 46
冻融 46
减速 46
出苗 46
剖宫@@ 46
匀浆 46
包被 46
升降 46
南北 46
合作@@ 46
同胞 46
吞噬 46
售@@ 46
商誉 46
啡@@ 46
喉癌 46
噶@@ 46
图表 46
地租 46
地表水 46
多值 46
失血性 46
奇点 46
妥钠 46
宗旨 46
实效性 46
家具 46
尖端 46
巧妙 46
帘 46
幅@@ 46
平方@@ 46
庆 46
弘扬 46
弥漫@@ 46
微弱 46
微细 46
惊厥 46
惰性 46
或者@@ 46
抖动 46
拒@@ 46
括@@ 46
摘@@ 46
方法@@ 46
无形 46
易位 46
晶须 46
更多 46
曹@@ 46
杂物 46
松辽 46
极大地 46
查阅 46
栈@@ 46
校园网 46
栽 46
椭圆形 46
模糊@@ 46
毒症 46
比卡 46
氏体 46
氧化锌 46
氨氮 46
水管 46
沸 46
油厂 46
波函数 46
波速 46
浇道 46
液膜 46
淀粉样 46
渡@@ 46
温和 46
溶解@@ 46
滤池 46
潮汐 46
灌丛 46
灸 46
煤泥 46
燕山 46
爱国 46
牛肉 46
牧业 46
物化 46
犬@@ 46
犯@@ 46
率达 46
瓜@@ 46
用力 46
病态 46
皂 46
研究区 46
碳酸钙 46
社会性 46
祁@@ 46
离子束 46
秀@@ 46
童@@ 46
第6 46
等待 46
粗蛋白质 46
粘附@@ 46
索桥 46
累及 46
纳米@@ 46
结晶@@ 46
统计@@ 46
缝隙 46
缩放 46
缺陷@@ 46
罗马@@ 46
肌力 46
肺动脉 46
能型 46
脓 46
脱硫@@ 46
致敏 46
苯并 46
莲 46
葡萄酒 46
蓖麻 46
蔽@@ 46
蚕豆 46
表面上 46
解离 46
证法 46
贸易区 46
轮状 46
辅导 46
输血 46
酰亚胺 46
酶法 46
酷 46
重油 46
金属间 46
钻探 46
铸钢 46
阿托@@ 46
雌雄 46
零点 46
需求量 46
静注 46
非晶@@ 46
项@@ 46
风险@@ 46
饥饿 46
馈 46
马鞍@@ 46
-PGF@@ 45
0.11 45
14％ 45
154 45
167 45
194@@ 45
2.3@@ 45
2．5@@ 45
401 45
410@@ 45
5-HT 45
5000 45
59% 45
8m 45
98．@@ 45
99．@@ 45
ACC 45
APP 45
Arc@@ 45
BUN 45
C++@@ 45
CD44@@ 45
CPLD 45
Cr2 45
DX@@ 45
EST 45
FasL 45
Fe_3@@ 45
GH@@ 45
HY@@ 45
J·@@ 45
Kalman 45
LM 45
Lewis 45
Ls 45
MCF-@@ 45
MSC 45
NN 45
Os@@ 45
P16 45
PAI-1 45
Sal@@ 45
So@@ 45
Su@@ 45
Tc 45
Ti-@@ 45
Vi@@ 45
Zn-@@ 45
ca 45
hPa 45
in-@@ 45
ma 45
ng/L 45
ori 45
rDNA 45
so@@ 45
tz@@ 45
℃～@@ 45
下位 45
下用 45
不如 45
东营 45
亢@@ 45
介电常数 45
估价 45
伴生 45
体育课 45
侧壁 45
入睡 45
养殖@@ 45
冷战 45
出液 45
前馈 45
匮乏 45
卡因 45
厂商 45
双边 45
叠合 45
可靠@@ 45
司机 45
合金钢 45
同型 45
同轴 45
后的 45
吞吐@@ 45
启发式 45
吻 45
咪@@ 45
哪些 45
四倍体 45
四元数 45
回用 45
固溶 45
在校 45
坚实 45
基本@@ 45
声纳 45
外伤性 45
外商 45
多年生 45
大厦 45
对接 45
层层 45
屋顶 45
崩塌 45
平整度 45
得不 45
情结 45
截止 45
所得@@ 45
扩建 45
抑制@@ 45
抱@@ 45
拆分 45
拖拉机 45
掠@@ 45
播放 45
施用量 45
无刷 45
时频 45
晒 45
杂波 45
杏@@ 45
极谱 45
概 45
樱@@ 45
正弦波 45
母体 45
毡 45
没@@ 45
油品 45
活动@@ 45
流量计 45
海绵@@ 45
润 45
游客 45
溢出 45
滑脱 45
漏洞 45
演示 45
激性 45
火箭@@ 45
狼疮 45
率高 45
玩@@ 45
珊@@ 45
理由 45
瑞利 45
甘肃省 45
生油 45
略论 45
疫情 45
盐量 45
真丝 45
短跑 45
石家@@ 45
石炭@@ 45
矿物@@ 45
秘@@ 45
稻谷 45
空泡 45
突破@@ 45
精油 45
系膜 45
纺织品 45
绑@@ 45
维吾@@ 45
耳蜗 45
肾癌 45
胫@@ 45
脂多糖 45
脓肿 45
腱@@ 45
膝@@ 45
自从 45
舆论 45
芝 45
营养液 45
蒽@@ 45
薄片 45
表象 45
裁决 45
资源化 45
路桥 45
身心 45
轭@@ 45
载流子 45
载脂蛋白 45
过失 45
过敏性 45
过氧化氢 45
还原@@ 45
远离 45
逼@@ 45
销商 45
镰刀菌 45
长效 45
门脉 45
集聚 45
非手术 45
面貌 45
韦 45
预示 45
颈内 45
骚@@ 45
骨骼 45
魏 45
黑人 45
@@ 45
 45
＇ 45
/d 44
0.0 44
0.18@@ 44
10-3@@ 44
144 44
15d 44
186 44
1984年 44
2.0% 44
3m 44
99％ 44
ADO 44
AFM 44
BALB 44
B_@@ 44
C_2@@ 44
Con@@ 44
Control 44
ERK 44
FU 44
For@@ 44
GST 44
HIV-1 44
HP@@ 44
Java@@ 44
MMA 44
MOSFET 44
NR@@ 44
NaH@@ 44
PMMA 44
PRL 44
P－@@ 44
Ren@@ 44
Richards 44
SIV 44
Sau@@ 44
Ta 44
Tc@@ 44
VCAM-1 44
X线 44
caspase-3 44
ce@@ 44
de 44
he@@ 44
mg/d 44
mm/@@ 44
p38 44
ris 44
sIL 44
str@@ 44
tis 44
{@@ 44
Ⅶ 44
上帝 44
不可逆 44
不育@@ 44
业性 44
严密 44
中段 44
主管 44
乙烷 44
乡土 44
仅有 44
价值论 44
传染病 44
低位 44
体上 44
体裁 44
全自动 44
公认 44
减速器 44
凤@@ 44
出版@@ 44
出院 44
初值 44
初次 44
利人 44
到了 44
刻度 44
削弱 44
加装 44
动能 44
勤 44
午 44
印象 44
厦门 44
发型 44
发明 44
取物 44
口服液 44
可满足 44
右半 44
同构 44
启蒙 44
吸光 44
咀@@ 44
唱 44
啮@@ 44
垄断@@ 44
基础性 44
声子 44
复数 44
外源性 44
大纲 44
大都 44
太湖 44
孕育 44
寄生@@ 44
寒性 44
对光 44
对照@@ 44
对角 44
导员 44
岩质 44
崇拜 44
工艺@@ 44
帆 44
帐@@ 44
常模 44
幼体 44
应变@@ 44
应用层 44
度法 44
廓 44
异度 44
异形 44
弓根 44
意大利 44
戈@@ 44
扇形 44
打滑 44
扫描@@ 44
抑制物 44
抑瘤 44
护坡 44
携带@@ 44
敞@@ 44
数和 44
斑岩 44
施药 44
时延 44
昂@@ 44
有望 44
杂合 44
果皮 44
查找 44
标注 44
格栅 44
桉@@ 44
桥墩 44
检定 44
欺诈 44
止痛 44
水工 44
水道 44
油膜 44
沿革 44
泵站 44
泻@@ 44
洒 44
流程@@ 44
浇 44
测器 44
浏览器 44
润滑@@ 44
淬 44
滇@@ 44
漠化 44
焊丝 44
焊机 44
焙@@ 44
熔池 44
牌@@ 44
率为 44
电阻@@ 44
疏散 44
疹 44
盐析 44
直方图 44
眠@@ 44
短程 44
砂粒 44
碱化 44
礼仪 44
种数 44
穆斯@@ 44
突发性 44
糖皮质 44
纯函数 44
纳税人 44
绝缘@@ 44
缓冲@@ 44
网中 44
罗斯 44
耐受性 44
聚醚 44
胶片 44
膛@@ 44
自动机 44
自行车 44
自转 44
舵 44
营养化 44
裕@@ 44
褪色 44
角形 44
训@@ 44
证候 44
评审 44
诈@@ 44
诉讼@@ 44
请求者 44
贝叶斯 44
走廊 44
路段 44
跳车 44
车载 44
轻质 44
运营商 44
逸@@ 44
遵守 44
酸酐 44
量测 44
钾肥 44
铌@@ 44
铒 44
锋 44
锯切 44
防空 44
阻滞@@ 44
随机性 44
静水 44
靶向 44
韵@@ 44
韵律 44
顺性 44
额外 44
高粱 44
鳞 44
黄疸 44
 44
-10 43
0.05% 43
0.13 43
0.16 43
10.6@@ 43
190@@ 43
1991 43
210@@ 43
4- 43
4V 43
5.3 43
72h 43
802.11 43
96％ 43
ADL 43
ALB 43
B3 43
BM 43
Bam@@ 43
CAS 43
CPB 43
CRF 43
CYP2@@ 43
DMA 43
DOS 43
Da@@ 43
Fenton 43
Fox@@ 43
GC/@@ 43
Gly 43
H.@@ 43
Hamilton 43
HeLa 43
IG@@ 43
MF@@ 43
N3 43
NP@@ 43
NSCLC 43
O5 43
OH@@ 43
Q-@@ 43
RD@@ 43
S=@@ 43
SCC 43
Si3N4 43
SnO2 43
TM@@ 43
TXB2 43
Th1/Th2 43
TiO_3 43
Turbo 43
V2 43
VB@@ 43
WA 43
WBC 43
actin 43
ang@@ 43
ati@@ 43
av@@ 43
ay 43
d-@@ 43
ley 43
ly@@ 43
mg／L@@ 43
mmol/L@@ 43
ou@@ 43
par@@ 43
rs 43
sk@@ 43
tex 43
ut@@ 43
一旦 43
中山 43
中线 43
中西 43
为多 43
为零 43
乎 43
乳胶 43
亏损 43
亿@@ 43
仑@@ 43
代位 43
体式 43
作用力 43
作风 43
保险业 43
兹@@ 43
兽@@ 43
内心 43
冒 43
军用 43
农民工 43
凝汽@@ 43
分压 43
分散性 43
勇@@ 43
协 43
单井 43
单纯性 43
卷积 43
历时 43
压器 43
压路机 43
参考@@ 43
反常 43
口号 43
可信度 43
吩 43
吸气 43
啡肽 43
增殖@@ 43
壁面 43
多晶 43
大白鼠 43
奏@@ 43
套利 43
奴隶 43
好坏 43
孔道 43
孔隙@@ 43
实用@@ 43
容重 43
寺 43
小波@@ 43
尖晶石 43
岩类 43
峡@@ 43
工科 43
巴塞尔 43
平性 43
平方 43
开孔 43
弛豫 43
彼此 43
戏 43
手动 43
托人 43
投篮 43
指示@@ 43
排卵 43
接轨 43
提法 43
搜集 43
播种@@ 43
收缩率 43
政体 43
敏化 43
教育学 43
散发 43
旋风 43
无性 43
智商 43
本土 43
本院 43
杀虫 43
杏仁 43
果胶 43
架设 43
柱头 43
标尺 43
桩身 43
死于 43
死刑 43
毛细@@ 43
气囊 43
氧合酶 43
氩 43
水口 43
江泽民 43
沙丘 43
治安 43
沿岸 43
泊 43
法器 43
法对 43
流态 43
流水 43
流率 43
测深 43
深井 43
清晰度 43
滑雪 43
烘烤 43
热膨胀 43
燥@@ 43
牦@@ 43
玻璃@@ 43
球磨 43
瑟@@ 43
甘 43
瘀 43
白云@@ 43
白酒 43
盆腔 43
盒@@ 43
矮化 43
矽肺 43
研讨 43
硅油 43
磷脂@@ 43
离散@@ 43
私营 43
称之为 43
程控 43
空洞 43
等温@@ 43
管状 43
管路 43
粗面 43
粘合剂 43
紧凑 43
纹状体 43
统计量 43
继发 43
综合症 43
缓存 43
考查 43
联苯 43
股利 43
肢@@ 43
胫 43
胶带 43
脑血管 43
腊@@ 43
自来水 43
舞 43
芒@@ 43
莫 43
萃@@ 43
螺距 43
装修 43
装有 43
褶@@ 43
见光 43
观赏 43
词典 43
调器 43
谋 43
豆粕 43
赣@@ 43
跨文化 43
路堑 43
转位 43
转向架 43
辖 43
辫@@ 43
边形 43
过氧化氢酶 43
过错 43
选矿 43
酵母菌 43
酸钙 43
重写 43
重发 43
釜@@ 43
钢轨 43
钳 43
铁氧体 43
长篇 43
阿片 43
陷阱 43
雨量 43
额定 43
香料 43
高抗 43
鳍 43
黑麦 43
-9 42
0.24@@ 42
10m 42
118@@ 42
2005 42
264 42
30m 42
4A 42
6.1 42
6m 42
8.0@@ 42
AFLP 42
BOD5 42
Bm@@ 42
Bu@@ 42
CTAB 42
Cl4 42
DH@@ 42
E7 42
EE@@ 42
EGFR 42
HPV@@ 42
Ki@@ 42
LB 42
Lagrange 42
Lyapunov 42
MRA 42
MU@@ 42
PRA 42
PW@@ 42
QT 42
Qu@@ 42
S180 42
SAT 42
SBP 42
SOI 42
Stokes 42
TGF 42
TRAIL 42
Tri@@ 42
Yb@@ 42
agent 42
cal@@ 42
coli 42
cr@@ 42
from 42
keV 42
km@@ 42
kt 42
max@@ 42
p27 42
pET@@ 42
phen 42
ra 42
ver@@ 42
Ⅷ 42
亏@@ 42
仲@@ 42
充 42
凌@@ 42
刺槐 42
剩@@ 42
劈@@ 42
勃@@ 42
午@@ 42
咸@@ 42
垢@@ 42
堤防 42
增敏 42
复习 42
大夫 42
大理@@ 42
始于 42
定额 42
寄@@ 42
寒冷 42
山梨@@ 42
帕金森病 42
年龄@@ 42
幼儿园 42
应用@@ 42
弈@@ 42
律的 42
微扰 42
总管 42
悬浮液 42
承压 42
拐@@ 42
捷联 42
提液 42
提物 42
搭配 42
敬@@ 42
数字式 42
整地 42
文献@@ 42
无毒 42
晕@@ 42
晶系 42
木瓜 42
术语 42
权值 42
杠 42
杠杆 42
标准差 42
根瘤菌 42
格列@@ 42
检测仪 42
概念@@ 42
歌曲 42
殖 42
氧分压 42
汞@@ 42
沟道 42
海洛因 42
浸种 42
涌现 42
涨 42
澳 42
澳门 42
炸@@ 42
炼钢 42
烂 42
热电偶 42
熏@@ 42
猛@@ 42
留下 42
畴 42
畸 42
疆 42
白粉病 42
皮质醇 42
皿 42
监测@@ 42
眼底 42
矢状@@ 42
石油@@ 42
矸@@ 42
砾岩 42
磨床 42
禁止 42
积雪@@ 42
窗@@ 42
笼@@ 42
精轧 42
素瘤 42
细砂 42
经营权 42
绝缘子 42
继电 42
绿岩 42
缀 42
罕见 42
罩@@ 42
美观 42
羟色@@ 42
胍 42
脐 42
腐殖@@ 42
腐蚀性 42
腺体 42
自控 42
苔@@ 42
范数 42
莨@@ 42
蚊@@ 42
装卸 42
观照 42
誉@@ 42
谐振@@ 42
赔 42
越大 42
输液 42
过分 42
过速 42
进型 42
迷 42
透平 42
邵@@ 42
鄄 42
酞菁 42
醒@@ 42
钢水 42
锗 42
锗@@ 42
镧 42
镰@@ 42
长春@@ 42
随机@@ 42
集料 42
雌激素 42
青蒿 42
青铜 42
面料 42
靶点 42
音节 42
颈椎病 42
颜料 42
风场 42
风暴 42
风沙 42
驯化 42
驳 42
鲁棒 42
鼻甲 42
0.30 41
0.9999 41
1- 41
10.5@@ 41
1010 41
117 41
148 41
1989 41
202 41
20mm 41
2cm 41
2min 41
3.6@@ 41
4000@@ 41
CHO 41
CPE 41
EPDM 41
FB@@ 41
Fu 41
GAT@@ 41
GaN 41
Hilbert 41
IB 41
INS 41
IPSec 41
KT 41
MMC 41
MRP 41
MTX 41
Mi@@ 41
MoV 41
OSAHS 41
PCB 41
PGE2 41
Smith 41
TCR 41
TLC 41
TSH 41
Win@@ 41
aria 41
ian 41
ry@@ 41
sil@@ 41
sin 41
yl@@ 41
乃 41
仿 41
全球@@ 41
冀@@ 41
妻 41
委 41
姿 41
媒@@ 41
学史 41
恨 41
握@@ 41
撒 41
斥 41
旦 41
旺@@ 41
桐 41
橘 41
欲@@ 41
氡 41
淘@@ 41
溯 41
漱@@ 41
爪 41
狄@@ 41
生存@@ 41
番 41
病原@@ 41
素酶 41
臭@@ 41
芥@@ 41
茧 41
荚 41
蓬 41
蟹@@ 41
赢 41
躯@@ 41
迭@@ 41
遏@@ 41
酱 41
陶 41
霸@@ 41
韩 41
顾 41
颇 41
鲍 41
鹅@@ 41
鹿@@ 41
默 41
--N 40
0.20 40
161 40
169 40
195 40
1min 40
6000 40
7901 40
ARP 40
AZ 40
BU@@ 40
DL@@ 40
Dy 40
E- 40
EF 40
ERK@@ 40
Gl@@ 40
HRP 40
ISP 40
KA 40
NHL 40
NU@@ 40
PAL 40
PaO2 40
RIA 40
SCO@@ 40
SEA 40
SIP 40
SVM 40
Sar@@ 40
Sc@@ 40
TSP 40
TT@@ 40
TiO3 40
UN@@ 40
VRML 40
Ver@@ 40
Vit@@ 40
cd 40
cd@@ 40
cm3 40
gr@@ 40
ing 40
ke@@ 40
log 40
mg.@@ 40
mmol 40
na@@ 40
nm23@@ 40
pl@@ 40
qu@@ 40
sis 40
么 40
乒@@ 40
依赖@@ 40
匀 40
北省 40
叔 40
嗅@@ 40
嗪@@ 40
坏@@ 40
墓 40
多元@@ 40
姑@@ 40
姿@@ 40
嬗@@ 40
尊 40
希 40
干扰@@ 40
弄@@ 40
恰 40
抛 40
掷 40
晓@@ 40
晴@@ 40
智能@@ 40
朴@@ 40
柞@@ 40
柠@@ 40
泪@@ 40
淹 40
添 40
狐 40
珀 40
痂 40
瘟@@ 40
睑 40
碑 40
礁 40
秩 40
篮@@ 40
耶@@ 40
胡 40
苄 40
萜@@ 40
裕 40
遥 40
釜 40
钕 40
钟@@ 40
铌 40
铠@@ 40
锭@@ 40
闻 40
陨@@ 40
雀@@ 40
霜@@ 40
飞行@@ 40
--@@ 39
-6@@ 39
100g 39
106@@ 39
130@@ 39
191 39
2B 39
3A 39
3min 39
480 39
5.4 39
5nm 39
6.8 39
801 39
9.0 39
99m 39
CZ 39
E6 39
FDI 39
FRP 39
G3 39
Glu@@ 39
Hb@@ 39
ICA@@ 39
ICR 39
IGBT 39
KS 39
MRS 39
OV@@ 39
PAN@@ 39
PSA 39
S8@@ 39
SCI 39
SPS 39
Ser@@ 39
TNFα 39
VT 39
WM 39
X1 39
cy@@ 39
ed 39
ick@@ 39
ip 39
iz@@ 39
pi@@ 39
ster 39
survivin 39
≈@@ 39
为本 39
亏 39
倦@@ 39
厨@@ 39
哥@@ 39
啁@@ 39
啾 39
垄 39
垩 39
天然@@ 39
娠@@ 39
容性 39
屑@@ 39
才@@ 39
抄@@ 39
押@@ 39
曝@@ 39
枢@@ 39
档@@ 39
棠 39
椒@@ 39
泻 39
测值 39
溅@@ 39
焓@@ 39
煮@@ 39
痒 39
瘦 39
瘾 39
癸@@ 39
瞳@@ 39
矢 39
穷 39
粹 39
肟 39
胖@@ 39
舒 39
蚴 39
蜘@@ 39
衫 39
钎@@ 39
钥 39
髂 39
鲤@@ 39
0.07 38
0.45 38
0.55 38
0.57 38
128@@ 38
1400 38
162 38
168 38
185 38
187 38
1g 38
3.8 38
310 38
4.2 38
41@@ 38
5.8 38
52@@ 38
99m@@ 38
AML 38
ASI@@ 38
Access 38
Based 38
CNC 38
CODcr 38
DBP 38
FMS 38
Gy@@ 38
H3 38
HDL 38
HM@@ 38
ICE 38
Internet@@ 38
JSP 38
LAS 38
LDPE 38
MCU 38
MIP 38
NH 38
PGE@@ 38
Pl@@ 38
S3C@@ 38
SAP@@ 38
SEP 38
SER@@ 38
SMC 38
SNP 38
SOA 38
SSL 38
Survivin 38
TCD 38
TNF-@@ 38
VSMC 38
WE@@ 38
WHO 38
ae@@ 38
anc@@ 38
based 38
bus 38
dr@@ 38
ga@@ 38
ig 38
lu@@ 38
mon@@ 38
ser@@ 38
Γ@@ 38
β2 38
μm2 38
ξ 38
么@@ 38
乌 38
亚胺 38
仙 38
位素 38
合率 38
坍@@ 38
孪@@ 38
廷 38
御@@ 38
循@@ 38
忌 38
惟@@ 38
枯 38
沫@@ 38
泳@@ 38
测定@@ 38
渴@@ 38
滇 38
激光@@ 38
牵 38
现代@@ 38
玲 38
珀@@ 38
瑕@@ 38
畸@@ 38
盂 38
瞩@@ 38
穷@@ 38
竟 38
粤 38
粳 38
绞痛 38
膦@@ 38
葱 38
请求@@ 38
谓@@ 38
豫 38
贿@@ 38
输送@@ 38
醋@@ 38
顿@@ 38
饼@@ 38
鲍@@ 38
0.06 37
0.95 37
1.9 37
155 37
181 37
1978 37
1980 37
1993 37
206 37
235 37
3O@@ 37
5.2 37
6.5@@ 37
61@@ 37
Ach@@ 37
Amp@@ 37
Ang@@ 37
BMD 37
BNP 37
CBA 37
ConA 37
CsA 37
CuO 37
Delphi 37
Du@@ 37
EE 37
EGFP 37
FBG 37
G418 37
Gr@@ 37
H. 37
HBs 37
HCl@@ 37
HDPE 37
HFC 37
HSC 37
HU@@ 37
His 37
IPTG 37
L3 37
L4 37
LiMn@@ 37
Ms 37
N2O 37
NS@@ 37
OG@@ 37
OSAS 37
PBS 37
PCM 37
PZ@@ 37
Pn 37
R3 37
Rho@@ 37
SIR 37
SMS 37
SaO2 37
Schwar@@ 37
Smad@@ 37
Spd 37
Sy@@ 37
USB@@ 37
YBa@@ 37
ZL 37
ache 37
cadherin 37
ip@@ 37
mp@@ 37
ve 37
yn@@ 37
Ⅹ@@ 37
临界@@ 37
久@@ 37
伊 37
佩@@ 37
冶 37
冶@@ 37
匝@@ 37
唤 37
坪@@ 37
埃 37
奎@@ 37
岗@@ 37
币@@ 37
怠 37
择 37
捻@@ 37
效性 37
朴 37
枢 37
歧 37
涨@@ 37
淋巴@@ 37
疱@@ 37
眶 37
究 37
脓@@ 37
芦 37
苍@@ 37
萃 37
葵 37
虹 37
蚁@@ 37
谓 37
辑@@ 37
钴@@ 37
锆@@ 37
闽 37
饭@@ 37
黎@@ 37
黑龙@@ 37
龈@@ 37
｝ 37
0.33 36
105@@ 36
146 36
160@@ 36
163 36
203 36
220kV 36
225 36
2μm 36
303 36
305 36
316 36
4.3 36
8.3 36
80nm 36
89C52 36
AO 36
ASD 36
ASI 36
Ala 36
BE 36
Blo@@ 36
CAG 36
CTX 36
Dirichlet 36
ECG 36
EH@@ 36
FIR 36
GCS 36
H5 36
HSV 36
Ho 36
Hoc 36
InP 36
Jo@@ 36
K4 36
LAP 36
LT 36
MCA 36
NMDA 36
Net@@ 36
OPC 36
Pen@@ 36
RMS 36
Ry@@ 36
Sand@@ 36
T2@@ 36
TD@@ 36
TUNEL 36
TZ@@ 36
VoIP 36
be@@ 36
ear@@ 36
ers 36
gel 36
hCG 36
lx 36
ly 36
non@@ 36
om 36
ov@@ 36
tg@@ 36
ton@@ 36
ux 36
κ@@ 36
μL 36
μg@@ 36
不同@@ 36
丑@@ 36
事会 36
亲和@@ 36
体育@@ 36
保险@@ 36
卤 36
厘@@ 36
合成@@ 36
吗 36
呤 36
喻 36
嚼 36
坳@@ 36
域性 36
奉@@ 36
妇 36
帮 36
恰@@ 36
悖@@ 36
执 36
挽@@ 36
描 36
杰 36
桔@@ 36
氦 36
泼@@ 36
灰石 36
灼@@ 36
烫 36
焓 36
熏 36
犤 36
真的 36
砧 36
碍@@ 36
膈@@ 36
蛭@@ 36
血吸@@ 36
询 36
谣@@ 36
阈@@ 36
陀@@ 36
际@@ 36
马克@@ 36
鹃 36
-0.5@@ 35
0.17@@ 35
0.32 35
0.50 35
0.85 35
01@@ 35
1.00@@ 35
129 35
140@@ 35
1R 35
2S 35
3.2@@ 35
3.8@@ 35
4.8 35
600MW 35
ALI 35
Asp 35
Aβ@@ 35
BC@@ 35
BF 35
C5 35
Cor@@ 35
CpG 35
DE3 35
DEA 35
Data 35
EDA 35
EGF@@ 35
El@@ 35
F6 35
FGF 35
FT@@ 35
FU@@ 35
HAMD 35
IM 35
ITO 35
KI 35
Kg 35
MK@@ 35
Me 35
NO2 35
O157 35
P300 35
PIC@@ 35
PTFE 35
PZT 35
PaCO2 35
P＜@@ 35
QRS 35
RGB 35
RSS 35
RV@@ 35
Roux 35
Services 35
Sha@@ 35
T5 35
TL 35
UA 35
WCDMA 35
WO@@ 35
Y2 35
cM 35
ella 35
g.@@ 35
ga 35
gi@@ 35
like 35
men@@ 35
mtDNA 35
se 35
system 35
∈ 35
之处 35
乓@@ 35
仰 35
侦@@ 35
冈@@ 35
凉@@ 35
圣 35
垦@@ 35
央@@ 35
头肌 35
币 35
拌 35
掀@@ 35
携 35
撑 35
擦 35
旗@@ 35
柴 35
桶 35
梗@@ 35
浦 35
涎@@ 35
涯 35
溜@@ 35
琴 35
癫@@ 35
窘@@ 35
缠 35
翅 35
胂@@ 35
腺炎 35
芪@@ 35
莉 35
葫@@ 35
薛@@ 35
螟 35
袖@@ 35
襞 35
贲@@ 35
蹈 35
轰 35
递 35
铣 35
-K 34
0.14 34
0.17 34
0.36 34
0.65 34
0.94 34
0.96 34
124@@ 34
149 34
159 34
182 34
192 34
211 34
251 34
2p@@ 34
4.1 34
4.6 34
430 34
6.3 34
7.8 34
950 34
A2@@ 34
ANP 34
AUC 34
Aa 34
BV 34
Blot 34
Cli@@ 34
DMF 34
DVD 34
FS@@ 34
GD@@ 34
HTML 34
Hal@@ 34
ISM 34
Jacob@@ 34
K2O 34
KB 34
KTP 34
LVE@@ 34
MCS 34
MIBI 34
Ob@@ 34
PK 34
SCDMA 34
SCE 34
SIRS 34
SO3 34
SO42 34
SO4@@ 34
SPA 34
Sig@@ 34
Simulink 34
TS@@ 34
Works 34
ZT 34
con@@ 34
cyclin@@ 34
dy@@ 34
fl@@ 34
hr 34
ir 34
ker@@ 34
net 34
pe@@ 34
qd 34
ran@@ 34
ste@@ 34
su@@ 34
tk 34
war@@ 34
ü@@ 34
ζ 34
仲 34
伞 34
但@@ 34
侵 34
入量 34
共和@@ 34
关系@@ 34
关节@@ 34
勘 34
南亚 34
压缩@@ 34
吃 34
哥 34
垄@@ 34
奋@@ 34
奴 34
婴 34
寨 34
弟 34
敲@@ 34
晰 34
枕@@ 34
案@@ 34
桨@@ 34
梵@@ 34
氚 34
渠@@ 34
渤@@ 34
煎 34
燕 34
犁@@ 34
瑚 34
甚 34
畅@@ 34
畏 34
疏 34
祛@@ 34
笑 34
绍@@ 34
网络@@ 34
聘@@ 34
肟@@ 34
脏@@ 34
舟@@ 34
苇 34
茅@@ 34
萎 34
解析@@ 34
趾@@ 34
选择@@ 34
逸 34
酐 34
锅@@ 34
鞣 34
颖@@ 34
﹤@@ 34
0.02@@ 33
0.07@@ 33
0.08@@ 33
0.40 33
0.54 33
0.88 33
112@@ 33
119 33
131@@ 33
178 33
1979 33
198 33
1986 33
20nm 33
3C 33
4.7 33
402 33
420 33
5h 33
6.2 33
72@@ 33
8.1 33
ACTH 33
B6 33
BAC 33
BOD@@ 33
CAE 33
D- 33
DBC 33
DMEM 33
DWI 33
ECM 33
Et@@ 33
Euler 33
FEV1 33
FLA@@ 33
FR@@ 33
FVC 33
Flow 33
H2@@ 33
HIE 33
HMW@@ 33
HRT 33
HU 33
Hi@@ 33
Hind 33
Hy@@ 33
IE 33
IF 33
ISS 33
K2@@ 33
MHC 33
MN@@ 33
MODS 33
McAb 33
Pi@@ 33
Pu@@ 33
RNA@@ 33
RNAi 33
Rh 33
SIS 33
SJ@@ 33
TGA 33
VO4 33
WT 33
af@@ 33
ale 33
ann@@ 33
bach 33
bel 33
ci@@ 33
ji 33
na 33
ot 33
pa 33
pm 33
pre@@ 33
rm@@ 33
ski 33
sl@@ 33
tin@@ 33
Γ 33
Σ 33
ψ@@ 33
⑤ 33
亢 33
冯@@ 33
刮 33
剥 33
喘 33
夯@@ 33
夺@@ 33
学术@@ 33
宙@@ 33
寓 33
巧 33
帐 33
彗@@ 33
恋@@ 33
慎 33
慎@@ 33
拍@@ 33
拜@@ 33
撰@@ 33
昏@@ 33
楔 33
汛@@ 33
涉 33
溅 33
烤 33
犊@@ 33
状体 33
狼 33
理人 33
皖@@ 33
盗@@ 33
眉@@ 33
眩@@ 33
秸 33
纷 33
绪@@ 33
缬@@ 33
罚@@ 33
羁@@ 33
翘@@ 33
聘 33
聚体 33
致病@@ 33
艳@@ 33
芎@@ 33
荔@@ 33
菠@@ 33
蓖@@ 33
蕴@@ 33
衷 33
讨 33
谨@@ 33
钇 33
锶 33
驴 33
鲑@@ 33
& 32
-B@@ 32
0.09 32
0.5mm 32
0.67 32
0.99 32
1250 32
143 32
1983 32
1C 32
2006 32
208 32
216 32
2S@@ 32
302 32
340 32
3S 32
4.2@@ 32
5.1 32
700@@ 32
7402 32
802.@@ 32
AKP 32
ARDS 32
ART 32
ActiveX 32
BALF 32
BO 32
BPRS 32
BW 32
Bac@@ 32
C+@@ 32
CFU 32
CIMS 32
CSF@@ 32
CYP1@@ 32
Cmax 32
D3@@ 32
EPS 32
FDG 32
FL 32
GCr15 32
H5@@ 32
IPC 32
KE 32
LIN@@ 32
LMP@@ 32
Lab@@ 32
LiNbO3 32
MCP 32
MJ 32
Mc@@ 32
NIH3T3 32
NSE 32
OB@@ 32
PTEN 32
Petri 32
RFID 32
ROS 32
RTL 32
SOC 32
Si2 32
TIG 32
TMV 32
TPD 32
TiAl 32
UK 32
ali@@ 32
aro@@ 32
bar 32
cells 32
cin@@ 32
ey 32
fi@@ 32
gen@@ 32
hy@@ 32
ill@@ 32
pET 32
po 32
pr@@ 32
py 32
sen 32
son@@ 32
stein 32
tex@@ 32
var@@ 32
ven@@ 32
μmol 32
〈 32
亡率 32
凉 32
劫@@ 32
叔@@ 32
吴 32
壶 32
妨@@ 32
宿 32
戴@@ 32
摊@@ 32
撕@@ 32
昏 32
晃@@ 32
杏 32
沪 32
狱 32
猜@@ 32
琐 32
生育@@ 32
疲@@ 32
痫@@ 32
盗 32
票@@ 32
窟 32
笋@@ 32
糜 32
缎@@ 32
聋 32
舵@@ 32
茸 32
萜 32
萝@@ 32
蜱 32
袭 32
裸 32
褐 32
貂 32
辖@@ 32
辞 32
钡@@ 32
钱@@ 32
铈@@ 32
阐@@ 32
陡 32
靴 32
骶 32
 32
＃ 32
＞@@ 32
｛ 32
0.06@@ 31
0.22 31
0.79 31
0.87 31
10.0 31
110kV 31
170@@ 31
172 31
2.9@@ 31
261 31
326 31
350@@ 31
3nm 31
80C@@ 31
ABR 31
AH 31
ALOHA 31
AMP@@ 31
BAL@@ 31
BF@@ 31
BI 31
C.@@ 31
Casp@@ 31
CdS 31
Cre@@ 31
D9@@ 31
DV@@ 31
Ds 31
EMS 31
F4 31
GJ@@ 31
GO 31
H2S 31
HO 31
HV 31
Hu 31
IBA@@ 31
Information 31
Inter@@ 31
Ks 31
LVEF 31
Lin@@ 31
Ln 31
MCAO 31
MDV 31
MH 31
NB 31
Na2CO3 31
Or@@ 31
PTT 31
ROM 31
RR@@ 31
RTP 31
Rg1 31
S100 31
S1@@ 31
S4 31
SAA 31
SGC 31
SST@@ 31
She@@ 31
TOC 31
Tn@@ 31
VAS 31
VCR 31
VP1 31
WB 31
WG 31
WIN@@ 31
Win 31
acid 31
ate 31
ax 31
bit 31
blotting 31
cTnI 31
growth 31
ite 31
lin 31
mo 31
pen@@ 31
ric@@ 31
sub@@ 31
ten@@ 31
‰@@ 31
■@@ 31
三角@@ 31
丢@@ 31
乳糖 31
交互@@ 31
兄@@ 31
刊@@ 31
创造@@ 31
劫 31
劳 31
叫 31
咏 31
壑@@ 31
太阳@@ 31
宪@@ 31
帷@@ 31
把@@ 31
放射@@ 31
暂 31
朵 31
桐@@ 31
榨 31
永 31
汰 31
泼 31
浚 31
淀 31
溃 31
滥 31
潘@@ 31
火山@@ 31
琼 31
畲@@ 31
疣 31
疤@@ 31
盾@@ 31
秀 31
粪@@ 31
缆@@ 31
耀@@ 31
肘 31
股骨@@ 31
肯@@ 31
腌@@ 31
腕 31
腭 31
艳 31
蕾 31
请 31
调节@@ 31
贬@@ 31
贺@@ 31
赏@@ 31
逐 31
酪 31
雕 31
霞 31
靠@@ 31
鲤 31
麸@@ 31
,@@ 30
-0.0@@ 30
-12 30
-7 30
0.12@@ 30
0.24 30
0.52 30
0.70 30
0.71 30
0.97 30
1.15 30
1.75 30
365 30
380 30
5.7 30
501 30
560 30
870@@ 30
980@@ 30
A4 30
ARF 30
BGP 30
CFG 30
CeO2 30
CrMn@@ 30
DMSO 30
FCM 30
FP 30
Fas@@ 30
FeO 30
GM@@ 30
GT@@ 30
Graves 30
HCG 30
HER@@ 30
HIF@@ 30
HLA@@ 30
HRV 30
IG 30
Inte@@ 30
L5 30
LacZ 30
Lie 30
Lp 30
MMT 30
Micro@@ 30
Mil@@ 30
Mol@@ 30
Mpa 30
N0 30
Os 30
PA6 30
PAHs 30
PLT 30
PPAR@@ 30
PPO 30
Pc 30
Pc@@ 30
P＜0．@@ 30
R4 30
SBN 30
SCA 30
SDH 30
VXI 30
WWW 30
Windows@@ 30
ZJ@@ 30
ak 30
ant@@ 30
apo@@ 30
are@@ 30
atus 30
be 30
den 30
dl 30
ge@@ 30
ica 30
iv 30
kA 30
ln@@ 30
p21 30
receptor 30
ry 30
shRNA 30
tro@@ 30
yer 30
yl 30
zz@@ 30
“@@ 30
Ⅱ.@@ 30
交换@@ 30
伍@@ 30
分辨@@ 30
剖 30
南省 30
喊 30
噬 30
嵴@@ 30
怨@@ 30
悠@@ 30
懈 30
投资@@ 30
拿@@ 30
挥@@ 30
朋@@ 30
杜 30
气管@@ 30
流变@@ 30
浩@@ 30
淮 30
满意@@ 30
潴@@ 30
炔@@ 30
猩@@ 30
生代 30
甩 30
睾 30
矾 30
祀 30
窝@@ 30
粳@@ 30
糊精 30
羧 30
翠 30
茉@@ 30
菇@@ 30
萧@@ 30
蕴 30
贾@@ 30
赫 30
跖@@ 30
途@@ 30
铋 30
镦@@ 30
鞍 30
驾驶@@ 30
高岭@@ 30
鹤 30
龈 30
0.38 29
0.90 29
10.0@@ 29
1064 29
10h 29
113@@ 29
176 29
1970 29
1h 29
2.7@@ 29
252 29
280@@ 29
2=@@ 29
3B 29
5.6 29
7.1 29
7.6 29
720 29
823 29
A6 29
ADP 29
AIS 29
AT1 29
AVR 29
AX@@ 29
AgNOR 29
Auto@@ 29
BASIC 29
Brow@@ 29
CNTs 29
CTA 29
Cer@@ 29
Cyclin@@ 29
DDS 29
EDI 29
ERCP 29
H2O@@ 29
HACCP 29
HG 29
IGT 29
ITC 29
IUD 29
Ir@@ 29
MAH 29
MDS 29
Mac@@ 29
Mark@@ 29
NDV 29
Network 29
O.@@ 29
OB 29
ODN 29
OM 29
PEN 29
PGF@@ 29
PST@@ 29
Poly@@ 29
Power@@ 29
Super@@ 29
TG@@ 29
TGFβ@@ 29
TNT 29
TPR 29
Tg 29
UASB 29
V1 29
V6 29
VEP 29
VMI 29
ant 29
ber 29
da 29
ge 29
ic 29
ides 29
ki@@ 29
lap 29
of@@ 29
ord@@ 29
pI@@ 29
th 29
ts@@ 29
ula 29
– 29
不足@@ 29
亨@@ 29
兜@@ 29
叭 29
君 29
啉@@ 29
姊@@ 29
姐 29
姓 29
孜@@ 29
宅@@ 29
宪 29
忏@@ 29
忘 29
拆 29
摘 29
栈 29
桦 29
楚 29
榆@@ 29
槲@@ 29
毯 29
汗@@ 29
沪@@ 29
沼 29
浙 29
源岩 29
溪@@ 29
烂@@ 29
烈@@ 29
犁 29
砰@@ 29
硐@@ 29
禅@@ 29
竞争@@ 29
箕@@ 29
糊 29
绩 29
胱@@ 29
脏 29
艘 29
芸@@ 29
萃取@@ 29
薪@@ 29
蘖@@ 29
蚤 29
蝇@@ 29
讯 29
豪@@ 29
贞@@ 29
酱@@ 29
闻@@ 29
阜@@ 29
驼@@ 29
鸿@@ 29
＆@@ 29
0.37 28
0.42 28
0.44 28
0.46 28
0.68 28
174 28
1Cr18Ni9Ti 28
1HNMR 28
2407 28
253 28
2n 28
3.9 28
4000 28
405 28
5- 28
512 28
6G 28
8031 28
91@@ 28
9mm 28
BDNF 28
Bcl 28
CJ@@ 28
CTLA@@ 28
CW 28
CX@@ 28
DNA@@ 28
E3 28
EDS 28
FE 28
FORTRAN 28
Fl@@ 28
Flash 28
Fos 28
GFAP 28
Gln 28
Go@@ 28
IU 28
JB 28
KM 28
Kir@@ 28
Kle@@ 28
LAK 28
LabVIEW 28
Laplace 28
MCs 28
MRCP 28
MSA 28
Mu@@ 28
NAT 28
ODS 28
PAP@@ 28
PCC 28
PEF 28
PER@@ 28
Pu 28
QTd 28
RER 28
RSVP 28
RTI 28
Ric@@ 28
SBA 28
SDS@@ 28
SOAP 28
SPI 28
STD 28
Schiff 28
Sil@@ 28
TiN 28
Ty@@ 28
UG 28
VAR 28
XX 28
ZR 28
alis 28
all 28
ass@@ 28
cal 28
cor@@ 28
end@@ 28
ent 28
inter@@ 28
ket@@ 28
kin 28
lac@@ 28
land 28
mdr1 28
mer 28
non 28
p2 28
ris@@ 28
rom 28
rpm 28
shi@@ 28
statin 28
te 28
tri@@ 28
wa 28
web 28
″@@ 28
♂ 28
件@@ 28
伐@@ 28
凑@@ 28
刈@@ 28
启 28
寸 28
巾 28
律性 28
恢 28
房地@@ 28
抉@@ 28
抹 28
拇@@ 28
挑 28
捆@@ 28
撑@@ 28
杞 28
桦@@ 28
沦@@ 28
泛 28
溯@@ 28
父 28
白鼠 28
睛 28
策 28
簧 28
簧@@ 28
糯@@ 28
绢@@ 28
腱 28
般 28
芳 28
荞@@ 28
萨 28
藓 28
裙 28
詹@@ 28
谜 28
赵@@ 28
踝 28
郭@@ 28
铰 28
锑@@ 28
闷 28
雹 28
飘@@ 28
驳@@ 28
-0.3@@ 27
0.28@@ 27
0.31 27
0.34 27
0.47 27
0.48 27
0.80 27
1.00 27
1.10 27
1600 27
1a 27
2.2@@ 27
238 27
241 27
285 27
3b 27
4.8@@ 27
520 27
5A 27
7.0@@ 27
ANN 27
APS 27
ATA 27
Bur@@ 27
CNS 27
ChE 27
Cp 27
Cry@@ 27
DG 27
DIC 27
EN 27
EPR 27
ESB@@ 27
FSK 27
FeO@@ 27
GL 27
GMP 27
Granger 27
HBc 27
HK 27
Hop@@ 27
IA@@ 27
IDS 27
ISDN 27
LC@@ 27
LMS 27
LPG 27
Land@@ 27
Log@@ 27
Mic@@ 27
NDVI 27
NK@@ 27
Net 27
P4 27
PN@@ 27
PSV 27
Per@@ 27
ROI 27
Rg@@ 27
SAN 27
SCL 27
SCM 27
SIM 27
STAT3 27
Sephadex 27
TPA 27
Time 27
VIP 27
VS@@ 27
Val@@ 27
Ve@@ 27
WP 27
ZY@@ 27
ab 27
art 27
box 27
ech@@ 27
ep@@ 27
field 27
gp@@ 27
ling 27
ps@@ 27
re 27
rel@@ 27
sh 27
syndrome 27
test 27
ther@@ 27
vel@@ 27
x2 27
zier 27
≈ 27
一氧化@@ 27
习 27
乱@@ 27
二烯 27
亩@@ 27
亭 27
伙 27
伞@@ 27
佐@@ 27
励@@ 27
匣 27
吁 27
吃@@ 27
哀@@ 27
哈尔@@ 27
噁@@ 27
基因@@ 27
壬@@ 27
嫌@@ 27
孩 27
巧@@ 27
巫@@ 27
廊 27
廊@@ 27
徒 27
循 27
惩 27
愉@@ 27
憩@@ 27
抢 27
拘@@ 27
挠 27
揉@@ 27
搅@@ 27
放量 27
无线@@ 27
晓 27
最大@@ 27
柚@@ 27
栏@@ 27
栗@@ 27
棚@@ 27
潭 27
狂 27
献 27
瑟 27
疡@@ 27
睐 27
策@@ 27
签名@@ 27
箭 27
箭@@ 27
粘结@@ 27
精确@@ 27
紊@@ 27
绥@@ 27
翡@@ 27
耦 27
胬@@ 27
舒适@@ 27
苎@@ 27
茵 27
蟾@@ 27
蠕 27
褪@@ 27
规范@@ 27
访@@ 27
豌@@ 27
铟 27
锶@@ 27
阅 27
驾@@ 27
骑 27
黎 27
＇@@ 27
＜@@ 27
-1.@@ 26
0.003 26
0.025 26
0.19 26
0.20@@ 26
0.28 26
0.62 26
0.73 26
0.92 26
0.98 26
002 26
1.1@@ 26
10000 26
104@@ 26
10nm 26
184 26
189 26
197 26
1981 26
1982 26
1984 26
20m 26
270@@ 26
2N 26
30s 26
3cm 26
48h 26
750@@ 26
7A 26
8.2 26
9.5 26
ACEI 26
APC 26
ARX 26
Al3 26
Analysis 26
Aro@@ 26
Arrhenius 26
BG 26
CW@@ 26
Cr13 26
DAP 26
DDT 26
DRB@@ 26
DTPA 26
Direc@@ 26
FI 26
Fr@@ 26
Fran@@ 26
Fv 26
Gene@@ 26
H22 26
HGF 26
HMM 26
HZ 26
Ham@@ 26
IQ 26
IgG@@ 26
Ka@@ 26
LS@@ 26
LV 26
LiNb@@ 26
MARC 26
MK 26
Min@@ 26
Ml@@ 26
NM 26
Newton 26
PAS 26
PMN 26
PSD 26
Pb2 26
Ph 26
Py@@ 26
RⅠ 26
SCF 26
SET 26
SG 26
SIL 26
SIT 26
Sel@@ 26
Sim@@ 26
TIA 26
TSF 26
TU@@ 26
Ts 26
UNI@@ 26
VL 26
VM 26
View 26
Wh@@ 26
ap 26
asi@@ 26
ba 26
bps 26
by@@ 26
ck@@ 26
cos@@ 26
day 26
do@@ 26
exp 26
fer 26
ger 26
her 26
hn@@ 26
holm 26
ov 26
s2 26
sa 26
sa@@ 26
sky 26
sum 26
tan 26
tes 26
tree 26
tus 26
up 26
ura 26
ym@@ 26
一般@@ 26
丧@@ 26
买 26
京市 26
俘@@ 26
健 26
内障 26
别是 26
匹 26
匿@@ 26
发率 26
吨@@ 26
呢 26
坑@@ 26
妙 26
寺@@ 26
嵴 26
彻 26
徙 26
忧 26
戒 26
担 26
拨 26
旅 26
暇 26
桁@@ 26
椅@@ 26
橄@@ 26
次性 26
污染@@ 26
汲@@ 26
流行@@ 26
浙@@ 26
犦 26
瘫@@ 26
睑@@ 26
睫@@ 26
糟 26
缕 26
臣 26
芝@@ 26
荆@@ 26
菪@@ 26
葡 26
蒽 26
蓬@@ 26
薇@@ 26
蘑@@ 26
蝠 26
讯@@ 26
请@@ 26
赎 26
赔@@ 26
趣@@ 26
践@@ 26
遇@@ 26
鉴 26
阿 26
隅 26
颞 26
麸 26
｜@@ 26
! 25
-PCR 25
0.21 25
0.23@@ 25
0.27@@ 25
0.41 25
0.59 25
0.82 25
1.06 25
1.50 25
173 25
1800 25
183 25
193 25
1b 25
1cm 25
2.15 25
278 25
289 25
2D@@ 25
2b 25
315 25
400m 25
4m 25
5.8@@ 25
5mg 25
6.4 25
8000 25
863 25
9.1 25
ABB 25
ACA 25
APL 25
ASM 25
BET 25
BS@@ 25
BSP 25
CBN 25
CD40 25
CDFI 25
CU@@ 25
Cob@@ 25
DY 25
ECD 25
EG 25
Fis@@ 25
Fri@@ 25
Green 25
HPAM 25
ISH 25
ISO@@ 25
IST 25
ITP 25
KOH 25
KV 25
Kerr 25
LNG 25
Lang@@ 25
Lep@@ 25
MPR 25
MZ 25
Markov 25
Mode@@ 25
NADPH 25
NBR 25
NDF 25
NI 25
NIDDM 25
O1 25
OVA 25
PACS 25
PLD 25
PLGA 25
PTCA 25
PVP 25
R3@@ 25
RO 25
RPE 25
Rel@@ 25
S4@@ 25
SKOV@@ 25
SNMP 25
Scal@@ 25
St 25
T7 25
TRA@@ 25
UP@@ 25
VP2 25
XP 25
ZnS 25
anti@@ 25
ate@@ 25
az@@ 25
car@@ 25
caspase 25
dB@@ 25
dBm 25
den@@ 25
est@@ 25
ev@@ 25
hTERT 25
hn 25
ice 25
ino@@ 25
ins 25
ip1 25
la 25
lim@@ 25
line 25
ln 25
mar@@ 25
mm3 25
pcDNA3.1 25
pro 25
rRNA 25
rad 25
time 25
un 25
und@@ 25
utterudite 25
Ψ 25
♀ 25
交叉@@ 25
仇 25
佝@@ 25
你 25
兆@@ 25
匈@@ 25
卉 25
否 25
哺@@ 25
坎@@ 25
坞 25
坩@@ 25
奥 25
娜 25
学习@@ 25
孩@@ 25
庸 25
弃@@ 25
怕 25
成熟@@ 25
挛@@ 25
操作@@ 25
曙@@ 25
柑 25
柚 25
栎 25
桉 25
榨@@ 25
歪@@ 25
氖 25
沁 25
泪 25
烦@@ 25
煤灰 25
碍 25
秩@@ 25
籼 25
糖酶 25
糠 25
聋@@ 25
腥 25
芜@@ 25
芹@@ 25
董@@ 25
蒋@@ 25
讽 25
谁 25
贤 25
辰 25
逝 25
逻@@ 25
逼 25
醉@@ 25
闲 25
陌@@ 25
须@@ 25
颇@@ 25
鬼 25
鹑 25
0.26 24
0.39 24
0.69 24
0.83 24
1.02 24
1.52 24
15g 24
1976 24
1988 24
1990@@ 24
213 24
215 24
248 24
262 24
294 24
323 24
375 24
502 24
540 24
620 24
7.3 24
8cm 24
8nm 24
A.@@ 24
APAC@@ 24
ASIC 24
B20 24
BD@@ 24
BPR 24
Bel@@ 24
C80@@ 24
CD11@@ 24
CVI 24
Cauchy 24
Comp@@ 24
CrMo@@ 24
CrNi@@ 24
D4 24
DFT 24
DMP@@ 24
DP@@ 24
Da 24
Del@@ 24
Do@@ 24
FF 24
FIB@@ 24
Fre@@ 24
GLU@@ 24
Galerkin 24
Gle@@ 24
HGV 24
HN 24
HN@@ 24
HNO3 24
HNPCC 24
Had@@ 24
Hsp@@ 24
IBV 24
Ke@@ 24
LY@@ 24
Langmuir 24
MAN@@ 24
MBR 24
MDR 24
MODIS 24
MPEG 24
New@@ 24
Nor@@ 24
Ns 24
P27 24
P2O5 24
PM2.5 24
POM 24
PX 24
Pan@@ 24
Pi 24
QC 24
RB 24
RED 24
RRA 24
Rodrigu@@ 24
SAT@@ 24
SCN 24
SMT 24
Sepharose 24
Shi@@ 24
Sing@@ 24
Soc@@ 24
TBP 24
Un@@ 24
VB6.0 24
WO3 24
Wal@@ 24
Wil@@ 24
XA 24
ZSM@@ 24
a2 24
ane 24
ay@@ 24
catenin 24
cc 24
ces 24
cript 24
cry@@ 24
ide@@ 24
kN 24
lg@@ 24
mAb 24
omp@@ 24
pg/@@ 24
rea 24
run@@ 24
sal@@ 24
sc 24
sinensis 24
uk@@ 24
v6 24
yp@@ 24
ys 24
一致@@ 24
亦@@ 24
侏@@ 24
僵 24
厄@@ 24
呋@@ 24
咬 24
咯 24
哪@@ 24
喹 24
坍 24
姬@@ 24
孵 24
宇 24
宏 24
崇 24
崩 24
幔 24
幻 24
忍 24
怨 24
愤@@ 24
掉@@ 24
援 24
敏性 24
敦@@ 24
沈 24
沧@@ 24
测试@@ 24
涅@@ 24
淀粉@@ 24
溜 24
澄@@ 24
爪@@ 24
牲@@ 24
癜 24
碾@@ 24
稚@@ 24
窜@@ 24
笛@@ 24
羔@@ 24
耻@@ 24
肛 24
肱 24
胨 24
舷@@ 24
芩@@ 24
荒 24
荣 24
莴@@ 24
蒲@@ 24
薇 24
蚂@@ 24
蚓 24
蛹@@ 24
论是 24
辈 24
锦 24
陈 24
鹤@@ 24
龋 24
@@ 24
＊@@ 24
0.43 23
0.49 23
0.84 23
0.91 23
1.20 23
1.5T 23
2h 23
3.7@@ 23
307 23
356 23
506 23
89C2051 23
990@@ 23
AAS 23
ACK 23
AGC 23
ASE 23
Ann@@ 23
Apri@@ 23
Arnold 23
Arnoldi 23
B3@@ 23
BI@@ 23
BOD 23
BOM 23
BPH 23
BaO 23
Balb 23
CAR 23
CD62@@ 23
CNT@@ 23
COOH 23
COX 23
Cox 23
Cycl@@ 23
DCP 23
DMC 23
DVB 23
DW 23
ENSO 23
EO@@ 23
EPA 23
EV@@ 23
Flu@@ 23
GCV 23
GVHD 23
H2SO4 23
H9@@ 23
HIV@@ 23
HRC 23
His@@ 23
Hor@@ 23
KC 23
Ko@@ 23
Lon@@ 23
Lr@@ 23
MAB 23
MDP 23
MSM 23
N4 23
NPC 23
NY@@ 23
Open 23
Oracle 23
P450 23
PAS@@ 23
Put 23
QAM 23
QI 23
QU@@ 23
RBS 23
RIS@@ 23
RON 23
Rayleigh 23
Riccati 23
S5@@ 23
SAD 23
SAPS 23
SEB 23
SIMU@@ 23
SNR 23
SST 23
STS 23
Sv 23
TCA 23
TMP 23
TRIPS 23
Taylor 23
V3 23
VFP 23
VLSI 23
Val 23
Volterra 23
Wilson 23
aceae 23
ato 23
cad 23
d1 23
era 23
nu@@ 23
ock 23
ore@@ 23
oro@@ 23
rad@@ 23
rig@@ 23
sp 23
und 23
vWF 23
ver 23
wa@@ 23
–@@ 23
Ⅸ 23
侗@@ 23
侣 23
兽 23
刍@@ 23
剃@@ 23
努@@ 23
受性 23
叹 23
吗@@ 23
哀 23
喃 23
嘱 23
囱 23
圃 23
寰@@ 23
崖 23
式化 23
彼@@ 23
怒 23
手术@@ 23
拳 23
捐@@ 23
撞@@ 23
昭@@ 23
柄@@ 23
桡 23
榈 23
槛 23
死率 23
湍@@ 23
漠 23
漫 23
烹@@ 23
牢 23
猎 23
疟 23
疱 23
痤@@ 23
相似@@ 23
矾@@ 23
社会@@ 23
禺 23
窖@@ 23
窨@@ 23
箔@@ 23
粟@@ 23
缅@@ 23
缴 23
羌@@ 23
腺素 23
苔 23
蓟@@ 23
虑 23
蚀剂 23
裙@@ 23
褪 23
讽@@ 23
证券@@ 23
谊 23
贪@@ 23
踏 23
运会 23
钣@@ 23
阳性@@ 23
雀 23
韶@@ 23
鲵 23
鳖 23
鸦@@ 23
0.0001 22
0.002 22
0.09@@ 22
0.23 22
0.56 22
0.60 22
0.63 22
0.66 22
0.76 22
0.78 22
1.05 22
1.12 22
1200@@ 22
2.9 22
212 22
218 22
223 22
258 22
306 22
390 22
4.9 22
4C 22
6.7 22
640 22
6R 22
761 22
9.6 22
ADHD 22
APX 22
ARI@@ 22
ASC 22
ASH 22
ASS 22
Am 22
BJ@@ 22
BOT 22
Bal@@ 22
Ben@@ 22
CBR 22
CMS 22
CPA 22
D7@@ 22
FB 22
Fm 22
GFR 22
GG 22
GU@@ 22
Gol@@ 22
H4@@ 22
HSP@@ 22
ISR 22
J2ME 22
JAVA 22
KDP 22
KL 22
Ka 22
LOH 22
Language 22
Lip@@ 22
MAT@@ 22
MDR1 22
MEBO 22
MTS 22
MVC 22
NC@@ 22
NW 22
Navi@@ 22
NiO 22
OL@@ 22
OX@@ 22
PCBs 22
PMA 22
PRE@@ 22
PTA 22
Plus 22
Poisson 22
RBP 22
RL 22
RPC 22
Riem@@ 22
SANS 22
SCR 22
SEC 22
SPR 22
SSD 22
Sin@@ 22
Syn@@ 22
TEA 22
TRI@@ 22
V2O5 22
VH 22
Wi@@ 22
X3 22
XY@@ 22
YB@@ 22
YSZ 22
ZY 22
Ze@@ 22
angiotensin 22
ao@@ 22
caspase@@ 22
chinensis 22
col@@ 22
cus 22
don 22
dor@@ 22
eller 22
exin 22
for@@ 22
hi@@ 22
icus 22
ie 22
ier 22
im 22
ku 22
len 22
li 22
mJ 22
model 22
off 22
osa 22
pc@@ 22
red@@ 22
sec 22
sel@@ 22
thi@@ 22
thus 22
tre@@ 22
ware 22
ζ@@ 22
χ2 22
ψ 22
不动@@ 22
储集@@ 22
冀 22
券 22
叛 22
叛@@ 22
咳 22
咳@@ 22
嘧@@ 22
奠@@ 22
岁@@ 22
帽@@ 22
役@@ 22
徽@@ 22
忆@@ 22
怠@@ 22
拗@@ 22
拢 22
拦 22
提供@@ 22
揭 22
敏感@@ 22
敢 22
新生@@ 22
旦@@ 22
晨@@ 22
柯 22
橇@@ 22
涩 22
淆 22
漠@@ 22
濮 22
燃烧@@ 22
疙@@ 22
痢@@ 22
瘩 22
碟@@ 22
筘@@ 22
箍 22
粕@@ 22
粤@@ 22
绑 22
胂 22
胍@@ 22
腋 22
芘 22
藕 22
虽@@ 22
蛔@@ 22
蛤@@ 22
蜍 22
蝮@@ 22
褥@@ 22
觅@@ 22
谬 22
账 22
赂 22
蹄 22
躁@@ 22
邦@@ 22
钌 22
锅 22
阱@@ 22
靖@@ 22
鞅 22
颂 22
髁 22
鳝 22
 22
-11 21
0.004 21
0.51 21
0.77 21
0.81 21
12m 21
16S 21
1949 21
1S 21
25mm 21
275 21
3O4 21
6.9 21
6μm 21
80C196KC 21
ADI 21
AGE@@ 21
ARCH 21
ASK 21
AVHRR 21
AZ@@ 21
Aspergillus 21
B5 21
Bor@@ 21
Bragg 21
Bu 21
C12 21
CCK 21
CGI 21
Cal@@ 21
DCs 21
EM@@ 21
EST@@ 21
English 21
Gu@@ 21
HUVEC 21
IDA 21
KF 21
KY 21
Kutta 21
Lac@@ 21
MES 21
MRP@@ 21
Mat@@ 21
NPY 21
Ni4@@ 21
Ox@@ 21
PAA 21
PBT 21
PHC 21
Pub@@ 21
RCC 21
RM@@ 21
RTD 21
Runge 21
SACT 21
SCP 21
SLA 21
SMMC 21
SPM 21
Sal 21
San@@ 21
Shan@@ 21
Sub@@ 21
TJ@@ 21
TK@@ 21
TW@@ 21
TY 21
TY@@ 21
Ten@@ 21
Tl 21
Trans@@ 21
UP 21
UR 21
V.@@ 21
VEC 21
VF 21
Wiener 21
YBCO 21
ann 21
ash 21
atin 21
bone 21
bur@@ 21
chi 21
ci 21
ct@@ 21
eff@@ 21
eta 21
ey@@ 21
fe@@ 21
fuzzy 21
gB 21
gw@@ 21
hoc 21
hr@@ 21
icol@@ 21
itter 21
ko 21
lis@@ 21
ne 21
ner@@ 21
nia 21
ole@@ 21
ordon 21
orum 21
pU@@ 21
poly 21
rCBF 21
rin 21
rs@@ 21
ser 21
偻@@ 21
兑@@ 21
函@@ 21
务员 21
厢 21
厦@@ 21
叹@@ 21
呐 21
呐@@ 21
啡 21
喃@@ 21
囚@@ 21
坠@@ 21
埚 21
嫁 21
孝@@ 21
岐@@ 21
帜 21
廉 21
开放@@ 21
彻@@ 21
恢@@ 21
惊 21
惩@@ 21
抹@@ 21
挣@@ 21
掠 21
摸 21
撕 21
晒@@ 21
檗@@ 21
歇 21
毗@@ 21
毫 21
沾@@ 21
活性@@ 21
洼 21
混凝@@ 21
焙 21
珍 21
琴@@ 21
瘙@@ 21
矽@@ 21
空区 21
窥 21
糯 21
纶@@ 21
缚@@ 21
缠@@ 21
翠@@ 21
耸 21
肇@@ 21
脒 21
航天@@ 21
艾 21
芥 21
茜@@ 21
荧@@ 21
荫 21
莉@@ 21
萍 21
蒜@@ 21
蝎@@ 21
襟@@ 21
谔 21
赞 21
辆 21
辗@@ 21
过滤@@ 21
郎@@ 21
酬@@ 21
钝 21
铋@@ 21
频器 21
骗@@ 21
鹌@@ 21
鹭 21
0.64 20
0.74 20
0.93 20
1.21 20
1.5m 20
10mg 20
12.5 20
15.4 20
2g 20
3.75 20
4.4 20
40Cr 20
4h 20
960 20
A1@@ 20
AAV 20
AFS 20
ALD 20
ANA 20
ARV 20
ASCO@@ 20
Active 20
Ari@@ 20
Arthro@@ 20
B7 20
BAS@@ 20
Black 20
CBP 20
CEC 20
CFRP 20
CRC 20
CRT 20
CaM 20
Cys 20
DES 20
DOP 20
DSM 20
EBV 20
EIA 20
EIS 20
EPQ 20
ERG 20
FCC 20
FFA 20
FH 20
Fa@@ 20
FeB 20
Fo@@ 20
GPC 20
Gi@@ 20
Glo@@ 20
Gri@@ 20
HBO 20
HG@@ 20
HIS 20
H_2O@@ 20
Hf 20
ICAM 20
IMS 20
Ir 20
Jur@@ 20
Ker@@ 20
Lam@@ 20
Lys 20
MAX@@ 20
MCC 20
MNC 20
Mal@@ 20
NCEP 20
NPK 20
Op@@ 20
PIV 20
PW 20
Pm 20
Point 20
QR 20
RC@@ 20
RCS 20
RES 20
RJ@@ 20
RL@@ 20
Rn 20
SAF 20
SCID 20
SPWM 20
SSTR@@ 20
Scholes 20
Serv@@ 20
Sigma 20
TACE 20
TCC 20
THF 20
TIMP 20
TPN 20
UR@@ 20
Vol@@ 20
WLAN 20
WUE 20
age 20
alon 20
ance 20
art@@ 20
bec@@ 20
ble 20
br@@ 20
do 20
dy 20
gal 20
hard@@ 20
ili@@ 20
inger 20
ith 20
ium 20
ket 20
kinase 20
lat@@ 20
mid@@ 20
mod@@ 20
mut@@ 20
one@@ 20
ons 20
oph@@ 20
ort 20
osi@@ 20
pc 20
poly@@ 20
py@@ 20
ray 20
rella 20
sTNF@@ 20
sat 20
server 20
t1 20
ten 20
thel 20
tic 20
tion 20
tran 20
tu@@ 20
type 20
ν 20
丢 20
乃@@ 20
乾@@ 20
亥 20
伟 20
佐 20
侠 20
倦 20
偷@@ 20
凋 20
函 20
利福@@ 20
单纯@@ 20
卜@@ 20
厥 20
多年@@ 20
对比@@ 20
尤 20
展性 20
岔@@ 20
彰@@ 20
忽@@ 20
扯@@ 20
拖 20
摄像@@ 20
收缩@@ 20
杭 20
水平@@ 20
渝 20
漳@@ 20
澳@@ 20
烦 20
焰 20
爬 20
甄@@ 20
甩@@ 20
疮@@ 20
病学 20
百分@@ 20
皮质@@ 20
盏 20
石坝 20
砌 20
碰 20
碲@@ 20
秤 20
稚 20
稠 20
箍@@ 20
絮@@ 20
经营@@ 20
绵 20
缴@@ 20
羔 20
翰@@ 20
聊@@ 20
腮@@ 20
腻 20
舟 20
芋@@ 20
苓 20
茄 20
蒎@@ 20
蒲 20
蓉 20
蔬 20
蚯@@ 20
蛤 20
衔@@ 20
贞 20
赌 20
赝@@ 20
辱@@ 20
辽 20
邯@@ 20
酰胺@@ 20
镓 20
隘 20
饭 20
鳃@@ 20
麓 20
﹑ 20
0.00 19
0.86 19
1H@@ 19
2.00 19
311 19
321 19
470 19
549 19
8.8 19
8h 19
920 19
ANSY@@ 19
ARM@@ 19
ASO 19
ASO@@ 19
AY 19
Alb 19
App@@ 19
B3LY@@ 19
BEL@@ 19
BH 19
Bl@@ 19
Bol@@ 19
Cap@@ 19
DLL 19
Dirac 19
Dis@@ 19
E. 19
EMG 19
EO 19
EPC 19
FCS 19
GI 19
GW 19
Gz 19
Han@@ 19
Hyper@@ 19
IMO 19
Kan@@ 19
Kar@@ 19
LOD 19
LT@@ 19
MATLA@@ 19
MBO 19
MnR 19
OL 19
Object 19
PER 19
PMC 19
Protocol 19
Ps@@ 19
RIM 19
Rich@@ 19
Rub@@ 19
SIE 19
SIMS 19
Ser 19
SiO 19
Simp@@ 19
Sw@@ 19
THP 19
TRAP 19
Tak@@ 19
Tra@@ 19
Tur@@ 19
T法 19
UT 19
Vs 19
XT 19
Zig@@ 19
able 19
bel@@ 19
bon@@ 19
bu@@ 19
cen@@ 19
cer@@ 19
chi@@ 19
co 19
cul@@ 19
del@@ 19
ds@@ 19
ero 19
fMRI 19
fion 19
go@@ 19
ham 19
hu@@ 19
ks 19
mail 19
mite 19
multi@@ 19
ni 19
oS 19
ow 19
pt@@ 19
pylori 19
rag@@ 19
sP 19
sativa 19
sm 19
tera 19
ti 19
umann 19
zer 19
}@@ 19
Λ@@ 19
‖@@ 19
≠ 19
④@@ 19
傅@@ 19
劝@@ 19
匿 19
坊 19
坳 19
垩@@ 19
垮@@ 19
夷 19
姚@@ 19
姻@@ 19
娱@@ 19
孙 19
尬 19
尴@@ 19
悔@@ 19
悲 19
慈@@ 19
懂 19
招 19
掩 19
旷@@ 19
栋 19
槐@@ 19
檬 19
氚@@ 19
汾@@ 19
淫@@ 19
渊 19
湮@@ 19
灵敏@@ 19
然性 19
熄@@ 19
熊 19
狗@@ 19
狩@@ 19
生根@@ 19
甫 19
畴@@ 19
痪 19
癎 19
盟@@ 19
眦 19
窃@@ 19
竭@@ 19
肯 19
胛@@ 19
脯 19
芒 19
茸@@ 19
荡@@ 19
荨@@ 19
蛱@@ 19
蝗 19
蝽 19
裨@@ 19
辟 19
酵母@@ 19
酿 19
醌@@ 19
钵 19
铑 19
铯@@ 19
镗@@ 19
阑 19
阑@@ 19
雏 19
鸽 19
0.15@@ 18
0.29 18
1.03 18
1.17 18
11.5 18
13.5 18
1950 18
1980@@ 18
1mg 18
214 18
30nm 18
3Al 18
5kg 18
6J 18
6h 18
8.4 18
9.2 18
ACL 18
Arte@@ 18
Author@@ 18
Bra@@ 18
Bre@@ 18
Bri@@ 18
CAPM 18
COP 18
COR@@ 18
Cat@@ 18
Chi@@ 18
Com@@ 18
Cx@@ 18
DSL 18
Diff@@ 18
E.@@ 18
EDF 18
ELL 18
Ep 18
Et 18
FTA 18
Fur@@ 18
GCA 18
GN@@ 18
Gauss 18
HQ 18
Hela 18
Ja@@ 18
Ku@@ 18
LAN 18
LREE 18
Len@@ 18
MAN 18
Med@@ 18
Mel@@ 18
Mn2 18
NAD@@ 18
NSC@@ 18
Notes 18
ORF 18
On 18
PAR@@ 18
Pet@@ 18
Phy@@ 18
RAN@@ 18
S7 18
SAM 18
SCH@@ 18
SNPs 18
Sat@@ 18
Security 18
Single 18
TER@@ 18
The 18
Tm 18
Top@@ 18
US@@ 18
Va@@ 18
Vis 18
Vo@@ 18
Weibull 18
Wo@@ 18
XY 18
\ 18
ain 18
ang 18
anger 18
ation 18
att@@ 18
ben@@ 18
cho@@ 18
cu@@ 18
ds 18
em 18
fab@@ 18
flow 18
fs 18
fu@@ 18
gar 18
ich@@ 18
isco 18
kel 18
ki 18
lip@@ 18
logistic 18
mA@@ 18
mat@@ 18
md@@ 18
mer@@ 18
mus 18
nm23 18
od 18
ok@@ 18
omin@@ 18
ong 18
ort@@ 18
out 18
oxy@@ 18
rus@@ 18
sICAM 18
stem 18
tis@@ 18
ue 18
uro@@ 18
we@@ 18
ween@@ 18
zo@@ 18
Λ 18
μA 18
Ⅷ@@ 18
⑥ 18
□ 18
● 18
予@@ 18
供应@@ 18
傣@@ 18
允 18
兑 18
删@@ 18
前列@@ 18
劈 18
匠 18
卓 18
厉 18
叫@@ 18
咏@@ 18
咸 18
堪@@ 18
奈 18
密码@@ 18
寸@@ 18
屡@@ 18
帝@@ 18
彝@@ 18
忘@@ 18
恨@@ 18
悦 18
扮@@ 18
抑郁@@ 18
拳@@ 18
拾@@ 18
挺 18
摒@@ 18
撬@@ 18
收敛@@ 18
映 18
晶石 18
木质@@ 18
栀@@ 18
榜@@ 18
沂@@ 18
渊@@ 18
爵@@ 18
玻 18
监 18
砼@@ 18
祈@@ 18
祥@@ 18
禀@@ 18
秆@@ 18
秽 18
穹@@ 18
窿 18
粒重 18
粘剂 18
绷@@ 18
综 18
菪 18
菱 18
蕊 18
蚌 18
蛎 18
蝗@@ 18
袢 18
谏 18
谟 18
贡@@ 18
赶@@ 18
辋 18
辣 18
逮@@ 18
邢@@ 18
酐@@ 18
量计 18
钐 18
铭@@ 18
隧@@ 18
颁@@ 18
骚 18
鳃 18
鳖@@ 18
麦草 18
鼠肝 18
＂ 18
0.16@@ 17
0.58 17
0.61 17
0.72 17
1.28 17
1.85 17
100m 17
17.5 17
1D 17
2a 17
410 17
4He 17
7.9 17
9.8 17
AMP 17
AMS 17
AV 17
AsA 17
BZ 17
Bacillus 17
Bet@@ 17
Bio@@ 17
Brown 17
COL@@ 17
COX@@ 17
Cen@@ 17
Che@@ 17
Chl 17
ECC 17
EV 17
FF@@ 17
FLU@@ 17
Fs 17
GY 17
Gre@@ 17
HPO 17
Huang 17
KO@@ 17
LI 17
Leu 17
M-1 17
MIC@@ 17
McAb@@ 17
Mer@@ 17
Mini@@ 17
Mot@@ 17
Mul@@ 17
NCE@@ 17
Open@@ 17
Po 17
Pres@@ 17
QOL 17
QS 17
RQ 17
RZ 17
Radon 17
Roberts 17
SSP 17
Sac@@ 17
Str@@ 17
Stu@@ 17
T2DM 17
TOF 17
Ter@@ 17
Tu@@ 17
UF 17
VO 17
XRF 17
ZG@@ 17
ZL@@ 17
aly@@ 17
amp@@ 17
ani 17
anodine 17
appa 17
bert 17
bid 17
cTn@@ 17
cat 17
coccus 17
cy 17
dm 17
dtex 17
ectin 17
ence 17
ene 17
ep 17
est 17
eu@@ 17
gu@@ 17
hol@@ 17
ida 17
ini@@ 17
io@@ 17
ita 17
jun 17
kJ 17
kit 17
lar@@ 17
las@@ 17
lg 17
low 17
met 17
ms@@ 17
net@@ 17
og 17
ok 17
ones 17
ore 17
phy@@ 17
pol@@ 17
rac@@ 17
rin@@ 17
sil 17
sn@@ 17
stra 17
stro@@ 17
ur 17
v.@@ 17
vin 17
xi@@ 17
к 17
∧@@ 17
∩@@ 17
俭 17
偃 17
冈 17
册@@ 17
厢@@ 17
叙 17
叩@@ 17
吕@@ 17
哌 17
哚@@ 17
哲 17
困 17
垒@@ 17
垛 17
培养@@ 17
堕@@ 17
妹@@ 17
嫁@@ 17
寂 17
屿 17
岷@@ 17
峪 17
幸 17
幺@@ 17
惠 17
憩 17
扳@@ 17
折射@@ 17
拷@@ 17
敢@@ 17
暨 17
栎@@ 17
沦 17
泮 17
海市 17
灼 17
烘 17
珩@@ 17
疆@@ 17
疯@@ 17
痣 17
痫 17
癜@@ 17
瞳 17
碧@@ 17
祸 17
稽 17
穆@@ 17
竣@@ 17
笛 17
篇@@ 17
缫@@ 17
胡萝@@ 17
腾 17
菀 17
葛 17
蓣 17
谨 17
赠 17
蹬@@ 17
近于 17
迥@@ 17
邪@@ 17
鄄@@ 17
酞 17
钮 17
铊 17
零售@@ 17
颊@@ 17
食管@@ 17
驰@@ 17
鬼@@ 17
鲐@@ 17
鲫 17
鸽@@ 17
鹬 17
鼎@@ 17
0.27 16
1,@@ 16
1.58 16
10.1 16
14.5 16
2H 16
2L 16
3-N 16
3N 16
3T3 16
3h 16
4H 16
4T 16
5.9 16
5g 16
6g 16
89C@@ 16
ACT@@ 16
Alzheimer 16
Anti@@ 16
Asn 16
BIO@@ 16
CIN@@ 16
Char@@ 16
Con 16
DOM 16
DRB1 16
Delph@@ 16
Delta 16
Digital 16
Distributed 16
Em@@ 16
Ep@@ 16
HM 16
Hen@@ 16
Hil@@ 16
Jac@@ 16
Km 16
LAI 16
Man 16
Map 16
Max@@ 16
Method 16
No.@@ 16
On@@ 16
Oryza 16
PY@@ 16
Ram@@ 16
Rhiz@@ 16
Rol@@ 16
Rough 16
SINS 16
STI@@ 16
Seph@@ 16
Singer 16
Tor@@ 16
Tre@@ 16
UL@@ 16
Up@@ 16
VER 16
Wit@@ 16
aa 16
age@@ 16
ai@@ 16
amin@@ 16
apl@@ 16
are 16
ast@@ 16
atum 16
ble@@ 16
bs 16
can@@ 16
ck 16
com@@ 16
ct 16
cyclin 16
des@@ 16
don@@ 16
enti@@ 16
ever@@ 16
fer@@ 16
filter 16
form@@ 16
g. 16
gh@@ 16
ici@@ 16
ics 16
index 16
inf@@ 16
iss@@ 16
iton 16
ity@@ 16
nes@@ 16
och@@ 16
opo@@ 16
oxide 16
pac@@ 16
pt 16
rhG 16
sy@@ 16
tid 16
trans@@ 16
ty 16
vin@@ 16
ype 16
ν@@ 16
χ@@ 16
∪@@ 16
佣 16
侯@@ 16
僚 16
凿 16
制造@@ 16
券@@ 16
匙 16
吖@@ 16
哑@@ 16
嘉 16
嘴@@ 16
坚 16
城市@@ 16
契 16
实际@@ 16
寄 16
尘器 16
尿管 16
岳@@ 16
忙 16
性化 16
悟@@ 16
悬浮@@ 16
掏@@ 16
掖@@ 16
撼 16
敦 16
斥@@ 16
曳 16
朊 16
柜@@ 16
柠檬@@ 16
标志@@ 16
椿 16
楂 16
榄 16
橼@@ 16
殿 16
添加@@ 16
湘 16
猎@@ 16
琅@@ 16
琼@@ 16
瑶@@ 16
璀@@ 16
瓢@@ 16
疵@@ 16
痘 16
皖 16
眉 16
睫 16
瞻 16
秃@@ 16
秉@@ 16
窖 16
立性 16
竞 16
篡@@ 16
绉 16
绣@@ 16
罕@@ 16
翔 16
耀 16
胝@@ 16
胼@@ 16
膈 16
艹@@ 16
芎 16
苋@@ 16
苣 16
茵@@ 16
蒜 16
蓟 16
蔫 16
蔻 16
蝴@@ 16
蟑@@ 16
诞@@ 16
谚@@ 16
谬@@ 16
贤@@ 16
逊@@ 16
遭 16
邑 16
钕@@ 16
钪 16
钽@@ 16
镶 16
阁 16
陕 16
除率 16
靖 16
颜@@ 16
馆@@ 16
魂 16
鲨@@ 16
鹰@@ 16
 16
？ 16
1500@@ 15
15mm 15
1960 15
317 15
8.9 15
ALS 15
Aβ 15
B3LYP 15
BCG 15
Ban@@ 15
Bas@@ 15
CD40L 15
CH3@@ 15
CIS 15
Can@@ 15
Citrus 15
DG@@ 15
Dawley 15
Den@@ 15
E.coli 15
Ec@@ 15
Engine@@ 15
FEM 15
Fast 15
Fusarium 15
Group 15
Hall 15
Hel@@ 15
Hill 15
Hs 15
INTER@@ 15
IOL 15
Ile 15
MAL@@ 15
MAR@@ 15
MCM 15
MIN@@ 15
Mas@@ 15
No 15
P. 15
PAI@@ 15
Pal@@ 15
Pol@@ 15
Poly 15
Power 15
Pri@@ 15
RFP 15
Real@@ 15
Rober@@ 15
Rose 15
Rus@@ 15
SCS 15
SHS 15
SIG@@ 15
SPC 15
Scho@@ 15
Sprague 15
Sti@@ 15
TCM 15
Vector 15
WF 15
Walker 15
ai 15
amine 15
ases 15
asp@@ 15
bac@@ 15
bin@@ 15
bl@@ 15
cel@@ 15
chain 15
cri@@ 15
di 15
dis 15
disease 15
dium 15
dom@@ 15
ery 15
fo@@ 15
folia 15
ford 15
hi 15
ick 15
ide 15
ino 15
ist 15
ject@@ 15
leu@@ 15
mend@@ 15
mp 15
neo 15
ome 15
ong@@ 15
ose 15
osp@@ 15
over 15
pi 15
pin@@ 15
red 15
rh 15
rib@@ 15
right 15
risk 15
san@@ 15
sar@@ 15
sen@@ 15
sia 15
ted 15
tilis 15
ting 15
tor 15
tt 15
up@@ 15
wal@@ 15
works 15
yi 15
Π 15
υ 15
― 15
侨 15
僧@@ 15
嗅 15
噬@@ 15
复杂@@ 15
奋 15
娘 15
尝@@ 15
峨@@ 15
幽@@ 15
庆市 15
庐@@ 15
庸@@ 15
弄 15
徊 15
徘@@ 15
悄@@ 15
慰 15
憎@@ 15
戊 15
成年@@ 15
抖@@ 15
抵 15
拮抗@@ 15
挟 15
挥发@@ 15
捣@@ 15
措 15
搐 15
昆 15
曾@@ 15
桅@@ 15
械 15
楞@@ 15
欣@@ 15
毂 15
氘@@ 15
氡@@ 15
汝@@ 15
活率 15
洽 15
漩@@ 15
濮@@ 15
电图 15
畏@@ 15
疽@@ 15
癣@@ 15
督 15
矸 15
砧@@ 15
硕 15
碑@@ 15
稽@@ 15
窥@@ 15
筹 15
精神@@ 15
纺织@@ 15
绸@@ 15
翁 15
肃@@ 15
脸 15
芹 15
茭@@ 15
著作@@ 15
蔑@@ 15
藕@@ 15
蛾@@ 15
螂 15
蠊 15
衍 15
袁@@ 15
襄@@ 15
讼 15
试者 15
谣 15
贡 15
贷@@ 15
赎@@ 15
进性 15
遍 15
遗 15
邀@@ 15
金刚@@ 15
钍 15
钚 15
铕 15
间盘 15
颗@@ 15
骆@@ 15
鲫@@ 15
麝@@ 15
 15
1.33 14
11.0 14
1970@@ 14
6.6 14
AgNO@@ 14
Auto 14
Ax@@ 14
BT@@ 14
Bank 14
Bec@@ 14
Bro@@ 14
CON@@ 14
CPC 14
Cad@@ 14
Cell 14
Chen 14
Clin@@ 14
DU@@ 14
Des@@ 14
ENT 14
Electronic 14
Enterprise 14
FWHM 14
G6@@ 14
Gam@@ 14
Gib@@ 14
Gin@@ 14
Gly@@ 14
Gra@@ 14
HBe@@ 14
HEC 14
Index 14
Inf@@ 14
Is@@ 14
J2@@ 14
KH 14
LAD 14
Mag@@ 14
Met 14
Mis@@ 14
Mos@@ 14
Nash 14
PBMCs 14
Pase 14
Process 14
RNAs 14
Ran@@ 14
Red 14
SAL 14
SFET 14
Sam@@ 14
Schro@@ 14
Sephade@@ 14
Span 14
Sun 14
TIC 14
Thomas 14
Tric@@ 14
UPS 14
VR@@ 14
Word 14
a1 14
acc@@ 14
ace@@ 14
ade 14
ain@@ 14
anus 14
aph@@ 14
ath 14
ative 14
au 14
bi 14
ce 14
chus 14
con 14
cot@@ 14
ea 14
ech 14
eg@@ 14
ele@@ 14
ess 14
eto@@ 14
gers 14
her@@ 14
ill 14
injury 14
japon@@ 14
kes 14
kinson 14
lan@@ 14
les 14
lic@@ 14
lus 14
mac@@ 14
mas@@ 14
ming 14
oni@@ 14
ophy@@ 14
ost 14
oth 14
our@@ 14
ram@@ 14
rhIL 14
sat@@ 14
sequence 14
she@@ 14
strap 14
the@@ 14
top@@ 14
ull 14
val@@ 14
versi@@ 14
worth 14
é 14
о@@ 14
Ⅰ.@@ 14
Ⅹ 14
丈@@ 14
伍 14
关键@@ 14
匝 14
厕@@ 14
吞 14
吾 14
咨@@ 14
哪 14
唯 14
啤@@ 14
喻@@ 14
堰@@ 14
塞尔 14
墟 14
好地 14
寂@@ 14
峰期 14
巷@@ 14
帕 14
庐 14
彭@@ 14
心脏@@ 14
急性@@ 14
拐 14
挪@@ 14
捍@@ 14
数字@@ 14
於 14
昂 14
札@@ 14
栉@@ 14
楦 14
榫@@ 14
正确@@ 14
殊 14
氙@@ 14
汰@@ 14
沥@@ 14
泸@@ 14
洽@@ 14
涎 14
渔 14
炒 14
炔 14
炬 14
烙@@ 14
热炉 14
獭@@ 14
璨 14
疸@@ 14
皇 14
砒@@ 14
秸@@ 14
稿@@ 14
窜 14
筏 14
羚@@ 14
羞@@ 14
胁@@ 14
膀胱@@ 14
苁@@ 14
苇@@ 14
茚@@ 14
荟 14
莺@@ 14
菖@@ 14
葱@@ 14
蔓 14
蔡@@ 14
蕾@@ 14
薹 14
藉@@ 14
蚤@@ 14
蚴@@ 14
蜀 14
蜀@@ 14
蝎 14
计数@@ 14
诞 14
谦@@ 14
谭@@ 14
遏 14
邪 14
钍@@ 14
钓 14
陇@@ 14
隧 14
雉 14
需求@@ 14
霞@@ 14
颊 14
颧@@ 14
驯@@ 14
鲷 14
鸻@@ 14
龟 14
［@@ 14
11.2 13
11.4 13
12.1 13
231 13
2F 13
2mg 13
2s 13
3g 13
7.7 13
8.6 13
8.7 13
9.7 13
All@@ 13
Aph@@ 13
Audi@@ 13
Av@@ 13
Brassica 13
CAL@@ 13
CAO 13
CMM 13
Detection 13
FBS 13
FRA@@ 13
Gal 13
Gamma 13
Gar@@ 13
Gray 13
I.@@ 13
IDE 13
IO 13
Lan@@ 13
Learning 13
Loren@@ 13
M.@@ 13
MCF 13
MEM 13
MODE@@ 13
Mach@@ 13
Maxwell 13
MnO 13
Mort@@ 13
Multiple 13
Nic@@ 13
OF@@ 13
Pac@@ 13
Pas@@ 13
Pat@@ 13
Phili@@ 13
Ple@@ 13
Pot@@ 13
Prote@@ 13
Prun@@ 13
Px 13
Quality 13
RST 13
Rad@@ 13
Red@@ 13
Risk 13
Robo@@ 13
SHG 13
SIC 13
SIMP@@ 13
SQ 13
STE@@ 13
Sec@@ 13
Sher@@ 13
Sph@@ 13
Star@@ 13
Sur@@ 13
Test 13
Transform 13
Ven@@ 13
War@@ 13
Water@@ 13
YS 13
ada 13
ager 13
ank 13
ated 13
awa 13
bar@@ 13
bro@@ 13
can 13
dg@@ 13
dic@@ 13
din 13
dro@@ 13
ena 13
ens 13
ense 13
ert 13
ex 13
factor@@ 13
gent 13
hen@@ 13
ies 13
japonica 13
king 13
ky 13
lam@@ 13
lex 13
lit@@ 13
ller 13
ney 13
oma 13
ord 13
ous 13
phen@@ 13
polymerase 13
por@@ 13
rank 13
ret@@ 13
ro 13
row@@ 13
sch 13
sing 13
single@@ 13
so 13
sp.@@ 13
sys 13
tac@@ 13
tan@@ 13
tii 13
va 13
view 13
vis 13
von 13
xin 13
Ψ@@ 13
ξ@@ 13
∝@@ 13
≡@@ 13
⑴ 13
丑 13
乙酸@@ 13
人工@@ 13
侠@@ 13
侯 13
倡@@ 13
凤 13
刨 13
劲@@ 13
劳动@@ 13
匣@@ 13
召 13
吡 13
哒@@ 13
嗓@@ 13
嘎@@ 13
回转@@ 13
埕@@ 13
堑 13
填埋@@ 13
娩@@ 13
宠@@ 13
宰 13
尔曼 13
尸 13
弗 13
怎@@ 13
怪@@ 13
惜 13
戳 13
拜 13
拭@@ 13
挫 13
捞@@ 13
掷@@ 13
搞 13
斩 13
断裂@@ 13
期性 13
柿@@ 13
栲@@ 13
桁 13
欣 13
殿@@ 13
汊@@ 13
汪@@ 13
汾 13
泗@@ 13
涕 13
涝@@ 13
滥@@ 13
潍@@ 13
灿@@ 13
炽@@ 13
焰@@ 13
煌@@ 13
瑰@@ 13
痔@@ 13
痢 13
矽 13
砜@@ 13
碇 13
碲 13
礁@@ 13
窍 13
簿 13
籍@@ 13
糕 13
绩@@ 13
缀@@ 13
缪@@ 13
耐药@@ 13
耙@@ 13
胡萝卜@@ 13
能性 13
脸@@ 13
腥@@ 13
苋 13
苑 13
茂 13
莎 13
萝 13
葵@@ 13
蔗 13
蕨 13
藉 13
蘖 13
虐 13
蚪 13
蛀@@ 13
蜱@@ 13
蝌@@ 13
谜@@ 13
谢 13
豁@@ 13
豇@@ 13
貌@@ 13
躁 13
轼 13
辐 13
辑 13
鄱@@ 13
钌@@ 13
铟@@ 13
铯 13
陀 13
雁@@ 13
饵@@ 13
驭 13
骸 13
鲈@@ 13
鲟 13
鳅 13
鳍@@ 13
鳗@@ 13
＃@@ 13
10.8 12
1B 12
@@@ 12
AND 12
ATS 12
Artemisia 12
Blu@@ 12
CY 12
Cas@@ 12
Computer 12
Cr18Ni9Ti 12
Cr18Ni@@ 12
Cur@@ 12
Dat@@ 12
Domain 12
Doppler 12
Dun@@ 12
Dynamic 12
Es 12
Ethernet 12
FORM 12
Fin@@ 12
GV@@ 12
Gaus@@ 12
Hydro@@ 12
Key 12
Lotus 12
MAO 12
Master 12
Mun@@ 12
Mus@@ 12
Not@@ 12
Office 12
Phot@@ 12
Pic@@ 12
Project 12
Pseudomonas 12
Rab@@ 12
Res@@ 12
Reynolds 12
Sab@@ 12
Sem@@ 12
Sie@@ 12
Slo@@ 12
Strep@@ 12
TUN@@ 12
Tol@@ 12
Tw@@ 12
UT@@ 12
Ur@@ 12
VER@@ 12
VIS 12
VIT@@ 12
Vir@@ 12
Virtual 12
Window@@ 12
Wol@@ 12
ack 12
aeus 12
ag 12
analysis 12
assi@@ 12
ating 12
bacter 12
bank 12
bre@@ 12
bus@@ 12
cap@@ 12
cell@@ 12
cere@@ 12
cin 12
dR 12
del 12
dia 12
down 12
dyn@@ 12
eck 12
ela 12
eng@@ 12
ens@@ 12
fera 12
fu 12
gene 12
gg@@ 12
gh 12
gy@@ 12
hel@@ 12
hop 12
ht 12
idae 12
ist@@ 12
ju@@ 12
ken 12
led@@ 12
los@@ 12
low@@ 12
lum 12
mark 12
mia 12
mt@@ 12
nuclear 12
oli@@ 12
ome@@ 12
oth@@ 12
per 12
pin 12
pri@@ 12
rate 12
rn@@ 12
roti@@ 12
si 12
t. 12
tell@@ 12
tion@@ 12
try@@ 12
ul 12
ular 12
ure 12
ure@@ 12
va@@ 12
var 12
vid 12
wh@@ 12
wit@@ 12
with 12
xy@@ 12
ya 12
к@@ 12
―@@ 12
”@@ 12
Ⅶ@@ 12
⑦ 12
仕@@ 12
伙@@ 12
允@@ 12
凭 12
刁@@ 12
制器 12
勃 12
募 12
匠@@ 12
半胱@@ 12
卑 12
卑@@ 12
卿 12
合格@@ 12
吾@@ 12
呆@@ 12
哇@@ 12
哨 12
唾@@ 12
嘲@@ 12
噻 12
圩@@ 12
坞@@ 12
壅@@ 12
奉 12
妙@@ 12
妻@@ 12
姓@@ 12
屡 12
屯 12
岳 12
幢 12
庇@@ 12
弊@@ 12
徐 12
徒@@ 12
怪 12
恼 12
悉@@ 12
悖 12
感染@@ 12
慈 12
慑 12
扶 12
披 12
拮 12
挺@@ 12
换器 12
摔@@ 12
敛@@ 12
敬 12
昼@@ 12
晴 12
权人 12
杓@@ 12
杷 12
枇@@ 12
槭@@ 12
檀@@ 12
殷@@ 12
汕 12
淄@@ 12
溞 12
潭@@ 12
灸@@ 12
焉@@ 12
爽 12
爽@@ 12
牺@@ 12
猫@@ 12
疝@@ 12
疥@@ 12
癫 12
碗 12
突出@@ 12
笑@@ 12
签 12
糟@@ 12
結@@ 12
纫 12
罂@@ 12
罢@@ 12
署@@ 12
罹@@ 12
羯@@ 12
翔@@ 12
肃 12
自动@@ 12
茬@@ 12
萼@@ 12
落叶@@ 12
蔓@@ 12
蕃 12
螟@@ 12
诵 12
财 12
贸@@ 12
贻@@ 12
贿 12
赊@@ 12
赘 12
赶 12
跖 12
辙 12
遣@@ 12
邓@@ 12
郯@@ 12
镦 12
闹 12
雍@@ 12
雹@@ 12
霍 12
项式 12
颂@@ 12
颚@@ 12
鹰 12
鼾@@ 12
 12
 12
 12
］@@ 12
4a 11
50mm 11
667@@ 11
8g 11
ASB 11
Aci@@ 11
Algorithm 11
Archi@@ 11
Art 11
Bon@@ 11
Buil@@ 11
Bul@@ 11
Bus 11
CAM-1 11
CER@@ 11
CIP@@ 11
Card 11
Caspase 11
Chin@@ 11
Ci@@ 11
Clu@@ 11
DOF 11
Design 11
Dou@@ 11
Dra@@ 11
Fro@@ 11
G4@@ 11
Gaussian 11
Gel 11
Grid 11
HBs@@ 11
Hamiltonian 11
Hardy 11
Hun@@ 11
IM@@ 11
Image 11
Infrastructure 11
Kil@@ 11
LAN@@ 11
Lab 11
Lag@@ 11
MSE 11
MY@@ 11
Mass@@ 11
Mg2 11
Mobile 11
NAT@@ 11
Nit@@ 11
Non@@ 11
Objects 11
PDGF 11
Pin@@ 11
Pit@@ 11
Plas@@ 11
Port@@ 11
Product 11
Protein 11
ROP 11
RY@@ 11
Richard 11
Roc@@ 11
Rom@@ 11
SCs 11
SOR 11
SPECT@@ 11
SZ 11
Science 11
Sco@@ 11
Set 11
Si3@@ 11
Stro@@ 11
Support 11
TES 11
Technology 11
Tru@@ 11
Virus 11
WO 11
Willi@@ 11
aca 11
anum 11
ari 11
artery 11
ass 11
aster 11
bri@@ 11
care 11
com 11
control 11
ded 11
dh@@ 11
enc@@ 11
ero@@ 11
essel 11
fac@@ 11
fol@@ 11
fr@@ 11
free 11
gn@@ 11
gon@@ 11
group 11
ings 11
ji@@ 11
ked 11
kel@@ 11
lip 11
lis 11
lock 11
ls 11
mdr@@ 11
me 11
mel@@ 11
men 11
mic@@ 11
ora 11
ous@@ 11
pe 11
pul@@ 11
rer 11
reticul@@ 11
ric 11
ring@@ 11
row 11
sati@@ 11
sion@@ 11
sti@@ 11
tab@@ 11
tanol 11
tt@@ 11
ty@@ 11
uck 11
ug 11
ush 11
ut 11
vil@@ 11
vis@@ 11
way 11
we 11
xy 11
ye@@ 11
yst@@ 11
а@@ 11
…@@ 11
∧ 11
∫@@ 11
○@@ 11
「 11
」 11
井液 11
伟@@ 11
儒 11
凯 11
募@@ 11
叭@@ 11
合于 11
合法@@ 11
吩@@ 11
咔@@ 11
哑 11
哨@@ 11
啰@@ 11
喙@@ 11
喧@@ 11
垭 11
妄@@ 11
姬 11
娃 11
婉@@ 11
孜 11
寡 11
崖@@ 11
嵩@@ 11
恐 11
恙@@ 11
惨@@ 11
扑 11
抄 11
披@@ 11
括 11
捣 11
揉 11
搓@@ 11
搞@@ 11
搬 11
携@@ 11
收益@@ 11
昔 11
来水 11
枞@@ 11
枳@@ 11
柽@@ 11
棵 11
楞 11
樊@@ 11
毡@@ 11
沫 11
泳 11
湄@@ 11
湛@@ 11
激发@@ 11
猖@@ 11
獗 11
琐@@ 11
疣@@ 11
瞄 11
祥 11
秒@@ 11
篱 11
绉@@ 11
绣 11
绦@@ 11
耆 11
耙 11
胭@@ 11
腓 11
腔镜 11
艇@@ 11
芘@@ 11
芨@@ 11
茯@@ 11
荀@@ 11
荆 11
菁 11
菝@@ 11
蔬@@ 11
藿 11
虑@@ 11
蛙@@ 11
蛮 11
蝰@@ 11
衷@@ 11
谪 11
贺 11
赣 11
踪 11
辱 11
逝@@ 11
逢 11
遣 11
郎 11
郑 11
酞@@ 11
钆@@ 11
钇@@ 11
钎 11
钓@@ 11
钢丝@@ 11
钦 11
铍 11
镓@@ 11
门冬 11
隋@@ 11
颏@@ 11
饶 11
驾 11
骄@@ 11
魄 11
鲁棒@@ 11
鲈 11
鳗 11
鹭@@ 11
 11
 11
@@ 11
$ 10
10.5 10
13.3 10
20.0 10
ACE@@ 10
Agen@@ 10
Altern@@ 10
An 10
Angle 10
Architecture 10
Area 10
BER 10
Blue 10
Business 10
But@@ 10
CAL 10
CCP 10
CON 10
CRE@@ 10
Candida 10
Chang 10
Child 10
Dar@@ 10
Database 10
De 10
Dev@@ 10
Dom@@ 10
Dur@@ 10
Ed@@ 10
Est@@ 10
Exchange 10
Fab@@ 10
Fer@@ 10
Foc@@ 10
Fol@@ 10
Ful@@ 10
Geo@@ 10
Ger@@ 10
Gs 10
HRR 10
HY 10
High 10
Hur@@ 10
INA 10
ISE 10
LER 10
LES 10
Light@@ 10
MAGE 10
MOR@@ 10
Men@@ 10
Mesh 10
Mod@@ 10
Mt 10
Navier 10
Neu@@ 10
Node 10
Nu@@ 10
O. 10
OO@@ 10
Oc@@ 10
Ori@@ 10
Pear@@ 10
Por@@ 10
P＞@@ 10
RAP@@ 10
Rational 10
Real 10
Research 10
Ring 10
SAW 10
SIMPLE 10
STAT@@ 10
Scan 10
Schem@@ 10
Series 10
Sl@@ 10
Son@@ 10
Sou@@ 10
Spe@@ 10
Spec@@ 10
Sul@@ 10
TRAN 10
Tal@@ 10
Tex@@ 10
Theory 10
Tim@@ 10
Tom@@ 10
acia 10
acr@@ 10
aff@@ 10
ane@@ 10
ani@@ 10
aris 10
ark 10
arum 10
associated 10
ast 10
ato@@ 10
basic 10
bes@@ 10
bla@@ 10
bo 10
bol@@ 10
cel 10
cerebral 10
char@@ 10
cher 10
cle@@ 10
coli@@ 10
ding 10
dri@@ 10
du@@ 10
ect@@ 10
ecti@@ 10
ee 10
enz@@ 10
ez@@ 10
fa@@ 10
fe 10
fi 10
flora 10
ft 10
gar@@ 10
gen 10
gly@@ 10
go 10
gon 10
har@@ 10
i.@@ 10
ial 10
ichia 10
icum 10
ile 10
illium 10
inde@@ 10
ini 10
int 10
inus 10
ish@@ 10
iste@@ 10
ius 10
kappa 10
lie 10
liver 10
lla 10
mal@@ 10
mean 10
mi 10
mid 10
mu 10
mul@@ 10
nap@@ 10
network 10
nmol 10
ogen@@ 10
old 10
omy@@ 10
op 10
ope 10
oper@@ 10
ospor@@ 10
ota 10
ough 10
out@@ 10
over@@ 10
oxi@@ 10
pGEX 10
pec@@ 10
phosphate 10
port 10
pu@@ 10
pus 10
que 10
real@@ 10
reperfusion 10
rus 10
scan 10
service 10
short 10
single 10
sit@@ 10
smooth 10
ss 10
tandem 10
tol@@ 10
tran@@ 10
tumor 10
type@@ 10
ult 10
ung 10
ust 10
vul@@ 10
ww@@ 10
xi 10
ycin 10
ze@@ 10
zyme 10
á@@ 10
è@@ 10
Ρ 10
Ф@@ 10
‖ 10
Ⅵ@@ 10
∨@@ 10
⊕@@ 10
乔 10
些@@ 10
亭@@ 10
俭@@ 10
倚@@ 10
傍@@ 10
入式 10
凶@@ 10
厄 10
厦 10
咀 10
圭 10
坤 10
坨 10
埔 10
塬@@ 10
夕@@ 10
太平@@ 10
奔@@ 10
奸@@ 10
姑 10
娘@@ 10
媲@@ 10
孝 10
宙 10
宫颈@@ 10
寨@@ 10
屯@@ 10
峭 10
庙@@ 10
府@@ 10
弛 10
徽 10
恕 10
惕 10
慨 10
慰@@ 10
懂@@ 10
拭 10
捏@@ 10
撰 10
敞 10
斐@@ 10
方程@@ 10
朔@@ 10
枚@@ 10
核糖@@ 10
桌 10
桌@@ 10
桶@@ 10
榀 10
槐 10
檀 10
歼@@ 10
汊 10
沱@@ 10
涤 10
淇@@ 10
漱 10
澜 10
澜@@ 10
炒@@ 10
烬 10
焚@@ 10
片机 10
狮 10
玄 10
电偶 10
甸@@ 10
痂@@ 10
痔 10
痴 10
瘿@@ 10
癣 10
睁@@ 10
睾@@ 10
瞬 10
砻@@ 10
硕@@ 10
碧 10
碴 10
祝 10
祭 10
禀 10
秭@@ 10
稗@@ 10
立足@@ 10
簿@@ 10
粟 10
纂 10
纠 10
绅@@ 10
脑脊@@ 10
腑 10
腻@@ 10
膘@@ 10
芍@@ 10
芩 10
茭 10
茴@@ 10
葜 10
蕈 10
薰@@ 10
蚌@@ 10
蚧 10
蜻@@ 10
蝉 10
褒@@ 10
诋@@ 10
详 10
贸易@@ 10
赘@@ 10
遂@@ 10
遴@@ 10
邹@@ 10
郸 10
酥@@ 10
醉 10
钦@@ 10
霸 10
靴@@ 10
鞅@@ 10
页@@ 10
鱿@@ 10
鲶@@ 10
鳄 10
鸥 10
黛@@ 10
鼩@@ 10
鼱 10
 10
11.3 9
2. 9
20mg 9
562 9
ACT 9
Application 9
Arn@@ 9
Association 9
BLO@@ 9
Bat@@ 9
Bit 9
Box 9
COP@@ 9
Cam@@ 9
Channel 9
Cho@@ 9
Client 9
Common 9
Core 9
DYNA@@ 9
Dr@@ 9
Engine 9
FW@@ 9
Fiber 9
First 9
GAS 9
HMW 9
IEE@@ 9
INT 9
Ju@@ 9
LID 9
Las@@ 9
Lis@@ 9
Long@@ 9
Lot@@ 9
Lu 9
Mathemati@@ 9
Mit@@ 9
Mu 9
NTS 9
PES 9
PGE 9
Pan 9
Public 9
Random 9
Resource 9
Rog@@ 9
Ron@@ 9
Run@@ 9
SAN@@ 9
SIL@@ 9
Scale 9
Scat@@ 9
Shop 9
Simul@@ 9
Software 9
TER 9
Trac@@ 9
Uni@@ 9
Vis@@ 9
Wind@@ 9
Wor@@ 9
Work@@ 9
ZE 9
ach 9
act@@ 9
ade@@ 9
alb@@ 9
allo@@ 9
als 9
amer 9
ames 9
ami 9
ans@@ 9
antigen 9
arc 9
arg@@ 9
artan 9
ary 9
base 9
bin 9
bor@@ 9
chard 9
cis 9
cit@@ 9
core 9
coronary 9
cycl@@ 9
din@@ 9
dis@@ 9
dit 9
dynamic 9
egg@@ 9
ei@@ 9
ener 9
estiv@@ 9
ether 9
fibroblast 9
fic@@ 9
fin@@ 9
gin@@ 9
gran@@ 9
hex@@ 9
hon@@ 9
idi@@ 9
ign@@ 9
ik@@ 9
iller 9
iv@@ 9
key 9
lar 9
leg@@ 9
lium 9
ll 9
mPa 9
ment 9
mes 9
methyl@@ 9
micro@@ 9
mor@@ 9
mos@@ 9
necrosis 9
ness 9
niger 9
nit@@ 9
oe 9
olin 9
onas 9
onia 9
orium 9
osco@@ 9
osen 9
ox 9
p. 9
pas@@ 9
ph 9
pof@@ 9
pressure 9
rang@@ 9
ras@@ 9
reaction 9
reg@@ 9
rein@@ 9
repeat 9
requ@@ 9
rol 9
ros@@ 9
rose 9
rot@@ 9
sbauer 9
scale 9
sco@@ 9
set 9
sig@@ 9
situ 9
skin 9
specific 9
sted 9
stol@@ 9
stri@@ 9
su 9
sw@@ 9
synthase 9
tax@@ 9
teri@@ 9
tica 9
tine 9
tive 9
tra@@ 9
tting 9
tur@@ 9
vic@@ 9
weight 9
wi@@ 9
yr 9
za 9
zi@@ 9
zy@@ 9
е@@ 9
и@@ 9
∥ 9
乞@@ 9
亥@@ 9
仇@@ 9
们@@ 9
僧 9
冯 9
凌 9
刈 9
剔@@ 9
升机 9
却@@ 9
厕 9
吲@@ 9
啸@@ 9
圾@@ 9
垛@@ 9
垣 9
堇@@ 9
塔里@@ 9
墒 9
壶@@ 9
夕 9
奢@@ 9
姐@@ 9
娜@@ 9
娼 9
婆@@ 9
婴@@ 9
崎 9
嵊@@ 9
帅 9
弘@@ 9
後 9
忠 9
慌 9
慧@@ 9
戌 9
扒@@ 9
承载@@ 9
挛 9
挝 9
揽 9
搽@@ 9
摧@@ 9
斋@@ 9
斛 9
旨@@ 9
昼 9
显著@@ 9
曳@@ 9
曹 9
朔 9
柿 9
桧@@ 9
楂@@ 9
楝@@ 9
榄@@ 9
榕@@ 9
橐@@ 9
氙 9
汛 9
沧 9
洒@@ 9
浒@@ 9
渝@@ 9
潼@@ 9
瀑@@ 9
炬@@ 9
烫@@ 9
燥 9
犀@@ 9
狠 9
琳 9
畔 9
疽 9
痹@@ 9
盔 9
磨性 9
私权 9
窃 9
筏@@ 9
筝@@ 9
篦@@ 9
紫外@@ 9
纤溶@@ 9
绪 9
绸 9
缢@@ 9
羚 9
翘 9
肚 9
舷 9
芍 9
芙@@ 9
苞 9
荫@@ 9
莰@@ 9
薪 9
藜 9
虐@@ 9
蜓@@ 9
螅 9
袢@@ 9
裹 9
诵@@ 9
谑@@ 9
谴@@ 9
豚 9
贾 9
赈@@ 9
赦@@ 9
赴 9
赵 9
越性 9
跌 9
跗@@ 9
跤 9
转向@@ 9
辙@@ 9
逍@@ 9
逾 9
邃 9
酵@@ 9
醪 9
钞 9
钥@@ 9
钵@@ 9
钽 9
铕@@ 9
镭@@ 9
颁 9
飘 9
饪 9
驼 9
骤 9
魁@@ 9
鲉 9
鲢@@ 9
鹃@@ 9
鼢@@ 9
﹥ 9
；@@ 9
0.999 8
1s 8
2O5 8
3,@@ 8
4,@@ 8
50nm 8
ACH 8
AGE 8
APPL@@ 8
ARE 8
ATE 8
Air 8
Ang 8
Apple 8
Automatic 8
Back@@ 8
Bayesian 8
Bond 8
Bs 8
CD34 8
CES 8
Chinese 8
Chip 8
Ci 8
Color 8
Controller 8
Cop@@ 8
Cri@@ 8
Cul@@ 8
Dec@@ 8
Disease 8
Duc@@ 8
ERK1 8
ERS 8
Environment 8
Equ@@ 8
Euclidean 8
F. 8
Fen@@ 8
Flo@@ 8
GEN@@ 8
Gel@@ 8
Graph@@ 8
Guo 8
Hi 8
Hig@@ 8
Hom@@ 8
Hospital 8
Human 8
ITE 8
Im@@ 8
Imag@@ 8
Integrated 8
Knowledge 8
LINE 8
Love 8
MAG@@ 8
MIB@@ 8
Mechanical 8
Medic@@ 8
Networks 8
New 8
Nucle@@ 8
One 8
Orac@@ 8
Phen@@ 8
Portal 8
Pos@@ 8
Provi@@ 8
RMB 8
Reg@@ 8
Rhe@@ 8
Rit@@ 8
Roll 8
SHO@@ 8
SIN 8
Salic@@ 8
Sav@@ 8
See@@ 8
Show 8
Silicon 8
Simulation 8
Sit@@ 8
Sta@@ 8
Star 8
Stra@@ 8
Syste@@ 8
TEN 8
TRAN@@ 8
TiB 8
Unit 8
Video 8
Wang 8
White 8
Wire 8
Wu 8
Xi 8
ZA@@ 8
ack@@ 8
active 8
ago 8
ame 8
amen@@ 8
amo@@ 8
angio@@ 8
apunov 8
aten@@ 8
auer 8
band 8
bas@@ 8
bia 8
bil@@ 8
blo@@ 8
book 8
camp@@ 8
cep@@ 8
che 8
ching 8
chip 8
cn@@ 8
codon 8
cyto@@ 8
data 8
dii 8
dimer 8
dn 8
domain 8
dre@@ 8
ek 8
ere@@ 8
eti@@ 8
ette 8
eus 8
ew 8
ew@@ 8
fec@@ 8
fil@@ 8
form 8
gas 8
ger@@ 8
gin 8
gra@@ 8
hen 8
high@@ 8
human 8
ice@@ 8
igh@@ 8
iler 8
inia 8
integral 8
ion@@ 8
ister 8
istic 8
izer 8
kn@@ 8
lap@@ 8
lay 8
led 8
len@@ 8
llo@@ 8
memory 8
method 8
mini@@ 8
mon 8
multiple 8
nan 8
nitric 8
no 8
nor@@ 8
ny 8
offic@@ 8
oid 8
olus 8
ory@@ 8
ose@@ 8
osin 8
oss 8
osum 8
oxin 8
pcDNA3 8
phase 8
phosph@@ 8
pic@@ 8
plus 8
qui@@ 8
rafts 8
range 8
ri 8
roc@@ 8
ron 8
rug@@ 8
rum 8
sac@@ 8
sap@@ 8
sb@@ 8
scle@@ 8
score 8
sec@@ 8
set@@ 8
shop 8
speed 8
spir@@ 8
syn@@ 8
talis 8
thor@@ 8
tig@@ 8
tina 8
tom@@ 8
tomy@@ 8
top 8
tor@@ 8
tra 8
tw@@ 8
ua 8
uan@@ 8
uron 8
vi 8
western 8
windows 8
wor@@ 8
yal 8
ys@@ 8
υ@@ 8
‘@@ 8
⊥ 8
⑵ 8
□@@ 8
♀@@ 8
並 8
仕 8
伤性 8
佃@@ 8
体论 8
倚 8
先天@@ 8
其是 8
冕@@ 8
冗@@ 8
刹@@ 8
动车 8
勺@@ 8
匍@@ 8
吧 8
咱 8
哮@@ 8
喋@@ 8
址@@ 8
坏血酸 8
坷 8
垃@@ 8
埂 8
夷@@ 8
妈@@ 8
姻 8
娱 8
孚 8
寥@@ 8
寰 8
对性 8
尝 8
届@@ 8
峙 8
巡 8
廿@@ 8
怖@@ 8
恺 8
惧@@ 8
惨 8
愁 8
愚@@ 8
愤 8
愿者 8
拣 8
拧@@ 8
拮@@ 8
捧 8
捩 8
揽@@ 8
搓 8
搔@@ 8
搭 8
撤 8
攀 8
放大@@ 8
敲 8
斡@@ 8
斩@@ 8
旭@@ 8
晶体@@ 8
曰 8
朽@@ 8
杖 8
杞@@ 8
极管 8
柘@@ 8
梧@@ 8
棋 8
棋@@ 8
棵@@ 8
民工 8
汪 8
沤@@ 8
沽 8
泾@@ 8
涠@@ 8
清晰@@ 8
溺@@ 8
炊@@ 8
熙 8
熹 8
爵 8
犀 8
犦@@ 8
狠@@ 8
猩 8
瓯@@ 8
瘠@@ 8
瘿 8
皈@@ 8
盂@@ 8
盼 8
矛@@ 8
砒 8
祸@@ 8
禅 8
窒@@ 8
窨 8
箝@@ 8
类似@@ 8
糕@@ 8
糖尿@@ 8
缅 8
罕 8
署 8
耻 8
肆@@ 8
肼@@ 8
胳@@ 8
腙 8
膀 8
膘 8
臼@@ 8
艏@@ 8
艰 8
芮 8
苡 8
荟@@ 8
莞 8
莪@@ 8
菖 8
葬@@ 8
薏@@ 8
虱@@ 8
蛀 8
蜓 8
蜚@@ 8
蠹@@ 8
诀 8
诃@@ 8
谗@@ 8
豉 8
贡献@@ 8
赌@@ 8
赠@@ 8
踹@@ 8
蹲 8
轭 8
迂@@ 8
逃 8
郡 8
鄂 8
酝@@ 8
酥 8
钆 8
铍@@ 8
铷@@ 8
铼 8
铼@@ 8
锕@@ 8
镗 8
闵@@ 8
阉@@ 8
雁 8
集型 8
集装@@ 8
霓@@ 8
驴@@ 8
骈@@ 8
骺@@ 8
髌 8
鲇 8
鲇@@ 8
鲎@@ 8
鲢 8
鳝@@ 8
鸦 8
麟 8
@@ 8
@@ 8
@@ 8
 8
@@ 8
-0 7
0.5mg 7
13C 7
A. 7
Advanced 7
Angi@@ 7
Arth@@ 7
Automation 7
Axis 7
B16 7
Bar 7
Bit@@ 7
Bran@@ 7
Buc@@ 7
CLO@@ 7
Chil@@ 7
Cluster 7
Conn@@ 7
Cou@@ 7
Cup 7
Customer 7
DIS@@ 7
Development 7
Dig@@ 7
Discovery 7
Don@@ 7
Dot 7
ENG@@ 7
Einstein 7
Endo@@ 7
Escherichia 7
Eul@@ 7
Fal@@ 7
Fan 7
Force 7
HZSM 7
Helic@@ 7
Hem@@ 7
I. 7
ICH 7
INE@@ 7
Imp@@ 7
Insul@@ 7
Intelligent 7
Inter 7
Intrusion 7
Job 7
Kal@@ 7
Kinase 7
LOG@@ 7
Lar@@ 7
Linear 7
Link 7
Loop 7
MER 7
McAbs 7
Mean 7
Mess@@ 7
Mining 7
Mir@@ 7
Modeling 7
Mut@@ 7
Neural 7
ON@@ 7
OS-@@ 7
Optical 7
Oxy@@ 7
PEG@@ 7
PM10 7
Path 7
Pho@@ 7
Planning 7
Plu@@ 7
Populus 7
Radar 7
Rec@@ 7
Rep@@ 7
Resi@@ 7
Rid@@ 7
Rot@@ 7
Routing 7
Run 7
S. 7
SFE@@ 7
STA@@ 7
STRA@@ 7
Saf@@ 7
Shap@@ 7
Shu@@ 7
Siemens 7
Space 7
Speed 7
Standard 7
Stre@@ 7
Syndrome 7
Systems 7
TCP/@@ 7
TIR 7
TMS@@ 7
TRO@@ 7
Tan 7
Tax@@ 7
Thres@@ 7
Tong@@ 7
Transmission 7
Tree 7
Ultra 7
Value 7
Vari@@ 7
Vision 7
Vul@@ 7
WW 7
Wa@@ 7
Wall 7
Xi@@ 7
YL 7
Yang@@ 7
Yor@@ 7
Zhang 7
abil@@ 7
ace 7
acid@@ 7
acute 7
adi@@ 7
ah 7
aint 7
ams 7
ano@@ 7
apos@@ 7
asy 7
ath@@ 7
ation@@ 7
ats 7
aur@@ 7
aver@@ 7
bet 7
bet@@ 7
bic@@ 7
big@@ 7
bir@@ 7
brand 7
cat@@ 7
charo@@ 7
che@@ 7
cir@@ 7
clo@@ 7
dendr@@ 7
disc 7
dit@@ 7
dop@@ 7
els 7
enger 7
eren@@ 7
ess@@ 7
estr@@ 7
fa 7
fam@@ 7
fil 7
fo 7
frag@@ 7
fru@@ 7
fur@@ 7
gal@@ 7
gan@@ 7
ham@@ 7
head 7
heart 7
hep@@ 7
high 7
hor@@ 7
hover 7
hypo@@ 7
ian@@ 7
idea 7
iens 7
illo@@ 7
ink 7
int@@ 7
ire 7
ison 7
kill 7
later 7
link 7
lli@@ 7
lo 7
loader 7
loop 7
lor@@ 7
lot 7
marrow 7
melan@@ 7
met@@ 7
mil@@ 7
mis 7
mis@@ 7
modi@@ 7
modified 7
moti@@ 7
muscle 7
nano@@ 7
nig@@ 7
obium 7
ology 7
ophila 7
opsis 7
orien@@ 7
ory 7
osine 7
oste@@ 7
oun@@ 7
ound@@ 7
pan@@ 7
pastor@@ 7
pat@@ 7
persi@@ 7
pg 7
phot@@ 7
pine 7
plate 7
point 7
pon@@ 7
press 7
protein@@ 7
pulse 7
qi@@ 7
ral@@ 7
related 7
resistance 7
rhBMP 7
ril 7
ring 7
salic@@ 7
seng 7
sensitive 7
sho@@ 7
sic 7
sign@@ 7
sing@@ 7
site 7
soft 7
sor@@ 7
spon@@ 7
stu@@ 7
sup@@ 7
surface 7
sus 7
tero@@ 7
ther 7
thym@@ 7
tics 7
tium 7
tone 7
tos@@ 7
tric@@ 7
umin@@ 7
van@@ 7
vari@@ 7
vascular 7
ves 7
ves@@ 7
vo@@ 7
vulgaris 7
ween 7
well 7
where 7
win 7
win@@ 7
work 7
ylon 7
ze 7
zen 7
zo 7
¨@@ 7
ˉ 7
Π@@ 7
Ф 7
л@@ 7
с@@ 7
← 7
∩ 7
⑧ 7
⑶ 7
⑷ 7
丧 7
亟@@ 7
交系 7
仆 7
伺@@ 7
佣@@ 7
侍@@ 7
侨@@ 7
俞 7
傅 7
傲 7
冕 7
凑 7
凝集@@ 7
助于 7
卦 7
发芽@@ 7
吕 7
咎@@ 7
咒 7
哆@@ 7
哗 7
啃 7
啤 7
嗣@@ 7
嘶@@ 7
噁 7
嚼@@ 7
坊@@ 7
坛@@ 7
堂@@ 7
堑@@ 7
妄 7
妮 7
娄 7
娄@@ 7
嫂 7
嫉@@ 7
存器 7
孰 7
寝@@ 7
寞 7
尕@@ 7
岐 7
岑@@ 7
崎@@ 7
巾@@ 7
市场@@ 7
帕金@@ 7
平滑@@ 7
形术 7
彦 7
彷@@ 7
徨 7
忌@@ 7
恤 7
恤@@ 7
恭 7
悼 7
惘 7
意大@@ 7
戚 7
抖 7
抨@@ 7
拼 7
挚 7
携式 7
撇@@ 7
新西@@ 7
昧 7
晾@@ 7
暹@@ 7
朱 7
栲 7
桎@@ 7
桤@@ 7
梏 7
棕 7
楠 7
楸 7
槿 7
樊 7
欺 7
汲 7
汶@@ 7
泌 7
洱@@ 7
涛 7
淌@@ 7
添@@ 7
湛 7
澈 7
炙 7
烁@@ 7
烛 7
牟@@ 7
特殊@@ 7
狭 7
獭 7
琵@@ 7
瑚@@ 7
甾 7
疤 7
痉 7
盎@@ 7
矛 7
矫 7
砍 7
硷@@ 7
竟@@ 7
筘 7
筝 7
糙 7
綫 7
纽 7
绅 7
绚@@ 7
绛@@ 7
缎 7
缙@@ 7
耶 7
耿@@ 7
肆 7
胁 7
腌 7
臻 7
舔@@ 7
芭@@ 7
芴 7
苜@@ 7
苞@@ 7
荐@@ 7
荞 7
莆@@ 7
莺 7
菏@@ 7
萼 7
葩 7
蓑@@ 7
蓼@@ 7
蓿@@ 7
蕈@@ 7
藓@@ 7
蛉 7
蜈@@ 7
蜥 7
蝉@@ 7
蝙@@ 7
血病 7
衢@@ 7
表达@@ 7
诠@@ 7
语言@@ 7
谚 7
豪 7
豹 7
贬 7
踢 7
蹈@@ 7
蹬 7
迅@@ 7
逗@@ 7
邱@@ 7
郴@@ 7
酌@@ 7
酗@@ 7
酷@@ 7
醅 7
醪@@ 7
钯@@ 7
铑@@ 7
铤 7
铭 7
锝@@ 7
镂@@ 7
闯@@ 7
阎@@ 7
阜 7
靛@@ 7
韭@@ 7
颖 7
颚 7
颠 7
饶@@ 7
骁@@ 7
鲆 7
鸵@@ 7
麂 7
 7
 7
@@ 7
｛@@ 7
0.2mg 6
1WI 6
25.0 6
AME@@ 6
ANG 6
AUTO@@ 6
Acid 6
All 6
Ani@@ 6
Arthur 6
Bir@@ 6
C. 6
CBF 6
CD40@@ 6
CEL@@ 6
CLE@@ 6
CTS 6
Car 6
Case 6
Certificate 6
Chain 6
Cit@@ 6
Clas@@ 6
Cle@@ 6
Communication 6
Component 6
Depth 6
EAR 6
Eg@@ 6
Element 6
Engineering 6
Epo@@ 6
Exp@@ 6
Expert 6
FUZ@@ 6
Fil@@ 6
Fle@@ 6
GEO@@ 6
General 6
Genetic 6
Global 6
Gor@@ 6
Joint 6
Lay@@ 6
Level 6
Library 6
Machine 6
Media 6
Micro 6
Mid@@ 6
Mob@@ 6
Nan@@ 6
OSA@@ 6
Of 6
Organization 6
Part 6
Petro@@ 6
Position 6
Pow@@ 6
Price 6
Processing 6
Programmable 6
Pseud@@ 6
Pur@@ 6
Quantum 6
RADI@@ 6
Radi@@ 6
Rate 6
Ratio 6
Ref@@ 6
Relationship 6
Review 6
Rice 6
Robot 6
Role 6
SES 6
SYN@@ 6
San 6
Schw@@ 6
Schwann 6
Serial 6
Shift 6
Sho@@ 6
Signal 6
Silic@@ 6
Sli@@ 6
Smooth 6
Solid 6
Special 6
Suff@@ 6
TRE@@ 6
Table 6
Tan@@ 6
Tar@@ 6
Tel@@ 6
Thi@@ 6
Top 6
UE 6
Universal 6
VIEW 6
Version 6
Whi@@ 6
Wireless 6
World 6
\@@ 6
^ 6
activated 6
activating 6
ader 6
adhesion 6
ads 6
ague 6
air@@ 6
amide 6
anth@@ 6
ao 6
arm 6
ary@@ 6
aspir@@ 6
ates 6
atin@@ 6
ational 6
atom 6
aureus 6
auto@@ 6
aven@@ 6
azol@@ 6
bes 6
bid@@ 6
blood 6
body 6
bot@@ 6
bul@@ 6
bulin 6
cad@@ 6
carcinoma 6
cfu 6
chemo@@ 6
chen 6
chin@@ 6
cine 6
cis@@ 6
cl 6
colo@@ 6
complex 6
critical 6
cro@@ 6
cylind@@ 6
dine 6
doc@@ 6
duc@@ 6
eld@@ 6
ellul@@ 6
ench@@ 6
end 6
endo@@ 6
endothelial 6
engineering 6
epi@@ 6
ery@@ 6
ester 6
exon 6
far@@ 6
fas@@ 6
fen 6
fin 6
fix 6
fla@@ 6
fre@@ 6
get@@ 6
gi 6
gli@@ 6
glu@@ 6
gs 6
gue 6
hal@@ 6
hydro@@ 6
hydroxy@@ 6
icul@@ 6
ild 6
illa 6
inal 6
inc@@ 6
ind 6
induced 6
inducible 6
ischem@@ 6
ity 6
ized 6
kal@@ 6
kit@@ 6
kno@@ 6
lab 6
laser 6
lem@@ 6
les@@ 6
life 6
lik@@ 6
lon@@ 6
long@@ 6
luc@@ 6
m. 6
mAh 6
maintenance 6
map 6
mass 6
mati@@ 6
med 6
medi@@ 6
ment@@ 6
mesenchymal 6
meter 6
mig@@ 6
mit@@ 6
mu@@ 6
mun@@ 6
neuro@@ 6
nin@@ 6
nor 6
norm 6
number 6
odi@@ 6
off@@ 6
ographic 6
omb 6
omonas 6
onic 6
ony@@ 6
open 6
open@@ 6
ophil@@ 6
opoie@@ 6
opus 6
orus 6
oti@@ 6
ou 6
our 6
ovirus 6
oxygen 6
pap@@ 6
past 6
phenyl@@ 6
plas@@ 6
ple 6
plic@@ 6
polymorphism 6
power 6
pple 6
pra@@ 6
pres@@ 6
quar@@ 6
que@@ 6
real 6
regulated 6
rel 6
rent 6
rid@@ 6
ridge 6
rite 6
rix 6
role 6
ronic 6
rou@@ 6
rt 6
rub@@ 6
saw@@ 6
shot 6
signal@@ 6
sion 6
sky@@ 6
slab 6
soft@@ 6
sol 6
special 6
star 6
ston 6
sucrose 6
sus@@ 6
tal@@ 6
tane@@ 6
ted@@ 6
terol 6
thec@@ 6
then@@ 6
tho@@ 6
thre@@ 6
thy@@ 6
tia 6
tional 6
tissue 6
tle 6
tomography 6
trac@@ 6
training 6
tro 6
typh@@ 6
uch 6
use 6
uss 6
val 6
value 6
via 6
vir@@ 6
visi@@ 6
vit@@ 6
vol@@ 6
ward 6
well@@ 6
ye 6
yle 6
yle@@ 6
yro@@ 6
Θ 6
д@@ 6
н@@ 6
Ⅺ@@ 6
∪ 6
∫ 6
⑤@@ 6
之为 6
亟 6
亳@@ 6
他汀 6
佃 6
侦 6
侮@@ 6
俊 6
俑 6
俚@@ 6
倭@@ 6
傍 6
別 6
剃 6
努 6
勉 6
勋 6
匐 6
卒 6
卟@@ 6
卯 6
厅@@ 6
叩 6
叶绿@@ 6
吉林@@ 6
吏 6
吠@@ 6
咪 6
啃@@ 6
啨 6
啮 6
啸 6
嗉@@ 6
嘌@@ 6
嚏 6
圭@@ 6
坐标@@ 6
埠 6
塬 6
墅 6
妒 6
妓 6
妖@@ 6
姚 6
孟 6
孳@@ 6
尉 6
屿@@ 6
峪@@ 6
废弃@@ 6
彰 6
御 6
怒@@ 6
悯 6
悸 6
惑@@ 6
慧 6
抒 6
挟@@ 6
挥 6
振荡@@ 6
措@@ 6
搁 6
摹 6
摹@@ 6
斋 6
斤 6
显微@@ 6
晃 6
晏@@ 6
朊@@ 6
朦@@ 6
杖@@ 6
枫 6
椭 6
椴@@ 6
椹@@ 6
榛@@ 6
槠 6
檩@@ 6
殉@@ 6
殊@@ 6
毋@@ 6
氓 6
氘 6
氧体 6
氵@@ 6
沅@@ 6
沌@@ 6
沐@@ 6
沛@@ 6
洄@@ 6
涟@@ 6
涣@@ 6
涧@@ 6
涩@@ 6
涸 6
淳@@ 6
滦 6
漓@@ 6
潘 6
灌注@@ 6
炜 6
炫@@ 6
焕@@ 6
狮@@ 6
珥 6
瓠@@ 6
甑@@ 6
略性 6
疯 6
疼 6
痒@@ 6
痴@@ 6
白粉@@ 6
皿@@ 6
眺@@ 6
睹 6
矶 6
砚@@ 6
砸@@ 6
祛 6
祝@@ 6
秃 6
窟@@ 6
竿 6
笨@@ 6
篆@@ 6
粱 6
糅@@ 6
纭 6
绞 6
缕@@ 6
聪@@ 6
肖 6
肚@@ 6
脖 6
腊 6
艉@@ 6
芜 6
芴@@ 6
苓@@ 6
苧@@ 6
茛@@ 6
茱@@ 6
荠@@ 6
荻 6
莞@@ 6
菁@@ 6
萍@@ 6
萸 6
葆 6
葚 6
蒋 6
蕉@@ 6
薷 6
薹@@ 6
藿@@ 6
蘑 6
虏@@ 6
虔@@ 6
虞 6
蚧@@ 6
蚶 6
蛏 6
蛐 6
蛭 6
蟋@@ 6
蠹 6
袍 6
袱 6
觅 6
討 6
诙@@ 6
诽@@ 6
谅@@ 6
谊@@ 6
贼 6
贽 6
趸@@ 6
跆@@ 6
踢@@ 6
躲@@ 6
辆@@ 6
辈@@ 6
辰@@ 6
迳@@ 6
逻 6
遮 6
郭 6
酉@@ 6
酬 6
銮@@ 6
钐@@ 6
铒@@ 6
铱 6
铷 6
镫@@ 6
长率 6
阪@@ 6
隅@@ 6
隶 6
雉@@ 6
霖 6
韶 6
饿@@ 6
骂 6
骅@@ 6
骰@@ 6
魂@@ 6
鲎 6
鲕@@ 6
鸢@@ 6
鸮 6
鸿 6
鹏 6
鹘 6
麝 6
@@ 6
@@ 6
2,@@ 5
37.5 5
62.5 5
6mg 5
ACH@@ 5
ANTI@@ 5
Acet@@ 5
Aco@@ 5
Acti@@ 5
Adaptive 5
Air@@ 5
Ano@@ 5
Asi@@ 5
Autom@@ 5
BET@@ 5
BY 5
Ball 5
Bis@@ 5
Blast 5
Block 5
Body 5
Bq 5
Bron@@ 5
Bus@@ 5
Cable 5
Care 5
Cau@@ 5
Cha@@ 5
Chro@@ 5
Cla@@ 5
Coding 5
Comple@@ 5
Cran@@ 5
Credit 5
Cros@@ 5
Cyto@@ 5
D. 5
DATA 5
DER 5
Device 5
Dic@@ 5
Dir@@ 5
EU 5
EW 5
Ech@@ 5
Edge 5
Embedded 5
Eng@@ 5
Error 5
Es@@ 5
Estimation 5
FOR@@ 5
Factor 5
Field 5
Fir@@ 5
Fire 5
Free@@ 5
GRA@@ 5
Gap 5
Gro@@ 5
HL-@@ 5
Hamil@@ 5
Hetero@@ 5
IDDM 5
IMP@@ 5
ING 5
Interface 5
Ion 5
Jan@@ 5
King@@ 5
Know@@ 5
LOW 5
Langmu@@ 5
Lig@@ 5
Lit@@ 5
Liu 5
MER@@ 5
Maintenance 5
Maj@@ 5
Maxim@@ 5
Medi@@ 5
Mem@@ 5
Memory 5
NIC 5
Nar@@ 5
ORS 5
Oper@@ 5
Optim@@ 5
Oste@@ 5
PHO@@ 5
Partial 5
Peak 5
Perox@@ 5
Pinus 5
Porcine 5
Program 5
Programming 5
Pul@@ 5
Qi 5
Radio 5
Rapid 5
Ray 5
Reas@@ 5
Reli@@ 5
Retrieval 5
Round 5
Rumex 5
SAMP@@ 5
SUPER@@ 5
Sacchar@@ 5
Safety 5
Salmon@@ 5
Salmonella 5
Scan@@ 5
Score 5
Sea 5
Short 5
Simple 5
Six@@ 5
SnO 5
Sol 5
Sor@@ 5
Spring 5
Super 5
Swe@@ 5
Switch 5
Sym@@ 5
TURB@@ 5
Tibet 5
Tob@@ 5
Tour@@ 5
Tox@@ 5
Transport 5
Ul@@ 5
Ultra@@ 5
Use 5
Vide@@ 5
Walk@@ 5
Wavelet 5
We 5
XI@@ 5
ZSM 5
acet@@ 5
acetyl@@ 5
acin@@ 5
acryl@@ 5
act 5
action 5
ading 5
agen@@ 5
aging 5
agon@@ 5
ail@@ 5
air 5
aline 5
alpha 5
amplified 5
annu@@ 5
anol@@ 5
ante@@ 5
antho@@ 5
aps 5
ard@@ 5
arthritis 5
atic 5
atom@@ 5
aud@@ 5
aves 5
bal@@ 5
binding 5
blue 5
bovine 5
buffer 5
calcium 5
cam@@ 5
card 5
cardiac 5
case 5
cluster 5
coat 5
color 5
copi@@ 5
cor 5
cosine 5
cre@@ 5
cyclo@@ 5
dal 5
day@@ 5
dele@@ 5
density 5
dependent 5
derived 5
des 5
design 5
differentiation 5
ding@@ 5
disc@@ 5
distributed 5
dol@@ 5
domes@@ 5
dress 5
eas@@ 5
ee@@ 5
ef 5
eld 5
eng 5
erv@@ 5
ese@@ 5
ete 5
ext 5
first 5
fis@@ 5
flu@@ 5
foli@@ 5
four@@ 5
frequency 5
ful@@ 5
fun@@ 5
function 5
gam@@ 5
genes 5
gir@@ 5
glo@@ 5
gluco@@ 5
graphy 5
herin 5
ho 5
hold 5
hom@@ 5
host 5
hu 5
igen@@ 5
ills 5
indica 5
ines 5
infectious 5
ingi@@ 5
initi@@ 5
ins@@ 5
insul@@ 5
integr@@ 5
interference 5
ischemic 5
ix 5
je@@ 5
jun@@ 5
kets 5
lag 5
land@@ 5
lav@@ 5
length 5
leptin 5
let@@ 5
lex@@ 5
lia 5
light 5
matrix 5
media 5
mes@@ 5
metry 5
mph@@ 5
my 5
nan@@ 5
nar@@ 5
neis@@ 5
neo@@ 5
ning 5
nis 5
nod@@ 5
obacter 5
occlusion 5
ocy@@ 5
oden@@ 5
odes 5
ody 5
oles@@ 5
ometer 5
onin 5
oning 5
oral 5
order 5
ority 5
ors 5
ove 5
ovi@@ 5
pal@@ 5
path 5
pel 5
plasminogen 5
play 5
plo@@ 5
ply 5
polym@@ 5
post 5
post@@ 5
potential 5
primary 5
proteins 5
pseudo@@ 5
radi@@ 5
ram 5
rap@@ 5
regul@@ 5
ren 5
repeats 5
res 5
reverse 5
rhiz@@ 5
rit@@ 5
rone 5
rop@@ 5
routing 5
say 5
scan@@ 5
sclerosis 5
screw 5
self@@ 5
sell 5
shall 5
shin@@ 5
sible 5
signal 5
sim@@ 5
siph@@ 5
ski@@ 5
sle@@ 5
source 5
spin@@ 5
start 5
stress 5
stromal 5
strong 5
stry 5
sul@@ 5
support 5
survi@@ 5
task 5
tel 5
tensin 5
tered 5
tern@@ 5
thel@@ 5
there 5
thin 5
til@@ 5
tioning 5
tiv@@ 5
tology 5
toph@@ 5
tory 5
toxin 5
transcription 5
transfer 5
transforming 5
transplantation 5
try 5
tum 5
ture 5
tyrosine 5
ual 5
ude 5
ui 5
ule 5
ulus 5
urb@@ 5
urn 5
vastatin 5
vel 5
visual 5
vor@@ 5
wea@@ 5
white 5
yb@@ 5
zi 5
zole 5
zone 5
§@@ 5
à@@ 5
ˇ@@ 5
Υ 5
ι 5
В@@ 5
З@@ 5
И@@ 5
Л@@ 5
П@@ 5
ч@@ 5
Ⅻ 5
ⅰ 5
∣@@ 5
╱@@ 5
㎏ 5
㎏@@ 5
丌@@ 5
丫@@ 5
乎@@ 5
佯@@ 5
侃 5
俱乐@@ 5
倘@@ 5
偕@@ 5
僚@@ 5
僭@@ 5
兖@@ 5
况@@ 5
凰 5
删 5
勇 5
勉@@ 5
匡@@ 5
发式 5
叮@@ 5
吏@@ 5
呆 5
呵@@ 5
哇 5
哭@@ 5
哮 5
嗳@@ 5
嘶 5
坠 5
埠@@ 5
埸 5
堪 5
墒@@ 5
奸 5
娃@@ 5
媚@@ 5
嫌 5
孽 5
安慰@@ 5
宴 5
宴@@ 5
寅 5
履 5
岱@@ 5
峻@@ 5
巍@@ 5
巩@@ 5
巳 5
帖 5
帮@@ 5
幽 5
廷@@ 5
弟@@ 5
彼 5
忻@@ 5
忽 5
怡@@ 5
怯 5
怯@@ 5
恃 5
悦@@ 5
悼@@ 5
愧 5
慕 5
憋@@ 5
懒 5
戳@@ 5
抚 5
拈@@ 5
拙 5
握 5
撂@@ 5
敛 5
旭 5
旷 5
晦@@ 5
暑 5
暹 5
曙 5
朵@@ 5
枉@@ 5
枫@@ 5
栌 5
棍 5
椹 5
楠@@ 5
榆 5
榈@@ 5
榔@@ 5
樨 5
橘@@ 5
歉 5
殴 5
氖@@ 5
氢酶 5
氪 5
沃 5
沛 5
沱 5
沽@@ 5
涕@@ 5
涧 5
深圳@@ 5
渎@@ 5
渤 5
湟@@ 5
滦@@ 5
漪 5
潇@@ 5
澡 5
炳 5
為 5
熙@@ 5
燧@@ 5
犰@@ 5
狐@@ 5
狳 5
狸 5
猿@@ 5
玢@@ 5
玩 5
玫@@ 5
琶 5
瑙 5
瑶 5
甫@@ 5
甬@@ 5
界层 5
疲 5
疹@@ 5
癎@@ 5
眨@@ 5
睦 5
瞩 5
砍@@ 5
砝@@ 5
硐 5
硷 5
碟 5
碾 5
祀@@ 5
祠 5
祠@@ 5
禹@@ 5
税人 5
立叶 5
箕 5
篷 5
篾 5
簸 5
糅 5
紊 5
紧张@@ 5
绀 5
续性 5
绮@@ 5
绷 5
缫 5
羌 5
羞 5
翁@@ 5
翌@@ 5
翰 5
耽@@ 5
胧 5
胱 5
胴@@ 5
臣@@ 5
自于 5
芙 5
花环@@ 5
茚 5
茛 5
茫@@ 5
荐 5
荥@@ 5
荼 5
莓@@ 5
莹 5
莼 5
莽@@ 5
菀@@ 5
菰@@ 5
蓣@@ 5
蓼 5
薤@@ 5
藨@@ 5
藩@@ 5
蘸 5
蘸@@ 5
虞@@ 5
虻@@ 5
蚓@@ 5
蛲@@ 5
蝥@@ 5
蟀 5
蟾 5
裘@@ 5
裤 5
視@@ 5
诅@@ 5
诏 5
诡@@ 5
谛 5
谵@@ 5
贱 5
跋 5
躯 5
較 5
过氧化物@@ 5
迦@@ 5
逾@@ 5
邮 5
郧@@ 5
郸@@ 5
鄙@@ 5
酉 5
重机 5
鎓 5
钊 5
钮@@ 5
铽@@ 5
锄@@ 5
锇@@ 5
锍 5
锢 5
镖 5
镝 5
镨@@ 5
镱@@ 5
闯 5
闰 5
闹@@ 5
阙@@ 5
陲 5
隼 5
雇 5
顷@@ 5
颡@@ 5
饬 5
馒@@ 5
驮@@ 5
骡@@ 5
骼 5
骼@@ 5
魇 5
鲌 5
鲡 5
鳌 5
鳌@@ 5
鳙@@ 5
鳟 5
鸳@@ 5
鹏@@ 5
鹘@@ 5
麋@@ 5
黍 5
黝@@ 5
鼎 5
龛@@ 5
@@ 5
@@ 5
@@ 5
 5
 5
@@ 5
 5
@@ 5
﹥@@ 5
,000 4
10cm 4
11.1 4
14C 4
2x 4
4mg 4
5,@@ 4
6H 4
AIM 4
ANT 4
ASE@@ 4
Aden@@ 4
Aero@@ 4
Agreement 4
And 4
Angio@@ 4
Anti 4
Arabidopsis 4
Array 4
Artificial 4
Asia 4
Aspect 4
Assay 4
Ath@@ 4
Australia 4
Aut@@ 4
Auth@@ 4
BLE@@ 4
BRI@@ 4
Band 4
Basi@@ 4
Beau@@ 4
Beer 4
Bil@@ 4
Brit@@ 4
Broad@@ 4
CAT@@ 4
Cab@@ 4
Center 4
Ceramic 4
Chec@@ 4
Chloro@@ 4
Chu 4
Cir@@ 4
Classical 4
Code 4
Coll@@ 4
Compu@@ 4
Contro@@ 4
Cot@@ 4
Critical 4
Cro@@ 4
Dan@@ 4
Daw@@ 4
Delay 4
Develop@@ 4
Diameter 4
Dil@@ 4
Direct 4
Division 4
Down 4
Dre@@ 4
Dri@@ 4
Driver 4
Dro@@ 4
Dual 4
Dyn@@ 4
Early 4
Eco 4
Ele@@ 4
Electro 4
Electro@@ 4
Energy 4
Epi@@ 4
Era 4
Euro@@ 4
Event 4
Extract 4
FOR 4
Fam@@ 4
Free 4
Frequency 4
Fru@@ 4
Full 4
Function 4
Fus@@ 4
GBT 4
Gan@@ 4
Gas 4
Ground 4
Growth 4
HIF 4
HSP70 4
Hand@@ 4
Hang@@ 4
Haz@@ 4
Hong 4
Hong@@ 4
Horiz@@ 4
Hybrid 4
INE 4
Immun@@ 4
Institute 4
Intelligence 4
Intr@@ 4
It 4
Kin@@ 4
King 4
LEC@@ 4
Laser 4
Layer 4
Leg@@ 4
Life 4
Light 4
Logic 4
M. 4
MENT@@ 4
MOD@@ 4
MODEL 4
MSO 4
Mass 4
Matrix 4
Mes@@ 4
Metal 4
Mig@@ 4
Mill 4
Modified 4
Mr@@ 4
NAL 4
NCE 4
NEL 4
Neuro@@ 4
Nin@@ 4
Noise 4
North 4
Novel 4
Oriented 4
Out@@ 4
Over@@ 4
Pain@@ 4
Panel 4
Park 4
Pass@@ 4
Performance 4
Pero@@ 4
Photo@@ 4
Picture 4
Pil@@ 4
Policy 4
Post@@ 4
QUID 4
REA 4
ROCK@@ 4
Reality 4
Receptor 4
Recovery 4
Recur@@ 4
Refl@@ 4
Reh@@ 4
Repe@@ 4
Rights 4
Ris@@ 4
SAL@@ 4
SDS-@@ 4
SERV@@ 4
STR@@ 4
Sandwich 4
Scene 4
Scheduling 4
Schi@@ 4
Search 4
Sen@@ 4
Sensor 4
Sep@@ 4
Shan 4
Shig@@ 4
Sign 4
Source 4
Speech 4
Spir@@ 4
Spl@@ 4
State 4
Sto@@ 4
Storage 4
Strategy 4
Stress 4
Structure 4
Symp@@ 4
T. 4
THER@@ 4
Tab@@ 4
Tang 4
Temp@@ 4
Temperature 4
Thermo@@ 4
TiO 4
To 4
Tou@@ 4
Tourism 4
Tube 4
Type 4
University 4
Vap@@ 4
Variable 4
Vascular 4
Vehicle 4
Vel@@ 4
Was@@ 4
Wei 4
Whe@@ 4
Wide 4
Winter 4
Wood 4
Working 4
XI 4
ZO@@ 4
Zn2 4
` 4
abra@@ 4
acetate 4
activator 4
adaptive 4
adder 4
aldosterone 4
ality 4
alization 4
alk@@ 4
ame@@ 4
ance@@ 4
anch@@ 4
angi@@ 4
angiography 4
ano 4
anol 4
ants 4
any@@ 4
aph 4
app@@ 4
architecture 4
ark@@ 4
ash@@ 4
aspart@@ 4
associative 4
ater@@ 4
ateway 4
ati 4
augh@@ 4
aure@@ 4
auto 4
avi@@ 4
back@@ 4
bad 4
band@@ 4
bat@@ 4
bee 4
bis 4
bits 4
bond 4
bor 4
bra@@ 4
buil@@ 4
bypass 4
cancer 4
cap 4
carbon 4
case@@ 4
cash 4
cate@@ 4
cement 4
cha@@ 4
chan@@ 4
chro@@ 4
cli@@ 4
clu@@ 4
coefficient 4
commun@@ 4
comp@@ 4
complete 4
component 4
computed 4
conformation 4
contract 4
cost 4
cross@@ 4
cs 4
cube 4
database 4
date 4
deco@@ 4
dehydrogenase 4
dic 4
dipine 4
direct 4
dish 4
easy 4
ede@@ 4
edge 4
effect 4
ei 4
eland 4
ele 4
elite 4
emia 4
emission 4
emp@@ 4
ener@@ 4
enia 4
enzyme 4
eptide 4
eral 4
error 4
ese 4
esp@@ 4
expression 4
extrac@@ 4
extract 4
factors 4
fan 4
fare 4
fat@@ 4
fatty 4
fen@@ 4
file 4
finite 4
fix@@ 4
fluores@@ 4
fold 4
fos@@ 4
frame 4
fusion 4
gan 4
gas@@ 4
gels 4
gla@@ 4
gre@@ 4
han 4
han@@ 4
hard 4
hards 4
has@@ 4
he 4
hip 4
hole 4
hormone 4
hos@@ 4
hrs 4
hun@@ 4
hyper@@ 4
ical@@ 4
icon 4
idden 4
ield 4
ight 4
ile@@ 4
imer 4
inc 4
indow@@ 4
inflammatory 4
inhibitor 4
integration 4
iry 4
ischemia 4
ital 4
ja@@ 4
kar@@ 4
lab@@ 4
lass 4
lati@@ 4
lay@@ 4
learning 4
lets 4
level@@ 4
ligand 4
line@@ 4
ling@@ 4
linkage 4
list 4
lite 4
lling 4
loc@@ 4
lum@@ 4
main 4
mart 4
mas 4
means 4
ments 4
mero@@ 4
middle 4
modul@@ 4
mography 4
mor 4
mosaic 4
motion 4
moxi@@ 4
muth 4
nano 4
nat@@ 4
nd 4
neg@@ 4
nested 4
new 4
obe@@ 4
ocardi@@ 4
oce@@ 4
ocyte 4
ode 4
ods 4
oke 4
olig@@ 4
oling 4
olip@@ 4
olite 4
ols 4
oly@@ 4
orrh@@ 4
oside 4
oster 4
osus 4
oy@@ 4
peak 4
peer 4
peptide 4
peren@@ 4
pha 4
phosphatase 4
photon 4
phyl@@ 4
pic 4
pix@@ 4
plu@@ 4
polymorphic 4
polyp@@ 4
porting 4
pos@@ 4
proc@@ 4
process 4
proliferation 4
promoter 4
protocol 4
pseud@@ 4
quad@@ 4
quality 4
queu@@ 4
random 4
rati@@ 4
reactive 4
rec@@ 4
reductase 4
reh@@ 4
replication 4
resp@@ 4
response 4
ret 4
rho@@ 4
ribos@@ 4
rigid 4
robot 4
rock@@ 4
roph@@ 4
run 4
rup@@ 4
safe 4
sangu@@ 4
scatter 4
scri@@ 4
section 4
sed@@ 4
see 4
sel 4
sem@@ 4
sense 4
sero@@ 4
sic@@ 4
sick 4
sight 4
sigma 4
siz@@ 4
sof@@ 4
solute 4
spec@@ 4
species 4
spor@@ 4
spot 4
sta@@ 4
steel 4
sto@@ 4
stone 4
stor@@ 4
strand 4
stre@@ 4
strep@@ 4
stron@@ 4
struc@@ 4
sub 4
super@@ 4
sy 4
t- 4
table 4
tar@@ 4
tas@@ 4
tering 4
ters 4
tetra@@ 4
them 4
therapy 4
thero@@ 4
thro@@ 4
tiation 4
tification 4
tim@@ 4
time@@ 4
tog@@ 4
tom 4
track 4
tre 4
trich@@ 4
tron 4
tru@@ 4
ucalyp@@ 4
ucle@@ 4
ud 4
ulated 4
ume 4
under 4
unit 4
urg@@ 4
urity 4
vac@@ 4
vap@@ 4
variability 4
vas@@ 4
vector 4
vere 4
ving 4
vs. 4
wan 4
wave 4
wave@@ 4
wic@@ 4
wing 4
wood 4
word 4
work@@ 4
world 4
yan 4
yi@@ 4
you 4
zh@@ 4
zing 4
zona 4
К@@ 4
О@@ 4
С@@ 4
б@@ 4
в 4
в@@ 4
й 4
т@@ 4
у@@ 4
Ⅺ 4
∥@@ 4
⊥@@ 4
㎝ 4
並@@ 4
乓 4
乖@@ 4
乾 4
亨 4
伽 4
佘@@ 4
佬@@ 4
侬 4
倪@@ 4
兀 4
兄 4
內 4
刘 4
剔 4
劾 4
勺 4
匕@@ 4
匪 4
卞 4
厉@@ 4
厌 4
厩@@ 4
合金@@ 4
吓 4
吟 4
呕@@ 4
咐 4
咽癌 4
唆@@ 4
啄@@ 4
喇 4
喝 4
嗡@@ 4
嘎 4
嘛 4
噪比 4
嚣 4
囿@@ 4
圃@@ 4
坂 4
坟@@ 4
垮 4
壑 4
壕 4
壕@@ 4
夔 4
奎 4
奕 4
妃@@ 4
妊 4
妓@@ 4
妮@@ 4
姥@@ 4
娥@@ 4
娴@@ 4
娼@@ 4
婆 4
嫖@@ 4
宅 4
對@@ 4
屎 4
屠 4
屹@@ 4
岘 4
峻 4
崔@@ 4
嵇@@ 4
嵘 4
巫 4
巳@@ 4
帖@@ 4
幺 4
庚 4
庶@@ 4
廖@@ 4
弼 4
彦@@ 4
怆 4
恪@@ 4
悍 4
惟 4
惯 4
惰@@ 4
愁@@ 4
愈率 4
慷@@ 4
憋 4
憎 4
戎 4
所有@@ 4
扮 4
抬 4
拗 4
拙@@ 4
拴@@ 4
捡 4
掖 4
摔 4
摩托@@ 4
撮@@ 4
擅@@ 4
攸@@ 4
斛@@ 4
斧@@ 4
无性@@ 4
昀 4
晤@@ 4
暑@@ 4
栩@@ 4
桕 4
棍@@ 4
棠@@ 4
楷@@ 4
榍@@ 4
榧 4
槎 4
槟@@ 4
樱 4
樽 4
橡 4
橼 4
櫣 4
歉@@ 4
歙@@ 4
歪 4
殆@@ 4
段性 4
毂@@ 4
毅 4
母细胞 4
汝 4
沁@@ 4
沾 4
流子 4
浚@@ 4
涪@@ 4
淑@@ 4
淞 4
渥@@ 4
渭 4
渺@@ 4
湍 4
滹@@ 4
潛@@ 4
潞@@ 4
潟@@ 4
澄 4
炖 4
烬@@ 4
焖@@ 4
熄 4
熨@@ 4
燎@@ 4
爷 4
犊 4
犤@@ 4
犹 4
狈 4
狍 4
猜 4
猿 4
玲@@ 4
珑 4
琉@@ 4
璧 4
環 4
畦@@ 4
疚 4
疳@@ 4
痣@@ 4
痨 4
瘠 4
癖 4
發@@ 4
盥@@ 4
眸 4
睿@@ 4
瞒 4
瞰 4
瞻@@ 4
瞿@@ 4
碇@@ 4
碛 4
碛@@ 4
磐 4
祁 4
祜 4
祷 4
祺 4
秕 4
秕@@ 4
秤@@ 4
秽@@ 4
稜 4
稞 4
穆 4
竺@@ 4
絮 4
經 4
绀@@ 4
绎 4
绛 4
缮 4
缰@@ 4
羡@@ 4
羰 4
翎 4
聊 4
肇 4
肪@@ 4
胖 4
脯@@ 4
腘@@ 4
腧@@ 4
臀 4
臃@@ 4
般@@ 4
舭@@ 4
艉 4
芨 4
芪 4
苊 4
茫 4
荜@@ 4
荪 4
荽 4
莠 4
菟@@ 4
菹@@ 4
萌 4
萤 4
萱@@ 4
蒡 4
蕃@@ 4
薰 4
藁@@ 4
蚣 4
蛴@@ 4
蜥@@ 4
蝮 4
螬 4
蟠@@ 4
褥 4
觞 4
解期 4
計@@ 4
誓 4
譜 4
讴@@ 4
讶 4
讹@@ 4
诏@@ 4
诫 4
谎 4
谤 4
豚@@ 4
豹@@ 4
贩 4
贩@@ 4
赁@@ 4
赂@@ 4
赃@@ 4
赚@@ 4
赝 4
赡@@ 4
赴@@ 4
踵 4
踵@@ 4
踺@@ 4
躺@@ 4
软件@@ 4
辍@@ 4
辘@@ 4
辜@@ 4
迈 4
追 4
邀 4
郝@@ 4
酌 4
酢@@ 4
酵 4
量仪 4
鎓@@ 4
钛矿 4
钪@@ 4
铆 4
铊@@ 4
铠 4
铥 4
铽 4
锄 4
锇 4
锉 4
锝 4
锵 4
锷 4
闩@@ 4
闰@@ 4
闾 4
阁@@ 4
陂 4
陇 4
陋 4
隘@@ 4
雷诺@@ 4
霰@@ 4
靡 4
韬@@ 4
頻@@ 4
題 4
颉@@ 4
颐@@ 4
颜 4
饥@@ 4
饯 4
驹 4
骺 4
髦 4
髫@@ 4
鲀 4
鲅@@ 4
鲑 4
鲟@@ 4
鲨 4
鸯 4
鹉 4
鹦@@ 4
鹬@@ 4
黍@@ 4
黔 4
鼬 4
龛 4
 4
@@ 4
@@ 4
@@ 4
 4
 4
@@ 4
@@ 4
 4
@@ 4
﹕@@ 4
﹤ 4
﹪ 4
-di@@ 3
0,@@ 3
1β 3
33.3 3
60s 3
80C196@@ 3
ACID 3
ACK@@ 3
ASEAN 3
Acquisition 3
Acute 3
Adv@@ 3
Af@@ 3
Aff@@ 3
Allo@@ 3
Ampli@@ 3
Aqu@@ 3
Arc 3
Arsen@@ 3
Arteri@@ 3
Arti@@ 3
Assessment 3
Asset 3
Associ@@ 3
At 3
Average 3
Back 3
Bay 3
Binary 3
Bud@@ 3
COMP@@ 3
CUR@@ 3
Camp@@ 3
Carbon 3
Character 3
China 3
Chromos@@ 3
City 3
Clo@@ 3
Collection 3
Composi@@ 3
Concrete 3
Connec@@ 3
Construction 3
Content 3
Continuous 3
Cr18@@ 3
Cr18Ni9@@ 3
Cross 3
Cyclo@@ 3
Decision 3
Dem@@ 3
Der@@ 3
Description 3
Diab@@ 3
Docu@@ 3
Du 3
Dynamics 3
ELD 3
EXPER@@ 3
Ear@@ 3
Economic 3
Edi@@ 3
Einste@@ 3
Electrical 3
Emp@@ 3
Enh@@ 3
Enhanced 3
Eth@@ 3
Eucli@@ 3
European 3
Evaluation 3
Exec@@ 3
Explo@@ 3
FIL@@ 3
Fac@@ 3
Far@@ 3
Fibro@@ 3
Fig@@ 3
Filter 3
Financial 3
Fit@@ 3
Flex@@ 3
Fluid 3
Fluo@@ 3
Fra@@ 3
Frag@@ 3
GEN 3
GOLD 3
Gate 3
Gene 3
Generalized 3
Generation 3
Glass 3
Gradient 3
Gram@@ 3
Graph 3
Grey 3
Grin@@ 3
HAC@@ 3
HAV@@ 3
Heil@@ 3
Henan 3
Hepatitis 3
High@@ 3
Hybri@@ 3
IED 3
IES 3
If 3
Induced 3
Ini@@ 3
Instruction 3
Insurance 3
Integr@@ 3
Integration 3
Interest 3
International 3
Inventory 3
Iso@@ 3
It@@ 3
Kun@@ 3
LAR 3
Laboratory 3
Large 3
Length 3
Leuk@@ 3
Like 3
Line 3
Location 3
Long 3
Lymph@@ 3
MET@@ 3
METH@@ 3
Magnetic 3
Mang@@ 3
Manufacturing 3
Marine 3
Maximum 3
Membrane 3
Mixed 3
Modulation 3
Moment 3
Mong@@ 3
Multimedia 3
My 3
NIT@@ 3
National 3
Nuclear 3
Once 3
Ou@@ 3
PLE 3
Pap@@ 3
Parti@@ 3
Peri@@ 3
Personality 3
Plan@@ 3
Platform 3
Pop@@ 3
Pre 3
Precision 3
Probability 3
Probe 3
Problem 3
Process@@ 3
Professional 3
Profile 3
Propagation 3
RAL 3
RAY 3
RELA@@ 3
ROCK 3
RT－@@ 3
Recognition 3
Regi@@ 3
Reinforced 3
Relev@@ 3
Rem@@ 3
Resolution 3
Respon@@ 3
Retro@@ 3
Rhy@@ 3
Rich 3
Rule 3
SED 3
STRU@@ 3
STU@@ 3
SUL@@ 3
Sci@@ 3
Sequence 3
Shape 3
Shiga 3
Shigella 3
Site 3
Six 3
Slab 3
Sof@@ 3
Specific 3
Spr@@ 3
Stand@@ 3
Strength 3
Sun@@ 3
Survey 3
Switching 3
THE@@ 3
Tang@@ 3
Task 3
Tech@@ 3
Text 3
The@@ 3
Ther@@ 3
Tin 3
Total 3
Trade 3
Transi@@ 3
Translation 3
Transp@@ 3
Transportation 3
Tren@@ 3
U.@@ 3
Under@@ 3
Up 3
Urban 3
VCAM 3
WAT@@ 3
WAVE 3
WIT@@ 3
Wave@@ 3
Weight 3
Wild 3
Work 3
Xu 3
YL@@ 3
Yuan 3
Zi@@ 3
ability 3
about 3
access 3
acco 3
acin 3
aden@@ 3
ades 3
adren@@ 3
aero@@ 3
aeruginosa 3
affin 3
ages 3
agglutin@@ 3
agic 3
agon 3
alle@@ 3
alog@@ 3
alu@@ 3
amethasone 3
amic 3
amorph@@ 3
amp 3
anda 3
anding 3
anine 3
aortic 3
aperture 3
apoptosis 3
application 3
approach 3
arch 3
area 3
arginine 3
arin 3
arm@@ 3
array 3
ars 3
arterial 3
artificial 3
asal 3
asia 3
asis 3
asm 3
assay 3
atch 3
atell@@ 3
ateri@@ 3
aton 3
ator@@ 3
atrial 3
avig@@ 3
avy 3
aze@@ 3
bacterium 3
beads 3
bed 3
beta 3
big 3
bile 3
block 3
brain 3
break 3
buff@@ 3
bun@@ 3
but@@ 3
cade 3
cage 3
cale 3
capit@@ 3
car 3
caten@@ 3
cathode 3
centr@@ 3
central 3
cephal@@ 3
ces@@ 3
cess@@ 3
channel 3
chel@@ 3
cher@@ 3
child 3
china 3
chitosan 3
chloride 3
chol@@ 3
choline 3
chromo@@ 3
chronic 3
cing 3
circulation 3
class 3
concrete 3
cone 3
conserved 3
context 3
contin@@ 3
cope 3
cord 3
court 3
cover 3
crac@@ 3
cross 3
culture 3
culus 3
cus@@ 3
dam 3
damine 3
dec@@ 3
dendritic 3
determining 3
development 3
dex@@ 3
dge 3
dig@@ 3
diplo@@ 3
directional 3
discrete 3
dismutase 3
dopamine 3
down@@ 3
dox 3
easi@@ 3
eci@@ 3
ect 3
ected 3
effects 3
elec@@ 3
electro@@ 3
eli@@ 3
ellar 3
ency 3
endothel@@ 3
ene@@ 3
energy 3
enh@@ 3
enta 3
ential 3
epider@@ 3
epidermal 3
ered 3
ergic 3
eri@@ 3
ering 3
ervical 3
ession 3
eth 3
eth@@ 3
ethyl@@ 3
etic 3
etin 3
etro@@ 3
eve 3
even@@ 3
extracellular 3
fall 3
fero@@ 3
fetal 3
fever 3
ffer 3
fiber 3
fication 3
fist@@ 3
fit 3
flash 3
flex 3
flow@@ 3
fluid 3
fragment 3
fruit 3
fund@@ 3
gang@@ 3
garis 3
gel@@ 3
gency 3
general 3
gens 3
genus 3
ging 3
glycoprotein 3
gold 3
gri@@ 3
gru@@ 3
gun 3
gyro@@ 3
had@@ 3
hap@@ 3
hem@@ 3
hepatitis 3
hetero@@ 3
his@@ 3
hua 3
hur@@ 3
hus@@ 3
hybri@@ 3
hybrid 3
hybridization 3
ible 3
icin 3
idase 3
idine 3
ility 3
illi 3
illus 3
ilos@@ 3
ily 3
imp@@ 3
inase 3
ince 3
inea 3
ined 3
infarction 3
influenza 3
ingle 3
inium 3
inst@@ 3
insulin 3
inter 3
internal 3
internet 3
inv@@ 3
ird 3
ism 3
ite@@ 3
ites 3
ition 3
itis 3
its 3
jects 3
jo@@ 3
join 3
jube 3
juven@@ 3
keto 3
king@@ 3
kle 3
lae 3
law 3
layer 3
leaf 3
least 3
lep@@ 3
level 3
ley@@ 3
lieren 3
lifer@@ 3
lig@@ 3
ligament 3
linear 3
liz@@ 3
lun@@ 3
lus@@ 3
lymphoma 3
machine 3
mag@@ 3
magnetic 3
maker 3
mand 3
mand@@ 3
mat 3
mean@@ 3
medium 3
membrane 3
mental 3
meth@@ 3
metho@@ 3
mination 3
minimal 3
mining 3
mix 3
molecule 3
mone 3
morphogenetic 3
most 3
mus@@ 3
myel@@ 3
nai@@ 3
naph@@ 3
nas@@ 3
nate 3
nea 3
ners 3
nervous 3
networks 3
neu@@ 3
neural 3
neutral 3
nian 3
nic 3
node 3
noise 3
now@@ 3
nucleotide 3
nucleus 3
oct@@ 3
odd 3
oglo@@ 3
oic 3
oids 3
olar 3
olk 3
olog@@ 3
omes 3
omycin 3
once 3
ond 3
ont@@ 3
ony 3
oplasty 3
optical 3
optimal 3
opy@@ 3
orbent 3
organic 3
orial 3
orph@@ 3
outer 3
own@@ 3
oxidase 3
oxygen@@ 3
page 3
pain 3
pain@@ 3
percutaneous 3
pes@@ 3
pher 3
phil@@ 3
pho@@ 3
photo@@ 3
phr@@ 3
pil@@ 3
plan@@ 3
plant 3
plastic 3
ple@@ 3
plot 3
pneumonia 3
pointed 3
porcine 3
poro@@ 3
posi@@ 3
positive 3
pper 3
pre 3
price 3
print 3
processor 3
products 3
protease 3
pull 3
pulmonary 3
punc@@ 3
pur@@ 3
ques@@ 3
rab@@ 3
radio 3
rain 3
rap 3
raph@@ 3
rating 3
ratio 3
ration 3
raw 3
receptors 3
rect@@ 3
ree 3
ref@@ 3
region 3
regulator 3
regulatory 3
relative 3
renal 3
rene 3
rep@@ 3
replacement 3
resection 3
resin 3
resolution 3
resonance 3
retino@@ 3
retri@@ 3
retro@@ 3
rheumatoid 3
rice 3
rich@@ 3
rid 3
river 3
robu@@ 3
rod 3
roll@@ 3
rons 3
rot 3
rud@@ 3
s. 3
saf@@ 3
salt 3
sam@@ 3
sarco@@ 3
schema 3
schi@@ 3
science 3
scope 3
sea 3
sensor 3
sep@@ 3
separ@@ 3
services 3
severity 3
shan@@ 3
shape 3
shift 3
ship 3
short@@ 3
shu@@ 3
sian 3
side 3
signer 3
silic@@ 3
simil@@ 3
simul@@ 3
sine 3
singer 3
situ@@ 3
skew 3
sme@@ 3
software 3
soy 3
sphere 3
spi@@ 3
spinal 3
sta 3
stal@@ 3
stance 3
standard 3
star@@ 3
sten@@ 3
stent 3
stero@@ 3
stranded 3
stroke 3
sud@@ 3
sum@@ 3
superoxide 3
sur@@ 3
surgery 3
symbol 3
synap@@ 3
tal 3
tant 3
tase 3
tech 3
tend@@ 3
tent 3
teral 3
tern 3
tery@@ 3
tests 3
tetr@@ 3
text 3
theory 3
thes 3
thol 3
tice 3
tidine 3
ting@@ 3
tobacillus 3
tococcus 3
trache@@ 3
transc@@ 3
translation 3
transmission 3
tri 3
troph@@ 3
trophic 3
tryp@@ 3
tte 3
turb@@ 3
typ@@ 3
uce 3
udy 3
una 3
unity 3
unn@@ 3
uria 3
urine 3
uritization 3
urium 3
ush@@ 3
valley 3
vein 3
vic 3
video 3
virtual 3
volume 3
wall 3
warm 3
wax 3
web@@ 3
wer 3
what 3
wil@@ 3
wo@@ 3
wri@@ 3
ws 3
xacin 3
xen@@ 3
yers 3
ying 3
ynom@@ 3
zol@@ 3
÷@@ 3
ū 3
Β 3
Χ@@ 3
ο 3
А@@ 3
Б@@ 3
Г@@ 3
М@@ 3
а 3
п@@ 3
р@@ 3
ф@@ 3
ⅱ 3
↑ 3
∏@@ 3
∠ 3
∣ 3
≌@@ 3
⊙ 3
⊿ 3
⒈ 3
⒉ 3
│@@ 3
┐ 3
シ@@ 3
丈 3
亘@@ 3
亳 3
人民@@ 3
仡@@ 3
传染@@ 3
伶@@ 3
佩 3
佬 3
侈 3
俞@@ 3
俯 3
倡 3
倪 3
偃@@ 3
偻 3
傈@@ 3
傲@@ 3
傻 3
僳@@ 3
僻 3
儋@@ 3
兜 3
冽 3
凄@@ 3
凶 3
刁 3
分裂@@ 3
刹 3
剜@@ 3
勐@@ 3
勰 3
勰@@ 3
勾 3
勿 3
勿@@ 3
匐@@ 3
卦@@ 3
卿@@ 3
厝 3
厥@@ 3
厨 3
发生@@ 3
各向@@ 3
吮 3
吱@@ 3
吵 3
呋 3
唆 3
唧@@ 3
啊 3
問@@ 3
啼 3
喀 3
喔@@ 3
喙 3
嗒 3
嗓 3
嘛@@ 3
嘱@@ 3
嚣@@ 3
囟@@ 3
圜 3
圜@@ 3
坨@@ 3
垆@@ 3
垣@@ 3
埔@@ 3
基督@@ 3
堇 3
壅 3
外显@@ 3
大众@@ 3
妈 3
婉 3
婷 3
媛 3
媳 3
嫂@@ 3
嬉@@ 3
孽@@ 3
完整@@ 3
宛 3
宦 3
寇 3
对称@@ 3
尧 3
局限@@ 3
岚@@ 3
峦 3
崂@@ 3
巯@@ 3
平整@@ 3
庵 3
庶 3
廖 3
弑@@ 3
弘 3
弥 3
弶@@ 3
当事@@ 3
彝 3
徉 3
徜@@ 3
忙@@ 3
怕@@ 3
怜@@ 3
恭@@ 3
惜@@ 3
惹 3
慕@@ 3
懑 3
懦 3
戍@@ 3
扦@@ 3
扪@@ 3
扼 3
拉机 3
拣@@ 3
拥 3
拯@@ 3
挪 3
挽 3
捉 3
捡@@ 3
掏 3
掸@@ 3
搅 3
搪 3
搪@@ 3
摈@@ 3
摭@@ 3
撬 3
攫@@ 3
敕 3
斌 3
斤@@ 3
晌 3
晦 3
晰@@ 3
暨@@ 3
曝 3
曰@@ 3
杈@@ 3
杓 3
杠@@ 3
杧@@ 3
枷 3
枷@@ 3
柬@@ 3
柰@@ 3
栋@@ 3
栾@@ 3
桅 3
桓@@ 3
桠 3
桢 3
椋@@ 3
椰 3
楝 3
楤@@ 3
楷 3
楸@@ 3
榀@@ 3
榔 3
榜 3
榴 3
構 3
樂@@ 3
樵 3
橇 3
檐@@ 3
檢@@ 3
檵@@ 3
正弦@@ 3
毯@@ 3
氪@@ 3
氵 3
汴@@ 3
沂 3
沌 3
沭 3
泗 3
泮@@ 3
泯 3
泯@@ 3
泾 3
流化@@ 3
浏@@ 3
浑 3
浜 3
涞@@ 3
淖@@ 3
淝@@ 3
淞@@ 3
淫 3
渚 3
測@@ 3
渲 3
溧@@ 3
溺 3
滋 3
滕@@ 3
潜伏@@ 3
潼 3
澎@@ 3
澡@@ 3
澧@@ 3
澳大@@ 3
濑@@ 3
灿 3
焖 3
無@@ 3
煞 3
煲 3
熠 3
熠@@ 3
熬 3
牒 3
牡 3
牲 3
狙@@ 3
狱@@ 3
猛 3
獒 3
玫 3
玷@@ 3
珂@@ 3
珐@@ 3
琊 3
琢 3
琦 3
琶@@ 3
瓠 3
甬 3
畿 3
疒 3
疠@@ 3
疡 3
疼@@ 3
痉@@ 3
痼@@ 3
瘢 3
瘢@@ 3
瘪 3
瘪@@ 3
癥 3
癸 3
皋 3
皲@@ 3
盐岩 3
眩 3
睛@@ 3
瞎@@ 3
瞭@@ 3
矶@@ 3
碗@@ 3
磐@@ 3
祜@@ 3
禄@@ 3
禳@@ 3
禺@@ 3
稃 3
稗 3
稣@@ 3
稷 3
竣 3
竿@@ 3
笙 3
筈 3
筐@@ 3
筱@@ 3
篱@@ 3
米松 3
粽@@ 3
紬@@ 3
縮@@ 3
織@@ 3
纰@@ 3
绢 3
绥 3
绯@@ 3
绶 3
缚 3
缭@@ 3
罘@@ 3
羰@@ 3
羲 3
聆@@ 3
肮@@ 3
胧@@ 3
胳 3
胴 3
脒@@ 3
脘 3
膀@@ 3
膳 3
舜 3
舜@@ 3
良率 3
艹 3
芫@@ 3
苍 3
茇 3
茹@@ 3
荔 3
莜@@ 3
莠@@ 3
菰 3
菸@@ 3
萁 3
萄@@ 3
萧 3
葎@@ 3
蒙特@@ 3
蒺@@ 3
蓓@@ 3
蓥@@ 3
蔑 3
蔡 3
蔸 3
蔻@@ 3
虻 3
蚣@@ 3
蚱@@ 3
蛎@@ 3
蛰@@ 3
蛳 3
蜴 3
蝽@@ 3
螃@@ 3
螅@@ 3
螈 3
螫@@ 3
蠡@@ 3
蠢 3
衙@@ 3
衰期 3
裤@@ 3
裹@@ 3
計 3
試@@ 3
譬@@ 3
讥@@ 3
讫 3
讳 3
诘@@ 3
诣 3
诬@@ 3
谎@@ 3
谏@@ 3
谑 3
谕@@ 3
谟@@ 3
质瘤 3
贼@@ 3
赐@@ 3
赭@@ 3
跪 3
踞 3
踹 3
蹩@@ 3
蹴@@ 3
蹼@@ 3
轫 3
轫@@ 3
轿 3
轿@@ 3
输卵@@ 3
辗 3
辟@@ 3
迳 3
逗 3
逢@@ 3
遁 3
邈 3
邓 3
邱 3
鄙 3
酊 3
醅@@ 3
鎮 3
鑫 3
钞@@ 3
钧 3
钧@@ 3
铎 3
铱@@ 3
锉@@ 3
镊@@ 3
镐 3
镑 3
镨 3
镰刀@@ 3
镱 3
闩 3
闷@@ 3
阂 3
阮@@ 3
除术 3
陪 3
隹 3
雍 3
霾 3
韬 3
頫 3
顽 3
颐 3
馀@@ 3
馅 3
馨 3
驶 3
驶@@ 3
體 3
鮈@@ 3
鮸@@ 3
鯵 3
鲃 3
鲆@@ 3
鲮@@ 3
鳐 3
鳜@@ 3
鳟@@ 3
鸥@@ 3
鸳 3
鸵 3
鸸@@ 3
鹋 3
鹮 3
鹳 3
鹽 3
麒@@ 3
麓@@ 3
麟@@ 3
鼩 3
鼾 3
齒 3
龚@@ 3
@@ 3
@@ 3
 3
@@ 3
 3
 3
@@ 3
 3
 3
 3
@@ 3
 3
 3
@@ 3
 3
 3
 3
@@ 3
﹑@@ 3
＆ 3
$@@ 2
... 2
..@@ 2
2051 2
3O 2
66.7 2
7,@@ 2
8,@@ 2
?@@ 2
AKE 2
ALO@@ 2
ANCE 2
ANG@@ 2
ATION 2
Act 2
Activ@@ 2
Activated 2
Active@@ 2
Actu@@ 2
Adap@@ 2
Addi@@ 2
Agg@@ 2
Agro@@ 2
Aided 2
Aim@@ 2
Amorph@@ 2
Approach 2
Arm 2
Arnol@@ 2
Arrhen@@ 2
Artery 2
Assi@@ 2
Assignment 2
Audit 2
Aug@@ 2
August 2
Autonomous 2
B. 2
Base 2
Biom@@ 2
Bot@@ 2
Brain 2
Break@@ 2
Bridge 2
Building 2
C57@@ 2
CD25 2
CHEM@@ 2
CHINA 2
CHRO@@ 2
CLIN@@ 2
CRY@@ 2
Calibration 2
Capability 2
Capacity 2
Catalyst 2
Cavity 2
Cells 2
Cement 2
Central 2
Chang@@ 2
Chemo@@ 2
Choice 2
Chris@@ 2
Chromosome 2
Circuit 2
Civil 2
Clus@@ 2
Comb@@ 2
Combined 2
Commerce 2
Committee 2
Communic@@ 2
Company 2
Competitive 2
Complex 2
Composite 2
Computing 2
Concentr@@ 2
Concept 2
Construc@@ 2
Controll@@ 2
Controlled 2
Converter 2
Coronary 2
Correction 2
Correlation 2
Coun@@ 2
Criteri@@ 2
Current 2
Cycle 2
DIC@@ 2
DIF@@ 2
Death 2
Deep 2
Defense 2
Defin@@ 2
Demand 2
Diag@@ 2
Difference 2
Diffusion 2
Dirich@@ 2
Distribution 2
Dop@@ 2
Drawing 2
Dru@@ 2
EAR@@ 2
ERGY 2
ERO@@ 2
Earth 2
Education 2
Eff@@ 2
Effect 2
Elec@@ 2
Electron 2
Eli@@ 2
Emer@@ 2
Emission 2
End 2
End@@ 2
Equilibrium 2
Eur@@ 2
Expression 2
Extrac@@ 2
Extraction 2
FIN@@ 2
FUN@@ 2
Fabrication 2
Face 2
Fault 2
Feature 2
Fem@@ 2
Fic@@ 2
Finite 2
Fix@@ 2
Flight 2
Floor 2
For 2
Forest 2
Form 2
Frac@@ 2
Frame 2
Fron@@ 2
Fuel 2
Future 2
GAN@@ 2
GCr@@ 2
GRAP@@ 2
Gear 2
Generator 2
Gir@@ 2
Gluco@@ 2
Gold 2
Good 2
Governance 2
Gran@@ 2
Great 2
Ground@@ 2
Groups 2
Guang@@ 2
Guide 2
Gul@@ 2
Hand 2
Heat 2
Hepatic 2
Hex@@ 2
Hierarch@@ 2
Hist@@ 2
Hos@@ 2
Hot 2
House 2
Hum@@ 2
INTE@@ 2
ITY 2
IZ@@ 2
Identification 2
Il@@ 2
Imaging 2
Immune 2
Independent 2
Indic@@ 2
Inhibit@@ 2
Injury 2
Inner 2
Inst@@ 2
Instru@@ 2
Instrument 2
Intra@@ 2
Inven@@ 2
Inverse 2
Investment 2
Isol@@ 2
Iter@@ 2
JAV@@ 2
JI@@ 2
Jap@@ 2
Jav@@ 2
Jet 2
Jiang@@ 2
Jin 2
Jin@@ 2
Journal 2
Jud@@ 2
Jun@@ 2
Kine@@ 2
Labor@@ 2
Leaf 2
Less@@ 2
Lew@@ 2
Liqu@@ 2
Liquid 2
Liver 2
Living 2
Load 2
Loc@@ 2
Local 2
Logistics 2
Loss 2
Low 2
MIL@@ 2
MINE 2
Material 2
Mean@@ 2
Medium 2
Melting 2
Metallo@@ 2
Minimum 2
Mode 2
Mono@@ 2
Morph@@ 2
NETW@@ 2
NSI@@ 2
NUMER@@ 2
Nature 2
Navigation 2
Nec@@ 2
Neo 2
News 2
Num@@ 2
Nutri@@ 2
Nutrition 2
OIL 2
ORK 2
Optimal 2
Option 2
Organ@@ 2
Organic 2
Out 2
Over 2
Oxide 2
PGF 2
PHY@@ 2
Parameters 2
Particle 2
Pati@@ 2
Pattern 2
Petroleum 2
Phenomen@@ 2
Phosphate 2
Physi@@ 2
Pig@@ 2
Pit 2
Plasma 2
Plate 2
Pois@@ 2
Pole 2
Polym@@ 2
Polymer 2
Polymerase 2
Posi@@ 2
Predic@@ 2
Pressure 2
Principal 2
Prob@@ 2
Proce@@ 2
Prog@@ 2
Projects 2
Pulse 2
Pun@@ 2
Purpose 2
Qingdao 2
Question@@ 2
R&@@ 2
RESE@@ 2
RING 2
RON@@ 2
Radiation 2
Rail@@ 2
Range 2
Reaction 2
Reactive 2
Recombinant 2
Related 2
Relative 2
Reliability 2
Relief 2
Remo@@ 2
Remote 2
Renal 2
Report 2
Representation 2
Resin 2
Resistance 2
Reson@@ 2
Resour@@ 2
Response 2
Reti@@ 2
Retri@@ 2
Reverse 2
Reyn@@ 2
Rig@@ 2
River 2
Rod 2
Rolling 2
SEL@@ 2
SIGN 2
SPE@@ 2
Sales 2
Same 2
Samp@@ 2
Schol@@ 2
Scholar 2
School 2
Screen 2
Screw 2
Selection 2
Semic@@ 2
Sets 2
She 2
Sheet 2
Shell 2
Shield 2
Shooting 2
Sign@@ 2
Silver 2
Sleep 2
Sliding 2
Smo@@ 2
So 2
Society 2
Soft 2
Song 2
Sour@@ 2
Soybean 2
Spi@@ 2
Spot 2
Spra@@ 2
Squ@@ 2
Square 2
Staphylococcus 2
States 2
Station 2
Steel 2
Stem 2
Step 2
Stim@@ 2
Stone 2
Studies 2
Study 2
Suc@@ 2
Sugar 2
Supply 2
Surface 2
TECH@@ 2
TERT 2
TXB 2
Talk 2
Target 2
Tari@@ 2
Team 2
Tele@@ 2
Th1/@@ 2
There 2
Throm@@ 2
Tobacco 2
Tool 2
Tooth 2
Tot@@ 2
Trace 2
Tracking 2
Tran@@ 2
Transfer 2
Tro@@ 2
Tumor 2
Tunnel 2
Turbine 2
Two 2
United 2
VEL 2
VEL@@ 2
Vas@@ 2
Velocity 2
View@@ 2
Vill@@ 2
Voltage 2
Volume 2
WAV@@ 2
Water 2
Wavelength 2
Wei@@ 2
Wen 2
Wet 2
What 2
Wist@@ 2
Yan 2
Yang 2
Yi 2
Young 2
Yu@@ 2
Zero 2
Zhu 2
Zi 2
^@@ 2
abdom@@ 2
abdominal 2
abl@@ 2
ables 2
abs@@ 2
acci@@ 2
aceful 2
acqu@@ 2
acquired 2
acrylamide 2
acte@@ 2
acting 2
actions 2
acul@@ 2
acy 2
address 2
adiol 2
adjuvant 2
adop@@ 2
adow 2
adult 2
advanced 2
aer@@ 2
aerobic 2
aesthetics 2
against 2
aged 2
agged 2
aggregate 2
aggregation 2
agit@@ 2
aker 2
alco@@ 2
alcoholic 2
aldehyde 2
ales 2
algorithm 2
algorithms 2
alkaline 2
allocation 2
ally 2
alter@@ 2
altern@@ 2
altitude 2
alveolar 2
ambi@@ 2
amin 2
amus 2
amycin 2
ancer 2
anded 2
anese 2
aneurysm 2
ange 2
anil@@ 2
anim@@ 2
anning 2
annual 2
anomal@@ 2
anterior 2
anthrac@@ 2
anti 2
antibodies 2
antibody 2
antic@@ 2
apatite 2
aper 2
apex 2
aphen@@ 2
aphy@@ 2
arch@@ 2
architec@@ 2
ario 2
arti@@ 2
ased 2
asi 2
ask 2
assa@@ 2
assisted 2
astr@@ 2
atal 2
ated@@ 2
ater 2
atherosclerosis 2
ations 2
atoms 2
ators 2
atory 2
attrac@@ 2
audi@@ 2
aug@@ 2
autom@@ 2
avian 2
azole 2
back 2
backward 2
bal 2
ball 2
ban@@ 2
bate 2
below 2
benz@@ 2
bery 2
best@@ 2
bium 2
bling 2
blow@@ 2
blu@@ 2
board 2
bog@@ 2
bos@@ 2
bra 2
brad@@ 2
bronchi@@ 2
bronchial 2
bronectin 2
bt 2
bubble 2
building 2
burn 2
butanol 2
cann@@ 2
cardiop@@ 2
caro@@ 2
cartilage 2
cas@@ 2
casting 2
cav@@ 2
ced 2
cef@@ 2
cellular 2
cellulose 2
centered 2
cervical 2
characteri@@ 2
chec@@ 2
ches 2
chicken 2
chloro@@ 2
cholec@@ 2
chrome 2
chromosome 2
cil 2
city 2
class@@ 2
clone 2
cloning 2
closure 2
coc@@ 2
coco@@ 2
code 2
code@@ 2
cog@@ 2
collagen 2
coma 2
comb 2
condi@@ 2
conditional 2
conditioned 2
conducting 2
conn@@ 2
const@@ 2
contact 2
contain@@ 2
continuum 2
converting 2
coordinate 2
coron@@ 2
corrected 2
cortico@@ 2
coupled 2
cros@@ 2
cru@@ 2
cryp@@ 2
ctomy 2
cur@@ 2
cv 2
cyan@@ 2
cycle 2
cyste@@ 2
cystic 2
cytos@@ 2
dal@@ 2
dam@@ 2
dan@@ 2
dark 2
decade 2
decision 2
decomp@@ 2
decomposition 2
ded@@ 2
def@@ 2
defect 2
defen@@ 2
deficient 2
degradation 2
delay 2
delta 2
dem 2
dem@@ 2
dens 2
denti@@ 2
deration 2
dering 2
derivative 2
desc@@ 2
detec@@ 2
detection 2
develop@@ 2
diabetes 2
diffuse 2
digital 2
dil@@ 2
dimethyl@@ 2
diversified 2
domestic 2
donor 2
door 2
doped 2
dos@@ 2
dose 2
dou@@ 2
drop 2
dry 2
du 2
dual 2
dynamics 2
dys@@ 2
e.@@ 2
eable 2
each 2
eco 2
ective 2
ector 2
edema 2
eing 2
electric 2
electromagnetic 2
electrophoresis 2
elihood 2
eline 2
eling 2
elle 2
ells 2
elong@@ 2
embryonic 2
emo@@ 2
enced 2
encephal@@ 2
ending 2
eness 2
engine@@ 2
enium 2
ensi@@ 2
enth@@ 2
entry 2
environment 2
epit@@ 2
epoxy 2
eps 2
equ@@ 2
ere 2
eren 2
ervation 2
esophageal 2
ester@@ 2
estern 2
estern@@ 2
estion 2
estradiol 2
estrogen 2
etal 2
etho@@ 2
ets 2
eves 2
evi@@ 2
evoked 2
experiment 2
exten@@ 2
extraction 2
fal@@ 2
famili@@ 2
fast 2
feature 2
feed@@ 2
feedback 2
fel@@ 2
felt 2
fib@@ 2
fibroblasts 2
fibrosis 2
ficiency 2
fide 2
field@@ 2
fields 2
fir@@ 2
flex@@ 2
fluo@@ 2
fluoro@@ 2
flux 2
forth 2
fractive 2
fracture 2
frequ@@ 2
fro@@ 2
fron@@ 2
ful 2
full 2
functional 2
fy 2
fying 2
gamma 2
gap 2
gastro@@ 2
gation 2
gence 2
gener@@ 2
genetic 2
genic 2
genicity 2
ght 2
gic 2
gins 2
gium 2
global 2
globin 2
glucose 2
glut@@ 2
glutathione 2
glyco@@ 2
good@@ 2
grade 2
grafting 2
gram 2
grass 2
gression 2
gro@@ 2
groups 2
grow@@ 2
guide 2
gy 2
hab@@ 2
had 2
hair@@ 2
hao 2
hed 2
height 2
hemorrhage 2
hepatic 2
hig@@ 2
hill 2
him@@ 2
hippocampus 2
hist@@ 2
homologous 2
hop@@ 2
housing 2
hydrox@@ 2
hyp@@ 2
hypoxic 2
ical 2
icar@@ 2
icity 2
icks 2
idal 2
idazole 2
idity 2
idney 2
ids 2
ifer@@ 2
iferase 2
ight@@ 2
iling 2
ilities 2
ils 2
image 2
immune 2
impul@@ 2
ination 2
inducing 2
industry 2
iner@@ 2
information 2
inhibit@@ 2
inhibitory 2
inic 2
ining 2
inner 2
instability 2
insulator 2
intelligent 2
interacting 2
interface 2
interleukin 2
intermedi@@ 2
interstitial 2
intrusion 2
inver@@ 2
iratory 2
iron 2
irradi@@ 2
ise 2
ised 2
island 2
issu@@ 2
iter@@ 2
itos@@ 2
izable 2
ize 2
izing 2
jec@@ 2
jection 2
jet 2
joints 2
kers 2
kes@@ 2
kine 2
knowledge 2
lands 2
language 2
large 2
last@@ 2
late 2
ld 2
lea@@ 2
lear@@ 2
lec@@ 2
lement 2
leng@@ 2
lens 2
less 2
library 2
lic 2
lind@@ 2
linked 2
lion 2
liposome 2
lish 2
lit 2
llec@@ 2
locating 2
loci 2
locus 2
loid 2
long 2
lots 2
lumin@@ 2
lung 2
macro@@ 2
made 2
major 2
mal 2
mani@@ 2
market 2
marten@@ 2
mass@@ 2
mast 2
match 2
mation 2
maxim@@ 2
measure 2
mechanical 2
med@@ 2
mediation 2
medical 2
membran@@ 2
merged 2
meridi@@ 2
mesh 2
mess@@ 2
methodology 2
methyl 2
metic 2
metric 2
mic 2
mill@@ 2
mineral 2
minogen 2
mium 2
mobil@@ 2
mode@@ 2
mole 2
molec@@ 2
molecular 2
morph@@ 2
mous 2
mud@@ 2
music 2
mutation 2
mycin 2
nals 2
nec@@ 2
ned 2
nel 2
neuron 2
new@@ 2
nings 2
nitro@@ 2
none 2
normal 2
norms 2
not 2
not@@ 2
now 2
object 2
objective 2
obstructive 2
ocar@@ 2
oflo@@ 2
ogen 2
ogenesis 2
ography 2
oking 2
ole 2
olysis 2
omal@@ 2
omics 2
onal 2
onductor 2
ontology 2
opa@@ 2
opathic 2
opathy 2
operation 2
operator 2
opol@@ 2
opping 2
ordered 2
oriented 2
ories 2
oring 2
osis 2
other 2
other@@ 2
otide 2
ound 2
own 2
oxy 2
pan 2
partial 2
pathway 2
pattern 2
pay 2
pedicle 2
pel@@ 2
pep@@ 2
peripheral 2
pero@@ 2
perox@@ 2
peroxidase 2
pers 2
personality 2
pes 2
phal@@ 2
physical 2
ping 2
pit 2
pital 2
plat@@ 2
platelet 2
plays 2
poin@@ 2
policy 2
polymorphisms 2
pool 2
pop@@ 2
porous 2
porphy@@ 2
portal 2
pot 2
poten@@ 2
potent 2
predictive 2
preference 2
pressed 2
primers 2
principal 2
pris@@ 2
professional 2
programming 2
project 2
proline 2
prop@@ 2
propagation 2
propi@@ 2
propor@@ 2
prote@@ 2
pu 2
pulsed 2
put@@ 2
pyl@@ 2
pyr@@ 2
pyri@@ 2
qi 2
qua@@ 2
quantitative 2
quick 2
race 2
radar 2
ral 2
rapid 2
rat 2
reac@@ 2
recycled 2
reduc@@ 2
regu@@ 2
release 2
remo@@ 2
renin 2
repair 2
reser@@ 2
resi@@ 2
resisti@@ 2
respiratory 2
rest@@ 2
restriction 2
result 2
resur@@ 2
reti@@ 2
retinal 2
retinopathy 2
review 2
rhy@@ 2
rich 2
ricul@@ 2
ries 2
rift 2
rine 2
rip@@ 2
rival 2
roll 2
rotic 2
rough 2
round@@ 2
router 2
rox@@ 2
rub 2
rul@@ 2
rush 2
rust 2
sacchar@@ 2
saccharide 2
sal 2
saline 2
salmon@@ 2
sand@@ 2
saponins 2
sarcoma 2
scal@@ 2
scar 2
scheduling 2
schol@@ 2
scor@@ 2
scram@@ 2
search 2
secondary 2
secre@@ 2
securities 2
sed 2
seg@@ 2
segments 2
selection 2
separation 2
septal 2
sequ@@ 2
serial 2
series 2
serv@@ 2
ses 2
ses@@ 2
sex 2
sham 2
shock 2
shor@@ 2
show@@ 2
shower 2
shunt 2
side@@ 2
silent 2
similarity 2
simple 2
sink 2
sinus 2
sions 2
sites 2
situation 2
sity 2
sive 2
six 2
sli@@ 2
slo@@ 2
small 2
social 2
sof 2
solve 2
som@@ 2
sou@@ 2
southern 2
spac@@ 2
space 2
speci@@ 2
sper@@ 2
spin 2
splen@@ 2
split 2
spread 2
square 2
squares 2
stage 2
stagland@@ 2
stal 2
stant 2
state 2
static 2
ste 2
stead 2
stell@@ 2
step@@ 2
stepping 2
stere@@ 2
stic 2
stimulating 2
stimulation 2
stoc@@ 2
stor 2
store@@ 2
stra@@ 2
strategies 2
stric@@ 2
stru@@ 2
structive 2
structure 2
sts 2
substance 2
subunit 2
sun@@ 2
super 2
suppres@@ 2
syll@@ 2
symbol@@ 2
synchronous 2
systemic 2
systems 2
tables 2
tam 2
tance 2
tank 2
tation 2
tely 2
tem 2
temporal 2
tenosis 2
tensive 2
term 2
terminal 2
terone 2
test@@ 2
tha 2
tha@@ 2
that 2
then 2
thern 2
thetic 2
thin@@ 2
thm 2
thorac@@ 2
three 2
thyro@@ 2
ticul@@ 2
tie 2
tility 2
tim 2
tinal 2
tionary 2
tl@@ 2
toco@@ 2
toms 2
tool 2
tot@@ 2
total 2
totype 2
tour@@ 2
tox@@ 2
tract 2
trag@@ 2
trait 2
tral 2
tranet 2
trans 2
transform 2
tras@@ 2
tren@@ 2
tribu@@ 2
tropy 2
tted 2
tual 2
tube 2
ture@@ 2
two 2
uity 2
uld 2
uli@@ 2
uling 2
ulmonary 2
umat@@ 2
ump 2
uni@@ 2
union 2
uo 2
urinary 2
usal 2
use@@ 2
usi@@ 2
uti@@ 2
utta 2
utter 2
utter@@ 2
variables 2
vate 2
vehicle 2
velop@@ 2
venti@@ 2
venue 2
vers 2
version 2
versus 2
vert 2
verte@@ 2
vertical 2
vest 2
vey 2
vian 2
vill@@ 2
vine 2
vision 2
vitamin 2
viv@@ 2
vivo 2
vo 2
vocation 2
volutionary 2
vsk@@ 2
warding 2
wards 2
was@@ 2
wash 2
wasting 2
wat@@ 2
water 2
wavelet 2
weed 2
week 2
wel 2
width 2
wind 2
withdrawal 2
wn 2
xanth@@ 2
yalty 2
ycle 2
yeast 2
yed 2
ysis 2
yuan 2
zens 2
zhe@@ 2
zoic 2
zon@@ 2
zym@@ 2
§ 2
¨ 2
ó@@ 2
ō@@ 2
Α@@ 2
Θ@@ 2
Ι 2
Ρ@@ 2
Д@@ 2
Н@@ 2
Р@@ 2
Т@@ 2
Ч 2
Ч@@ 2
Щ@@ 2
г 2
г@@ 2
м@@ 2
н 2
п 2
р 2
ъ@@ 2
ы@@ 2
№@@ 2
←@@ 2
↑@@ 2
↓ 2
↓@@ 2
∝ 2
∨ 2
∮@@ 2
≌ 2
⊕ 2
⑩ 2
⑴@@ 2
⑵@@ 2
╱ 2
▽@@ 2
◆ 2
○ 2
☉ 2
♂@@ 2
〗 2
る 2
タ 2
㎝@@ 2
一步 2
丞 2
亵@@ 2
仃@@ 2
仆@@ 2
仗 2
伎 2
佚 2
佚@@ 2
佟@@ 2
佰@@ 2
佼@@ 2
侃@@ 2
侗 2
侥@@ 2
俘 2
俟 2
俬 2
俳@@ 2
偷 2
傅里@@ 2
傣 2
冤 2
冥@@ 2
冼@@ 2
凰@@ 2
則 2
剌 2
剐@@ 2
劋@@ 2
勋@@ 2
匙@@ 2
匮@@ 2
區@@ 2
半月@@ 2
卵巢@@ 2
厘 2
参数@@ 2
叟 2
吟@@ 2
吠 2
吧@@ 2
呓 2
呔 2
呗 2
呛 2
呱 2
呱@@ 2
呵 2
呻@@ 2
咒@@ 2
咝@@ 2
哒 2
哩 2
哺 2
哽@@ 2
唢@@ 2
啭 2
喦 2
嗡 2
嘧 2
噜@@ 2
噶 2
囚 2
图书@@ 2
圩 2
圬@@ 2
坤@@ 2
垅 2
垡@@ 2
垴 2
垸@@ 2
埕 2
埚@@ 2
基础@@ 2
堠@@ 2
報@@ 2
壹 2
够@@ 2
夭 2
夭@@ 2
奔 2
妃 2
妆 2
妖 2
妾 2
娅 2
娥 2
娩 2
娶 2
婪 2
媚 2
孪 2
孺@@ 2
它@@ 2
宕 2
宛@@ 2
实率 2
宣 2
宥 2
宦@@ 2
寅@@ 2
寇@@ 2
寐 2
寬@@ 2
寮@@ 2
尻 2
岂 2
岌@@ 2
岖@@ 2
岬 2
峁 2
峭@@ 2
崆@@ 2
嵋 2
嶂 2
巩 2
帚@@ 2
帛 2
幌@@ 2
廨 2
廿 2
弋@@ 2
弩@@ 2
弭 2
強 2
彤@@ 2
彬 2
彬@@ 2
徙@@ 2
忒@@ 2
忿@@ 2
怍@@ 2
怜 2
恣@@ 2
恪 2
恳 2
悍@@ 2
悠 2
惕@@ 2
惰 2
惹@@ 2
惺 2
愉 2
愚 2
愧@@ 2
憧@@ 2
憨 2
憬 2
懈@@ 2
應 2
應@@ 2
懊@@ 2
懿 2
戈 2
戎@@ 2
戗@@ 2
戟@@ 2
戮 2
扔 2
扦 2
拂@@ 2
拇 2
拚@@ 2
拾 2
捂@@ 2
捉@@ 2
捎@@ 2
捏 2
揄 2
揶@@ 2
揿 2
摺 2
撷@@ 2
撼@@ 2
擎 2
擎@@ 2
擒@@ 2
攘@@ 2
敕@@ 2
敖@@ 2
斐 2
斟@@ 2
昇 2
昧@@ 2
昨@@ 2
昭 2
昵 2
昵@@ 2
晏 2
普勒 2
晷 2
暧 2
朓@@ 2
杵@@ 2
杷@@ 2
枓 2
枭@@ 2
枳 2
柒 2
柬 2
梓 2
梵 2
梾@@ 2
棓 2
棺@@ 2
極@@ 2
榉@@ 2
榕 2
榛 2
榫 2
槌 2
槌@@ 2
槭 2
樟 2
橄 2
橐 2
橱@@ 2
檐 2
檫@@ 2
正态@@ 2
殡@@ 2
殷 2
毅@@ 2
毓@@ 2
比色@@ 2
毗 2
氨酯 2
氫 2
汐@@ 2
汶 2
汹@@ 2
沒@@ 2
沤 2
泣 2
洮@@ 2
洵 2
浩 2
涅 2
淌 2
淳 2
渎 2
測 2
渲@@ 2
渴 2
湟 2
溆@@ 2
溏 2
溟 2
溱@@ 2
漉 2
漕@@ 2
漾 2
潛 2
澎 2
澧 2
濛 2
濡@@ 2
瀚 2
瀛@@ 2
炙@@ 2
炱 2
炱@@ 2
炻@@ 2
烙 2
烽@@ 2
煅@@ 2
煨 2
熨 2
熬@@ 2
燧 2
燮 2
牍 2
特网 2
牾 2
狈@@ 2
狍@@ 2
猓@@ 2
玄武@@ 2
玖 2
珏 2
珩 2
現 2
琪 2
琳@@ 2
瑕 2
璞 2
璧@@ 2
環@@ 2
瓤@@ 2
瓮@@ 2
甄 2
畈@@ 2
畦 2
疒@@ 2
病率 2
痞 2
痿 2
瘾@@ 2
癃@@ 2
癥@@ 2
皆@@ 2
皴 2
盯@@ 2
眦@@ 2
眷@@ 2
瞑 2
瞟@@ 2
矗@@ 2
砸 2
砺 2
硅氧@@ 2
碴@@ 2
磅 2
磅@@ 2
磋@@ 2
祉 2
祐 2
祗 2
禄 2
福建@@ 2
秉 2
稃@@ 2
稈@@ 2
種@@ 2
稼 2
窒 2
窘 2
窠@@ 2
窿@@ 2
笃@@ 2
笙@@ 2
笞 2
笺 2
筐 2
策性 2
筠 2
筷 2
箐 2
箐@@ 2
箝 2
箴@@ 2
篙 2
篦 2
篷@@ 2
篾@@ 2
簪 2
籁 2
粥@@ 2
粲@@ 2
粹@@ 2
紅 2
細@@ 2
結 2
給 2
統 2
線@@ 2
纡@@ 2
纰 2
纾@@ 2
绊 2
绎@@ 2
绰@@ 2
维生@@ 2
绺 2
绽@@ 2
缄@@ 2
缉 2
缨@@ 2
羹 2
翎@@ 2
翟@@ 2
翦@@ 2
翳 2
翳@@ 2
耍 2
耒@@ 2
耘 2
耧 2
耸@@ 2
聂@@ 2
聚乙烯@@ 2
聪 2
胨@@ 2
脖@@ 2
腠@@ 2
膑 2
膕 2
膨 2
膺@@ 2
臆 2
臧@@ 2
舅 2
舾@@ 2
艮@@ 2
苈 2
苣@@ 2
苻@@ 2
茌@@ 2
茹 2
荠 2
荤@@ 2
荻@@ 2
莒@@ 2
莜 2
莼@@ 2
莽 2
菘@@ 2
菩@@ 2
萆@@ 2
董 2
葫 2
葶@@ 2
蒌@@ 2
蒴@@ 2
蓍@@ 2
蓿 2
蔟 2
蔺@@ 2
蕊@@ 2
蕙@@ 2
蕲@@ 2
蕻 2
薢 2
藥 2
藨 2
藩 2
虉@@ 2
虏 2
蚩@@ 2
蛆 2
蛔 2
蛞@@ 2
蛮@@ 2
蜇 2
蜕 2
蜗 2
蜷@@ 2
蝓 2
蝠@@ 2
蝾@@ 2
螈@@ 2
螯 2
螽@@ 2
蟑 2
蟲 2
蟲@@ 2
蠓@@ 2
蠖 2
蠲@@ 2
衢 2
袜 2
袜@@ 2
裆 2
裆@@ 2
裔@@ 2
裥 2
裴@@ 2
襞@@ 2
襻 2
襻@@ 2
覬@@ 2
览器 2
觋 2
解剖@@ 2
評 2
試 2
謇@@ 2
讼@@ 2
诂 2
诂@@ 2
诔@@ 2
诣@@ 2
诧@@ 2
诫@@ 2
诲 2
谅 2
谕 2
谗 2
谤@@ 2
谭 2
谲@@ 2
谶@@ 2
豁 2
豇 2
豉@@ 2
豕@@ 2
貂@@ 2
贪 2
贰@@ 2
贲 2
赃 2
赜 2
赡 2
赦 2
趁@@ 2
趟 2
跗 2
跛@@ 2
路器 2
跻@@ 2
踩 2
蹊@@ 2
躺 2
轩 2
轩@@ 2
轲 2
轶@@ 2
轺 2
辄 2
迄 2
迅 2
违 2
迤@@ 2
迴@@ 2
迸@@ 2
這@@ 2
連@@ 2
達 2
邸 2
邾@@ 2
郝 2
鄞@@ 2
鄢@@ 2
鄯@@ 2
酊@@ 2
醣 2
鏊@@ 2
钗 2
铙@@ 2
铡 2
铧 2
铨@@ 2
铪 2
锍@@ 2
锣@@ 2
锪@@ 2
锲@@ 2
镎@@ 2
镏 2
镥 2
镰 2
間 2
阂@@ 2
阗 2
防火@@ 2
阻尼@@ 2
陛 2
隋 2
隼@@ 2
隽 2
隽@@ 2
雙 2
靳@@ 2
響 2
預@@ 2
颍 2
颏 2
颓@@ 2
飑@@ 2
飙@@ 2
馥@@ 2
驗@@ 2
驿@@ 2
骅 2
骇 2
骈 2
骏 2
體@@ 2
髻@@ 2
魁 2
魔 2
鮶@@ 2
鲂 2
鲉@@ 2
鲹 2
鲻 2
鲻@@ 2
鳄@@ 2
鳇 2
鳢 2
鴴 2
鸠 2
鸠@@ 2
鸬@@ 2
鸲 2
鸻 2
鹁@@ 2
鹊@@ 2
鹗 2
鹚 2
鹳@@ 2
鹽@@ 2
麂@@ 2
黧@@ 2
@@ 2
@@ 2
 2
 2
@@ 2
 2
 2
@@ 2
@@ 2
 2
 2
 2
@@ 2
@@ 2
 2
@@ 2
 2
@@ 2
@@ 2
 2
@@ 2
 2
 2
 2
 2
@@ 2
 2
@@ 2
@@ 2
@@ 2
@@ 2
 2
︰ 2
﹒@@ 2
！ 2
＾@@ 2
!@@ 1
----@@ 1
1. 1
10,@@ 1
12,@@ 1
20,@@ 1
2CO 1
2SO 1
2WI 1
3rd 1
6,@@ 1
7th 1
9,@@ 1
ALLO@@ 1
APPLICATION 1
ATED 1
Acci@@ 1
Acoustic 1
Activation 1
Acu@@ 1
Adjus@@ 1
Administrative 1
Agriculture 1
Agrobacterium 1
Aircraft 1
Algorithms 1
Alkal@@ 1
Alloy 1
Amer@@ 1
America 1
Anch@@ 1
Animal 1
Antibody 1
Apoptosis 1
Applications 1
Approxim@@ 1
Arch 1
Architec@@ 1
Army 1
Ash 1
Asian 1
Asphalt 1
Assem@@ 1
Astragal@@ 1
Atomic 1
Att@@ 1
Atten@@ 1
Automobile 1
Auton@@ 1
Axial 1
Bai@@ 1
Balance 1
Basin 1
Basis 1
Beam 1
Before 1
Behavior 1
Benz@@ 1
Between 1
Binding 1
Blasting 1
Blood 1
Board 1
Bone 1
Boundary 1
By 1
CONTRO@@ 1
CRYST@@ 1
CUL@@ 1
CaCO 1
Calcium 1
Calculation 1
Cali@@ 1
Can 1
Cancer 1
Candi@@ 1
Cao 1
Capital 1
Carcinoma 1
Cardi@@ 1
Carrier 1
Catalytic 1
Cerebral 1
Chamber 1
Change 1
Chem@@ 1
Chemical 1
Chemistry 1
Cheng 1
Chick@@ 1
Children 1
Chlor@@ 1
Chronic 1
Class 1
Classification 1
Clim@@ 1
Coating 1
Cold 1
College 1
Colli@@ 1
Combining 1
Commun@@ 1
Community 1
Compens@@ 1
Compon@@ 1
Components 1
Compound 1
Compounds 1
Condi@@ 1
Conditions 1
Conference 1
Connecting 1
Consciousness 1
Consol@@ 1
Contrac@@ 1
Contract 1
Conver@@ 1
Conversion 1
Cooperation 1
Cooperative 1
Copper 1
Corporate 1
Corporation 1
Corrosion 1
Cost 1
Counter 1
Countries 1
Coupling 1
Cour@@ 1
Course 1
Court 1
Cracking 1
Crop 1
Crystal 1
Cut 1
Cyclic 1
Cylind@@ 1
DEVELOPMENT 1
Dam 1
Dam@@ 1
Decomposition 1
Def@@ 1
Degree 1
Demo@@ 1
Density 1
Deposi@@ 1
Deposit 1
Deposition 1
Designing 1
Det@@ 1
Detec@@ 1
Determin@@ 1
Diagnosis 1
Diagram 1
Diesel 1
Differential 1
Differentiation 1
Discrete 1
Disk 1
Disper@@ 1
Displacement 1
Display 1
Doc@@ 1
Dong 1
Double 1
Drive 1
Driven 1
Dust 1
Dynam@@ 1
EEN 1
ELE@@ 1
ENVI@@ 1
ERN 1
East 1
Economics 1
Effective 1
Efficient 1
Elastic 1
Elli@@ 1
Emergency 1
England 1
Enzyme 1
Equation 1
Equipment 1
Escher@@ 1
Essential 1
Estate 1
Estim@@ 1
Evolution 1
Exper@@ 1
Experiment 1
External 1
FER@@ 1
FINITE 1
FLOW 1
FORM@@ 1
FROM 1
FUNCTION 1
Failure 1
Fatigue 1
Features 1
Feed@@ 1
Feedback 1
Feng 1
Feng@@ 1
Fermentation 1
Fields 1
Film 1
Fine 1
Fish 1
Fixed 1
Flexi@@ 1
Flood 1
Fluorescence 1
Flux 1
Fly 1
Food 1
Forces 1
Fore@@ 1
Forward 1
Foundation 1
Four@@ 1
Framework 1
France 1
Fres@@ 1
Fruit 1
Fun@@ 1
Func@@ 1
Functional 1
Functions 1
GENE 1
GENE@@ 1
GENER@@ 1
GHT 1
Game 1
Gas@@ 1
Gastric 1
[...]
